{
  "vocab": {
    "ités": 7719,
    "作": 30732,
    "▁ones": 6743,
    "Log": 3403,
    "ace": 815,
    "二": 30685,
    "cir": 19052,
    "▁Have": 6975,
    "ému": 26988,
    "▁vl": 14204,
    "▁zal": 21421,
    "Begin": 17946,
    "aren": 8326,
    "▁calculated": 12833,
    "▁Kob": 28014,
    "▁cit": 7537,
    "ously": 5794,
    "▁feas": 28326,
    "▁március": 24605,
    "▁кі": 25095,
    "▁,": 1919,
    "▁lieu": 13003,
    "urs": 1295,
    "君": 31240,
    "änger": 13655,
    "ocal": 18642,
    "val": 791,
    "values": 5975,
    "▁truly": 19781,
    "inand": 16149,
    "<<ST_95>>": 32095,
    "▁Tourn": 23720,
    "▁Wed": 15050,
    "▁select": 1831,
    "▁\"/": 5591,
    "▁Ев": 25131,
    "ユ": 31524,
    "▁Przyp": 20172,
    "名": 30548,
    "odon": 28480,
    "asm": 11625,
    "▁було": 11792,
    "▁Gol": 20268,
    "etwork": 2647,
    "▁:(": 16824,
    "▁highest": 9939,
    "Foreign": 27755,
    "ily": 2354,
    "▁WITH": 22659,
    "▁descript": 29037,
    "Fill": 20876,
    "▁throwing": 17452,
    "▁Гре": 27174,
    "▁лю": 6331,
    "------": 22158,
    "ění": 26196,
    "▁Sver": 18144,
    "▁convers": 9678,
    "dictionary": 27126,
    ":": 29901,
    "getElementById": 7119,
    "<<ST_526>>": 32526,
    "aties": 29375,
    "▁respons": 5544,
    "▁ssl": 24250,
    "▁bases": 22561,
    "▁Mira": 29422,
    "▁accompl": 9768,
    "ровано": 27260,
    "ław": 8479,
    "完": 31366,
    "<<ST_454>>": 32454,
    "▁tö": 15246,
    "▁sys": 10876,
    ")).": 8106,
    "▁Див": 23939,
    "▁Mort": 15533,
    "▁musica": 27383,
    "▁domains": 21904,
    "▁ord": 4356,
    "ostał": 6442,
    "itet": 7369,
    "▁programma": 29213,
    "prote": 14676,
    "чи": 1499,
    "äm": 12682,
    "▁explan": 7309,
    "uper": 14805,
    "▁food": 9687,
    "bar": 1646,
    "▁warning": 9177,
    "▁Next": 8084,
    "▁consequence": 17004,
    "Window": 5907,
    "▁franc": 11020,
    "▁denied": 17935,
    "9": 29929,
    "▁Pom": 14351,
    "ɒ": 31036,
    "}),": 9594,
    "▁Cook": 17278,
    "▁pon": 12509,
    "ież": 16086,
    "▁следу": 19139,
    "Produ": 23665,
    "▁reflect": 9432,
    "▁baseball": 21573,
    "iellement": 18029,
    "mir": 11038,
    "▁coefficient": 10825,
    "▁jur": 11099,
    "▁ranking": 24034,
    "lette": 20200,
    "resol": 9778,
    "▁Historia": 11094,
    "▁Height": 22907,
    "▁National": 3086,
    "<<ST_597>>": 32597,
    "▁logger": 17927,
    "лази": 14779,
    "▁grouped": 27831,
    "anon": 19930,
    "▁method": 1158,
    "▁sera": 16933,
    "▁cuer": 25753,
    "▁Oper": 6607,
    "▁anywhere": 12214,
    "ishes": 17006,
    "▁copies": 14591,
    "iced": 7612,
    "▁Deux": 26079,
    "туре": 24585,
    ">\r": 3238,
    "Contract": 21263,
    "<0x74>": 119,
    "▁therm": 14563,
    "▁tre": 2578,
    "▁svil": 21927,
    "▁jo": 2958,
    "▁core": 7136,
    "including": 18271,
    "<<ST_84>>": 32084,
    "葉": 31602,
    "простра": 27328,
    "▁polynomial": 10159,
    "▁break": 2867,
    "▁Wor": 19662,
    "▁friendly": 19780,
    "▁ав": 5484,
    "┬": 30731,
    "acles": 23435,
    "▁Invalid": 21403,
    "▁hely": 14827,
    "ड": 31447,
    "GR": 14345,
    "mier": 26131,
    "▁Nice": 20103,
    "uelle": 13498,
    "▁Stone": 15681,
    "▁gentle": 9914,
    "▁surve": 26946,
    "hes": 13244,
    "▁stops": 17726,
    "▁medieval": 27690,
    "oud": 2736,
    "▁portrait": 21760,
    "▁posterior": 13446,
    "▁Artikel": 26904,
    "周": 31109,
    "设": 30872,
    "▁laughed": 19090,
    "stand": 1689,
    "伝": 31445,
    "▁Сере": 23903,
    "▁zog": 24882,
    "development": 25431,
    "▁первый": 26220,
    "memory": 14834,
    "▁attributed": 29393,
    "▁Bry": 13307,
    ")),": 8243,
    "▁vide": 18900,
    "Util": 7270,
    "ptop": 16002,
    "▁Gary": 23529,
    "ниш": 13837,
    "▁Minnesota": 20994,
    "reet": 4521,
    "▁suggestion": 8998,
    "conv": 20580,
    "▁eigh": 29319,
    "▁polar": 16755,
    "f": 29888,
    "AB": 2882,
    "plane": 22116,
    "ських": 12581,
    "environ": 21813,
    "<<ST_447>>": 32447,
    "▁Ster": 28588,
    "▁equilibrium": 26440,
    "▁processing": 9068,
    "ienst": 11271,
    "navigation": 15466,
    "using": 4746,
    "lik": 5081,
    "consin": 21123,
    "▁Depending": 28277,
    "伊": 31308,
    "zew": 29274,
    "ost": 520,
    "itage": 16639,
    "▁сим": 20468,
    "postgresql": 29272,
    "rid": 2429,
    "uszt": 23605,
    "▁Brun": 17116,
    "▁Wh": 806,
    "DAT": 25832,
    "¾": 30642,
    "cov": 24542,
    "▁brut": 26644,
    "▁explained": 10824,
    "лько": 9298,
    "Init": 6644,
    "▁procedure": 8792,
    "▁Demo": 27819,
    "▁convenient": 19192,
    "▁Cre": 6760,
    "▁regarded": 17878,
    "▁Gün": 26974,
    "communic": 27820,
    "ippi": 22425,
    "▁Ib": 29739,
    "▁provided": 4944,
    "ctor": 2801,
    "▁based": 2729,
    "mpeg": 20856,
    "<0x72>": 117,
    "▁contribu": 27895,
    "▁numero": 17910,
    "jourd": 18997,
    "▁reduction": 20376,
    "range": 3881,
    "гла": 8438,
    "▁dis": 766,
    "пада": 11983,
    "üng": 26668,
    "▁custom": 2888,
    "▁Ung": 29005,
    "▁recovery": 24205,
    "▁Further": 8725,
    "▁Cong": 6005,
    "▁ж": 5571,
    "ribute": 2666,
    "▁Phil": 5241,
    "▁між": 20100,
    "onica": 26082,
    "∧": 30431,
    "expl": 24516,
    "isu": 28311,
    "▁Graham": 22196,
    "ivalent": 27445,
    "acja": 15260,
    "ellig": 9347,
    "▁separator": 28128,
    "icro": 2357,
    "StackTrace": 15437,
    "<0xF2>": 245,
    "▁Famil": 6280,
    "▁paid": 12530,
    "▁Ka": 13680,
    "▁resid": 10995,
    "▁släktet": 7651,
    "▁algorithms": 14009,
    "▁tricky": 28722,
    "<<ST_657>>": 32657,
    "▁Johan": 25551,
    "▁enable": 9025,
    "▁leb": 19685,
    "▁сайті": 20568,
    "車": 31587,
    "рд": 26941,
    "ensis": 6322,
    "▁input": 1881,
    "abi": 19266,
    "▁gewählt": 26430,
    "▁scope": 6874,
    "iclopedia": 21715,
    "Oh": 9048,
    "▁exponential": 25658,
    "poque": 15635,
    "▁mie": 6628,
    "pecially": 25009,
    "loat": 3071,
    "▁wins": 21614,
    "<<ST_384>>": 32384,
    "▁newer": 20687,
    "▁mag": 2320,
    "▁райо": 9328,
    "▁equival": 5737,
    "▁ampl": 20563,
    "payload": 23813,
    "exe": 8097,
    "set": 842,
    "▁Teams": 23570,
    "în": 28065,
    "Xml": 11089,
    "者": 30767,
    "└": 30227,
    "政": 31014,
    "iar": 4447,
    "<<ST_175>>": 32175,
    "hostname": 28988,
    "Life": 26754,
    "ль": 693,
    "DC": 12696,
    "▁још": 15887,
    "▁René": 22721,
    "ăr": 17804,
    "▁italien": 16486,
    "▁Пра": 17913,
    "▁Kab": 20533,
    "gray": 21012,
    "▁tudi": 21406,
    "▁?": 1577,
    "▁spons": 21955,
    "dale": 23276,
    "▁theme": 10929,
    "Descriptor": 19124,
    "Symbol": 14730,
    "▁controller": 4701,
    "jo": 2212,
    "▁СП": 26551,
    ")`": 3569,
    "▁klass": 22902,
    "}>": 17428,
    "uns": 6948,
    "▁Comput": 11796,
    "жена": 24357,
    "▁Бу": 9746,
    "▁nam": 6869,
    "}": 29913,
    "▁quant": 4323,
    "<<ST_580>>": 32580,
    "▁анг": 16775,
    "remote": 16674,
    "undo": 6201,
    "▁dej": 26751,
    "▁Float": 27842,
    "▁Hard": 10999,
    "ishment": 18310,
    "рё": 18535,
    "▁risk": 12045,
    "<<ST_683>>": 32683,
    "▁risult": 24119,
    "Normal": 19077,
    "▁участие": 22398,
    "Under": 29177,
    "▁{{": 8620,
    "▁constitu": 10719,
    "ci": 455,
    "<0x6E>": 113,
    "河": 30828,
    "��": 26308,
    "тро": 9934,
    "yml": 21053,
    "▁trained": 16370,
    "▁wed": 14837,
    "ubre": 7410,
    "antages": 19771,
    "▁incorpor": 11039,
    "▁mist": 5862,
    "▁air": 4799,
    "ille": 1924,
    "▁States": 3900,
    "ग": 30875,
    "▁вме": 17989,
    "tid": 17681,
    "▁Kot": 27961,
    "▁bind": 7868,
    "ában": 10326,
    "▁ense": 23930,
    "▁deb": 2553,
    "▁Му": 11114,
    "▁Pan": 6518,
    "▁mont": 7629,
    "▁Cad": 21542,
    "}}^{": 23325,
    "вет": 7616,
    "▁fotograf": 26185,
    "tilde": 5891,
    "▁revol": 13819,
    "amour": 27419,
    "mee": 17897,
    "html": 1420,
    "ieck": 16776,
    "cdn": 13687,
    "▁ruled": 29490,
    "▁edificio": 28130,
    "<<ST_127>>": 32127,
    "▁importing": 28348,
    "▁février": 10295,
    "▁jsf": 27413,
    "vt": 21908,
    "<<ST_461>>": 32461,
    "▁Point": 8984,
    "▁Sou": 9194,
    "已": 31290,
    "payment": 27825,
    "ст": 464,
    "▁applying": 15399,
    "▁captured": 15468,
    "▁arte": 20160,
    "pper": 2496,
    "▁програ": 15413,
    "▁took": 3614,
    "▁Gemeinsame": 27853,
    "oa": 19807,
    "▁Deep": 21784,
    "▁pow": 4764,
    "▁tiny": 21577,
    "honneur": 28522,
    "xxxx": 14633,
    "cnt": 20047,
    "▁closing": 14382,
    "Mart": 15838,
    "▁operations": 6931,
    "ow": 340,
    "▁Interface": 25796,
    "onic": 8927,
    "ා": 31712,
    "▁distinguished": 20660,
    "▁shout": 21272,
    "▁pill": 22549,
    "▁ath": 17622,
    "rano": 12776,
    "vex": 13809,
    "▁complex": 4280,
    "lou": 23581,
    "▁Frauen": 16386,
    "▁nun": 11923,
    "rium": 16241,
    "新": 30374,
    "▁през": 16319,
    "▁major": 4655,
    "▁Lomb": 24869,
    "FO": 5800,
    "<0xFD>": 256,
    "ods": 19653,
    "▁Prima": 28930,
    "items": 7076,
    "ritt": 12123,
    "▁folgenden": 24245,
    "▁membres": 18490,
    "▁Butler": 29384,
    "{{": 6224,
    "▁accom": 7954,
    "▁стал": 13627,
    "▁db": 4833,
    "▁padre": 14217,
    "asz": 12617,
    "aft": 2051,
    "▁absol": 4963,
    "formed": 15628,
    "▁attract": 13978,
    "need": 26180,
    "Customer": 15122,
    "<<ST_59>>": 32059,
    "▁fres": 29595,
    "▁расположен": 25576,
    "~\\": 2651,
    "ormal": 2759,
    "sens": 23149,
    "▁maps": 11053,
    "unnel": 16163,
    "▁preference": 24583,
    "▁compañ": 23340,
    "IE": 8673,
    "od": 397,
    "▁nécess": 16253,
    "▁authorization": 28733,
    "tensor": 20158,
    "ynie": 27947,
    "Network": 13724,
    "hum": 16063,
    "▁especial": 11605,
    "▁wondering": 9873,
    "aces": 3302,
    "▁AC": 14614,
    "ு": 30837,
    "ゼ": 31718,
    "▁Ferr": 16541,
    "▁пода": 12493,
    "▁Leon": 10255,
    "▁UEFA": 18633,
    "<<ST_672>>": 32672,
    "▁нор": 28698,
    "transform": 9067,
    "ocity": 25245,
    "hl": 4415,
    "▁critics": 28431,
    "Ä": 30125,
    "ute": 1082,
    "▁individually": 29689,
    "uter": 12811,
    "▁Whit": 20572,
    "▁Task": 9330,
    "VD": 10699,
    "▁Ky": 16931,
    "▁у": 863,
    "<<ST_15>>": 32015,
    "▁requirement": 11809,
    "▁echter": 24355,
    "setting": 26740,
    "enez": 10281,
    "nog": 19605,
    "SA": 8132,
    "大": 30257,
    "поль": 18360,
    "▁terminate": 29504,
    "oute": 2663,
    "Т": 30041,
    "idence": 5084,
    "Pass": 7129,
    ",’": 18887,
    "▁Beach": 17594,
    "▁universe": 19859,
    "▁Index": 11374,
    "<<ST_689>>": 32689,
    "lock": 908,
    "нами": 15369,
    "▁chi": 18558,
    "agne": 5889,
    "▁Rights": 26863,
    "▁Bé": 21303,
    "ollar": 26810,
    "poss": 28802,
    "ements": 4110,
    "▁Système": 28388,
    "▁[_": 23160,
    "ம": 30930,
    "▁Bien": 26219,
    "▁inser": 13534,
    "elor": 12779,
    "▁ov": 15397,
    "▁wa": 11324,
    "▁population": 4665,
    "▁Mu": 8229,
    "▁LIM": 26890,
    "▁Channel": 17368,
    "▁Entertainment": 18189,
    "▁repository": 9810,
    "lee": 17179,
    "▁wrapping": 28489,
    "&#": 9137,
    "ourse": 10242,
    "▁gay": 23852,
    "The": 1576,
    "要": 30698,
    "atype": 23179,
    "*\\": 17710,
    "▁nature": 5469,
    "van": 3703,
    "flu": 25044,
    "eting": 15133,
    "▁cleared": 24639,
    "▁Sid": 19732,
    "ánico": 26152,
    "▁Luigi": 22487,
    "▁Ми": 4860,
    "oden": 13183,
    ",]": 26073,
    "gem": 17797,
    "▁qu": 439,
    "‐": 30304,
    "hora": 15255,
    "▁amely": 18260,
    "isson": 17387,
    "▁Representatives": 28757,
    "▁fa": 2258,
    "ё": 30043,
    "▁life": 2834,
    "Marker": 24619,
    "haps": 4252,
    "azon": 10131,
    "scroll": 10510,
    "ག": 31208,
    "ца": 3432,
    "▁Morris": 23112,
    "▁Ru": 9723,
    "ּ": 30500,
    "Trans": 4300,
    "▁Math": 5792,
    "+": 29974,
    "Program": 9283,
    "▁FALSE": 17131,
    "画": 31046,
    "anni": 9889,
    "▁Одна": 18412,
    "сты": 14860,
    "▁De": 897,
    "▁Altri": 7057,
    "》": 30843,
    "Dat": 16390,
    "astro": 23364,
    "fica": 12619,
    "▁проф": 13503,
    "Horizontal": 24932,
    "▁Uniti": 24699,
    "的": 30210,
    "▁Ask": 26579,
    "++;": 9107,
    "onymes": 12484,
    ".\"": 1213,
    "▁Initial": 17250,
    "шов": 18149,
    "Zero": 24214,
    "▁|\\": 18283,
    "▁Бри": 24944,
    "firebase": 17445,
    "▁navigate": 23624,
    "guide": 13075,
    "▁ownership": 27428,
    "▁Gén": 26236,
    "chia": 20508,
    "▁Argument": 23125,
    "▁Cs": 24277,
    "cdot": 3822,
    "▁trasfer": 27370,
    "ăt": 16998,
    "à": 30001,
    "high": 9812,
    "▁kan": 6841,
    "lett": 13650,
    "▁endl": 18659,
    "▁offset": 9210,
    "▁Constantin": 23194,
    "▁deleted": 11132,
    "▁На": 2372,
    "лимпи": 19210,
    "<<ST_115>>": 32115,
    "iginal": 5635,
    "▁feelings": 21737,
    "uster": 5402,
    "▁Xml": 24409,
    "▁Plot": 18399,
    "priv": 22534,
    "weg": 7872,
    "ਾ": 31248,
    "adors": 24549,
    "bounds": 23687,
    "ling": 1847,
    "▁\"</": 25225,
    "ORS": 24125,
    "erner": 15479,
    "<<ST_544>>": 32544,
    "▁sott": 29139,
    "▁Figure": 11479,
    "domin": 24130,
    "VE": 12064,
    "▁typescript": 23741,
    "copy": 8552,
    "▁sus": 2858,
    "settings": 11027,
    "erade": 15019,
    "бка": 23348,
    "▁COUNT": 21122,
    "<<ST_174>>": 32174,
    "▁True": 5852,
    "istic": 4695,
    "▁població": 18675,
    "imal": 3039,
    "сту": 3936,
    "▁sorry": 7423,
    "町": 30829,
    "Ó": 30178,
    "▁Nicholas": 24234,
    "rile": 13816,
    "_*": 24563,
    "▁sir": 8889,
    "ause": 1071,
    "▁significantly": 16951,
    "хов": 9490,
    "dk": 8181,
    "▁sacr": 19886,
    "itude": 4279,
    "docs": 2640,
    "Lin": 11667,
    "стров": 28795,
    "D": 29928,
    "▁auto": 4469,
    "чно": 4913,
    "▁meets": 28103,
    "▁Thompson": 22348,
    "▁BB": 29449,
    "Database": 9112,
    "▁pół": 21232,
    "▁decrease": 23806,
    "連": 31692,
    "<<ST_300>>": 32300,
    "▁составляет": 21500,
    "CA": 5454,
    "DataFrame": 17271,
    "▁deeper": 25871,
    "▁event": 1741,
    "▁Kh": 12217,
    "protocol": 20464,
    "jen": 4142,
    "сла": 12329,
    "▁sont": 3435,
    "▁GUI": 14839,
    "▁no": 694,
    "▁Engine": 10863,
    "▁hello": 22172,
    "ometry": 7843,
    "ografia": 5028,
    "zyk": 20973,
    "▁stor": 2840,
    "▁jedoch": 9901,
    "<0xDD>": 224,
    "ami": 4479,
    "▁delayed": 29801,
    "vy": 13308,
    "▁paths": 10898,
    "imenti": 22210,
    "▁био": 21840,
    "UID": 11150,
    "▁guarantee": 18818,
    "ments": 1860,
    "▁Dom": 7809,
    "▁mine": 7903,
    "▁consider": 2050,
    "++,": 10024,
    "▁useless": 19315,
    "бре": 13782,
    "<<ST_489>>": 32489,
    "▁Whe": 26286,
    "▁Arag": 24350,
    "▁administr": 6343,
    "▁touched": 23051,
    "▁Bet": 6313,
    "▁Gó": 25055,
    "▁Lamb": 26832,
    "▁extend": 10985,
    "ución": 16249,
    "▁Fo": 28532,
    "<<ST_63>>": 32063,
    "<<ST_435>>": 32435,
    "连": 31903,
    "shal": 23258,
    "нії": 21902,
    "ícul": 7815,
    "èce": 10491,
    "问": 31658,
    "▁Lub": 19278,
    "▁simult": 15030,
    "▁afford": 21750,
    "Sol": 13296,
    "▁Assuming": 17090,
    "icios": 19382,
    "▁indic": 4221,
    "talet": 25319,
    "method": 5696,
    "▁Wer": 8398,
    "▁Landkreis": 19126,
    "▁pubblicato": 25491,
    "<<ST_425>>": 32425,
    "▁Gia": 22566,
    "▁conventional": 28557,
    "▁happ": 2250,
    "史": 30911,
    "▁BEGIN": 22815,
    "aha": 25613,
    "▁Nothing": 9531,
    "lait": 27275,
    "yt": 3637,
    "ocket": 9749,
    "▁cantante": 23689,
    "▁farm": 17888,
    "<<ST_106>>": 32106,
    "igo": 5973,
    "Methods": 26112,
    "Call": 5594,
    "<<ST_97>>": 32097,
    "▁miles": 7800,
    "encias": 6187,
    "素": 31605,
    "yect": 17113,
    "тися": 29600,
    "▁partially": 22039,
    "▁Tw": 8168,
    "Dialog": 7647,
    "▁Syst": 24272,
    "▁Video": 13987,
    "▁elect": 3546,
    "PI": 2227,
    "projects": 16418,
    "▁resta": 24450,
    "▁xml": 4903,
    "▁Пав": 23646,
    "hd": 16440,
    "regular": 15227,
    "orum": 17220,
    "Wel": 28862,
    "▁`{": 23230,
    "▁Bian": 29860,
    "beck": 19645,
    "air": 1466,
    "ета": 21366,
    "@{": 28312,
    "insen": 28219,
    "▁Women": 10152,
    "docker": 14695,
    "▁Binary": 29479,
    "▁water": 4094,
    "ovy": 15890,
    "sim": 3601,
    "▁DNS": 16332,
    "▁Миха": 13277,
    "▁gewesen": 29321,
    "▁Parlament": 23608,
    "▁drie": 23254,
    "▁aud": 12990,
    "WA": 12982,
    "▁shortcut": 21697,
    "̌": 31909,
    "▁fed": 21242,
    "▁Develop": 10682,
    "áj": 15005,
    "▁сери": 28860,
    "▁\"$": 3908,
    "▁ancest": 19525,
    "movie": 27362,
    "▁armed": 23926,
    "▁analyt": 16114,
    "▁hibernate": 26168,
    "cis": 3476,
    "Hi": 18567,
    "▁Nevertheless": 25678,
    "▁peer": 23533,
    "▁instantly": 26232,
    "wei": 26599,
    "▁tous": 9411,
    "▁Gy": 12842,
    "▁Bund": 24240,
    "▁they": 896,
    "soft": 2695,
    "▁suggests": 14661,
    "▁ipsum": 23421,
    "▁altre": 17410,
    "cus": 8668,
    "Write": 6113,
    "amp": 1160,
    "▁Settings": 19215,
    "▁желез": 25815,
    "<0xD6>": 217,
    "▁rh": 18178,
    "aping": 21430,
    "hyper": 24947,
    "inburgh": 23559,
    "reflect": 13191,
    "▁Parad": 24829,
    "▁Ад": 22601,
    "веде": 12055,
    "▁competed": 22071,
    "▁Americans": 23035,
    "▁Voci": 19835,
    "▁naturally": 18180,
    "▁joue": 24853,
    "▁geprüft": 23658,
    "};": 3400,
    "otos": 15788,
    "▁rend": 7697,
    "amar": 8715,
    "Exit": 24365,
    "▁zwe": 4753,
    "]$.": 22689,
    "download": 10382,
    "後": 31220,
    "▁DOM": 12369,
    "▁hoped": 24936,
    "ð": 30189,
    "ी": 30580,
    "▁monot": 21196,
    "cyc": 8798,
    "Full": 13658,
    "▁Soccer": 18993,
    "▁compte": 16731,
    "▁dimension": 9927,
    "▁restrictions": 25091,
    "ême": 5093,
    "▁accus": 26142,
    "▁turno": 24562,
    "į": 31725,
    "▁Alice": 16308,
    "▁now": 1286,
    "▁beautiful": 9560,
    "▁Heimat": 22200,
    "▁Device": 21830,
    "ups": 14340,
    "▁global": 5534,
    "▁Sm": 4116,
    "▁klas": 18559,
    "▁Dr": 4942,
    "▁lav": 22181,
    "▁engag": 27010,
    "func": 9891,
    "▁explic": 28117,
    "baar": 26934,
    "▁Ol": 7137,
    "▁member": 4509,
    "ball": 2135,
    "▁Liberal": 25910,
    "<<ST_26>>": 32026,
    "Asset": 26405,
    "ertain": 13946,
    "▁verl": 27059,
    "▁$(\"": 5775,
    "▁stackoverflow": 29577,
    "тря": 25680,
    "▁alleg": 16831,
    "lower": 13609,
    "▁церков": 25976,
    "▁re": 337,
    "ゲ": 31335,
    "RL": 2241,
    "▁shorter": 20511,
    "ermeister": 23282,
    "inal": 979,
    "成": 30494,
    "▁hard": 2898,
    "航": 31727,
    "▁dream": 12561,
    "sil": 25590,
    "INST": 25580,
    "ioned": 28487,
    "dor": 22571,
    "▁Generation": 28203,
    "slow": 28544,
    "alph": 19712,
    "▁elif": 25342,
    "▁Adv": 25215,
    "▁metric": 12714,
    "▁jeho": 17002,
    "izer": 3950,
    "dra": 19811,
    "▁Wik": 3772,
    "apt": 2156,
    "▁tête": 17949,
    "▁IB": 15731,
    "▁pac": 22906,
    "▁absolv": 28994,
    "ettbe": 27840,
    "▁chant": 26639,
    "ais": 1759,
    "^-": 21583,
    "<<ST_533>>": 32533,
    "▁Си": 7473,
    "emeinde": 6861,
    "zeitig": 27570,
    "▁jak": 12979,
    "outs": 17718,
    "<<ST_439>>": 32439,
    "▁international": 6121,
    "зом": 15438,
    "▁Juli": 7603,
    "HI": 17628,
    "▁august": 15251,
    "ア": 30310,
    "▁former": 4642,
    "오": 31346,
    "▁football": 5733,
    "▁Aug": 22333,
    "▁hal": 8870,
    "▁seinem": 10294,
    "ení": 10639,
    "▁belonged": 28911,
    "▁rust": 21580,
    "▁Nieder": 16501,
    "rd": 5499,
    "▁sales": 16538,
    "▁Original": 8533,
    "...": 856,
    "<<ST_397>>": 32397,
    "▁geslacht": 25786,
    "chn": 3049,
    "fahrt": 29182,
    "<<ST_648>>": 32648,
    "<<ST_465>>": 32465,
    "▁deutscher": 8597,
    "istor": 2118,
    "デ": 30597,
    "▁села": 18969,
    "ea": 11248,
    "ніципалі": 20422,
    "burg": 3074,
    "▁elections": 20209,
    "▁sevent": 16741,
    "icks": 7358,
    "▁Хар": 20297,
    "rr": 21478,
    "↔": 30490,
    "<<ST_572>>": 32572,
    "ln": 3083,
    "▁Fail": 29098,
    "зяй": 20188,
    "▁Хо": 14120,
    "lit": 19411,
    "▁choose": 6755,
    "Method": 4062,
    "▁живо": 17224,
    "▁civ": 14175,
    "orie": 7661,
    "KB": 26067,
    "▁Product": 10969,
    "▁boolean": 7223,
    "▁care": 2562,
    "▁Anne": 10558,
    "▁runs": 6057,
    "▁analyz": 29537,
    "▁lemma": 10383,
    "(_": 7373,
    "▁curve": 11672,
    "▁Ana": 20367,
    "▁mole": 13206,
    "▁сред": 12831,
    "<<ST_295>>": 32295,
    "//": 458,
    "▁Erst": 20329,
    "anta": 6949,
    "▁Halle": 28174,
    "resh": 3781,
    "uj": 8016,
    ".):": 9575,
    "▁département": 13202,
    "四": 30928,
    "ampa": 20056,
    "▁burn": 12138,
    "}}}": 12499,
    "▁Th": 498,
    "▁mort": 5758,
    "fty": 3312,
    "Sql": 10520,
    "äre": 15994,
    "fatt": 27502,
    "isons": 14125,
    "▁extr": 17541,
    "▁nom": 2245,
    "▁Switch": 28176,
    "vs": 4270,
    "lecht": 28941,
    "ē": 30230,
    "▁Sir": 6290,
    "⊆": 30842,
    "▁chez": 14255,
    "▁Reg": 2169,
    "▁Phili": 8234,
    "NT": 20321,
    "▁zurück": 9964,
    "NET": 6006,
    "▁пока": 25693,
    "lasse": 14537,
    "tp": 9392,
    "▁export": 5609,
    "▁guerre": 12573,
    "öff": 8850,
    "пан": 10328,
    "},{": 29087,
    "▁dimin": 22964,
    "nitz": 29204,
    "lichkeit": 23143,
    "▁WorldCat": 13293,
    "л": 29944,
    "ты": 3327,
    "anga": 12686,
    "ls": 3137,
    "isecond": 18802,
    "sta": 5173,
    "gent": 5362,
    "▁Vertrag": 29396,
    "▁Zar": 22453,
    "ATH": 7534,
    "apper": 23239,
    "▁narr": 15474,
    "лений": 20544,
    "ave": 1351,
    "▁mod": 878,
    "▁station": 5073,
    "▁volumes": 18167,
    "▁West": 3122,
    "ClickListener": 11676,
    "▁przeci": 29572,
    "▁infinite": 10362,
    "cket": 3522,
    "agers": 18150,
    "▁shows": 3697,
    "▁cross": 4891,
    "▁ax": 4853,
    "▁муж": 20686,
    "▁És": 29441,
    "▁resize": 19490,
    "▁pierw": 26657,
    "▁fün": 14753,
    "▁Portály": 20609,
    "▁chaque": 18402,
    "юще": 11957,
    "▁Sciences": 17253,
    "▁Hans": 6971,
    "stellung": 11550,
    "lost": 18767,
    "▁Ap": 6225,
    "REF": 25866,
    "▁oil": 17182,
    "prüng": 21563,
    "▁após": 24292,
    "erson": 1330,
    "online": 14627,
    "ust": 504,
    "seh": 11734,
    "▁components": 7117,
    "rive": 4401,
    "ére": 10799,
    "▁kop": 25334,
    "▁ic": 16077,
    "▁everybody": 26077,
    "etto": 8563,
    "▁package": 3577,
    "omas": 18902,
    "▁Theory": 24134,
    "ton": 880,
    "▁Sein": 20505,
    "/@": 29368,
    "▁außer": 18842,
    "<0xF6>": 249,
    "▁japon": 22268,
    "Longrightarrow": 22893,
    "▁Nob": 15706,
    "oupe": 6648,
    "▁exchange": 14523,
    "Ord": 23302,
    "kund": 23262,
    "▁Vers": 10138,
    "}\\": 1012,
    "++)": 4862,
    "ции": 3540,
    "нала": 24896,
    "▁Angeles": 10722,
    "dit": 27423,
    "▁dates": 10116,
    "шп": 27422,
    "▁fin": 1436,
    "actly": 23617,
    "▁musée": 29695,
    "▁configurations": 22920,
    "odore": 29221,
    "▁sister": 9883,
    "▁est": 707,
    "▁estimated": 15899,
    "пи": 1668,
    "]])": 24960,
    "irst": 765,
    "desc": 14273,
    "ích": 18353,
    "la": 433,
    "▁Benjamin": 20212,
    "▁Games": 12482,
    "bir": 20397,
    "Pat": 11457,
    "рі": 3020,
    "вали": 8374,
    "}}(\\": 20828,
    "▁Broadway": 23291,
    "Put": 22908,
    "▁deutschen": 13806,
    "▁import": 1053,
    "usammen": 8624,
    "jets": 27499,
    "德": 31169,
    "checkbox": 12348,
    "▁Caroline": 26980,
    "▁JQuery": 29818,
    "<0x19>": 28,
    "midt": 19720,
    "spr": 15099,
    "ل": 30138,
    "▁Auflage": 16028,
    "▁alter": 10551,
    "images": 8346,
    "▁actions": 8820,
    "ne": 484,
    "▁hero": 13444,
    "name": 978,
    "<<ST_486>>": 32486,
    "တ": 31560,
    "▁хи": 18384,
    "ью": 9860,
    "▁studio": 8693,
    "gow": 23034,
    "\\,": 5940,
    "▁skill": 19911,
    "▁people": 2305,
    "Group": 4782,
    "▁Chart": 14477,
    "ną": 12486,
    "▁però": 12110,
    "▁inheritance": 20328,
    "Export": 26382,
    "('": 877,
    "▁Enlaces": 8867,
    "▁nearest": 20471,
    "▁Mitt": 24532,
    "▁Tools": 27564,
    "perp": 24598,
    "▁bay": 23041,
    "▁toler": 20341,
    "dfrac": 10779,
    "MY": 17870,
    "▁ocup": 14049,
    "▁reserve": 23986,
    "▁PHP": 5048,
    "▁Navigation": 23001,
    "）": 30409,
    "also": 15189,
    "▁commander": 22079,
    "EN": 1430,
    "igten": 17542,
    "<<ST_609>>": 32609,
    "▁checks": 12747,
    "]]": 5262,
    "▁воен": 13316,
    "radius": 13471,
    "▁shelter": 27709,
    "▁channels": 18196,
    "▁Chen": 21589,
    "▁Main": 4241,
    "quant": 12150,
    "°": 30073,
    "ole": 1772,
    "▁Scott": 8075,
    "ucker": 29583,
    "inking": 18159,
    "anonymous": 25772,
    "▁missing": 4567,
    "edu": 6085,
    "▁$('.": 12721,
    "▁dent": 12042,
    "▁degrees": 14496,
    "/,": 19637,
    "▁Marx": 28579,
    "wrapper": 17699,
    "▁Publish": 12904,
    "▁sentiment": 19688,
    "cf": 6854,
    "acht": 5860,
    "kafka": 28510,
    "▁tim": 5335,
    "rior": 13479,
    "▁Referências": 11162,
    "▁nod": 18778,
    "power": 13519,
    "esseur": 24782,
    "▁Five": 22853,
    "utor": 3406,
    "▁Walter": 10705,
    "▁correctly": 5149,
    "▁Pe": 3938,
    "▁cinéma": 19384,
    "▁dés": 9982,
    "▁p": 282,
    "▁bazie": 24951,
    "▁calciatore": 18404,
    "¤": 30435,
    "kir": 14166,
    "borough": 22187,
    "▁patr": 22191,
    "▁however": 3138,
    "nehmer": 23450,
    "ook": 2550,
    "Mo": 22638,
    "ères": 5908,
    "▲": 31282,
    "pool": 10109,
    "▁occurr": 13920,
    "test": 1688,
    "▁Territ": 19833,
    "urname": 16004,
    "▁Север": 23070,
    "▁workers": 17162,
    "сле": 3280,
    "am": 314,
    "▁ti": 19538,
    "Recogn": 23122,
    "▁februari": 23259,
    "▁daar": 14902,
    "▁произ": 10219,
    "▁writes": 15873,
    "▁Boh": 17966,
    "▁Den": 3384,
    "доступ": 29033,
    "ald": 2741,
    "▁retrieved": 27387,
    "▁esempio": 29775,
    "logo": 14569,
    "agrant": 29592,
    "це": 2421,
    "来": 30805,
    "그": 31607,
    "▁Asp": 26562,
    "▁ran": 6350,
    "▁/>": 2900,
    "▁training": 6694,
    "▁janu": 10111,
    "Style": 5568,
    "False": 8824,
    "▁Luis": 12583,
    "▁церкви": 25623,
    "<0xF1>": 244,
    "▁horn": 25341,
    "ley": 2330,
    "rii": 22515,
    "ária": 21925,
    "Route": 12085,
    "endent": 3906,
    "success": 8698,
    "": 31348,
    "▁Leopold": 23146,
    "ACK": 11375,
    "▁worst": 17322,
    "CV": 15633,
    "▁applied": 7436,
    "▁checkout": 24808,
    "<<ST_230>>": 32230,
    "routes": 27894,
    "EM": 12665,
    "▁Suisse": 27968,
    "Prefix": 23095,
    "▁bol": 15772,
    "<<ST_2>>": 32002,
    "ache": 1829,
    "▁liquid": 23904,
    "▁timer": 12237,
    "▁boats": 25462,
    "▁mac": 5825,
    "irk": 6793,
    "nak": 8546,
    "brie": 23747,
    "▁trade": 11302,
    "▁Ан": 6190,
    "▁Harry": 10686,
    "時": 30974,
    "дии": 16268,
    "boot": 4777,
    "дав": 18244,
    "▁Deze": 20651,
    "▁Italian": 10545,
    "▁nieuwe": 25126,
    ".“": 14613,
    "▁Sund": 12009,
    "ержа": 14564,
    "▁quanto": 18600,
    "▁Dam": 9865,
    "quer": 7808,
    "▁suoi": 13673,
    "finite": 18925,
    "▁Wrestling": 21815,
    "▁Н": 1392,
    "hely": 27533,
    "▁Jeux": 24466,
    "ggi": 11832,
    "omin": 5817,
    "ším": 27897,
    "▁Memorial": 19722,
    "▁einges": 14709,
    "▁gain": 11581,
    "prit": 19428,
    "▁Miami": 23740,
    "▁transferred": 18440,
    "▁swe": 7901,
    "▁sites": 11840,
    "gcc": 19644,
    "counter": 11808,
    "▁christ": 25542,
    "▁März": 7322,
    "ному": 8103,
    "kim": 20903,
    "▁Break": 28301,
    "̣": 31214,
    "ten": 841,
    "▁IR": 23292,
    "ций": 15071,
    "ichts": 17815,
    "▁Stanley": 21631,
    "ɛ": 30234,
    "loor": 10102,
    "capt": 17885,
    "▁Flash": 21967,
    "<<ST_503>>": 32503,
    "▁indicator": 27717,
    "сто": 1578,
    "▁Ara": 25953,
    "▁Sof": 21541,
    "without": 14037,
    "▁öss": 21623,
    "▁Diego": 16879,
    "▁italiana": 18431,
    "▁Loren": 23223,
    "col": 1054,
    "▁veel": 20733,
    "Obrázky": 23313,
    "▁preserved": 21634,
    "▁Regional": 16208,
    "ink": 682,
    "▁Chamber": 25037,
    "▁nahe": 28208,
    "tres": 5888,
    "useppe": 18005,
    "▁External": 3985,
    "irus": 22693,
    ">\",": 28341,
    "External": 25865,
    "second": 7496,
    "▁imagination": 28038,
    "▁Sh": 1383,
    "}},": 11656,
    "equal": 11745,
    "▁AND": 5300,
    "▁Reichs": 26981,
    "▁application": 2280,
    "кі": 5788,
    "▁Writing": 28676,
    "OK": 8949,
    "ва": 846,
    "мии": 11085,
    "▁certific": 23199,
    "Pers": 15136,
    "▁difference": 4328,
    "▁hyp": 10163,
    "▁Ang": 3218,
    "サ": 30615,
    "language": 11675,
    "▁Чи": 20835,
    "category": 7320,
    "ött": 8705,
    "▁гене": 13014,
    "▁splitting": 24368,
    "▁subjects": 17800,
    "ví": 9584,
    "ロ": 30378,
    "▁données": 21880,
    "ό": 30228,
    "▁string": 1347,
    "▁ти": 7109,
    "лександ": 9592,
    "▁IE": 7159,
    "▁Meanwhile": 25065,
    "osi": 8156,
    "fran": 16799,
    "▁retained": 26060,
    "▁о": 614,
    "▁possess": 22592,
    "▁liegt": 11478,
    "цію": 21728,
    "▁Stephen": 14317,
    "Quant": 22930,
    "▁cualquier": 28217,
    "mile": 26763,
    "▁afterwards": 12335,
    "▁separ": 2903,
    "▁scale": 6287,
    "▁nommé": 21624,
    "▁Py": 10772,
    "▁alg": 3093,
    "кар": 15266,
    "wij": 18155,
    "▁публи": 26147,
    "▁Bibli": 3351,
    "▁hell": 23927,
    "')[": 29861,
    "▁German": 5332,
    "<0x93>": 150,
    "▁Norm": 5655,
    "engine": 10599,
    "▁deck": 19810,
    "▁Zak": 27416,
    "▁UITableView": 20197,
    "<<ST_205>>": 32205,
    "▁направ": 21946,
    "▁but": 541,
    "▁mejor": 16918,
    "que": 802,
    "psilon": 3232,
    "▁ży": 23631,
    "▁Lew": 11906,
    "▁Roy": 15793,
    "-(": 17722,
    "invalid": 20965,
    "ały": 21816,
    "ingu": 6202,
    "noc": 10763,
    "▁grande": 6815,
    "▁glass": 12917,
    "▁cli": 9335,
    "feed": 18798,
    "▁pov": 16545,
    "▁Gate": 22510,
    "LP": 13208,
    "▁então": 28087,
    "tikz": 11047,
    "▁saying": 5934,
    "▁фло": 23730,
    "ම": 31917,
    "▁role": 6297,
    "ellt": 9288,
    "larg": 27489,
    "-)": 15805,
    "ῦ": 30699,
    "▁XIV": 17071,
    "St": 855,
    "ente": 2016,
    "sequence": 16506,
    "▁mass": 4158,
    "▁dies": 2977,
    "wner": 23007,
    "lis": 23443,
    "▁anno": 12327,
    "▁WCF": 29101,
    "민": 31582,
    "▁înt": 24922,
    "Cla": 20216,
    "▁team": 3815,
    "▁jamais": 18413,
    "▁Paul": 3739,
    "ina": 1099,
    "rig": 8966,
    "▁nog": 11313,
    "▁hop": 8171,
    "вы": 4938,
    "▁чо": 15262,
    "▁efficiently": 29497,
    "▁einmal": 26223,
    "<<ST_187>>": 32187,
    "yan": 10094,
    "▁bou": 16380,
    "pr": 558,
    "[]": 2636,
    "Mobile": 29295,
    "kie": 19501,
    "▁Hamiltonian": 27752,
    "als": 1338,
    "jon": 13022,
    "uky": 21108,
    "▁Var": 11681,
    "▁Premio": 18931,
    "▁pé": 26535,
    "▁Regin": 28124,
    "̩": 31677,
    "▁structures": 12286,
    "▁Steven": 24703,
    "ր": 30368,
    "▁Getting": 24162,
    "▁ERR": 22307,
    "位": 30956,
    "emento": 13028,
    "дно": 12869,
    "▁despite": 15020,
    "onde": 13469,
    "▁understanding": 8004,
    "olis": 18301,
    "=\"\"": 13776,
    "▁well": 1532,
    "Choice": 29620,
    "▁exempl": 29455,
    "ometer": 8328,
    "below": 22503,
    "▁roads": 25320,
    "lax": 21222,
    "▁über": 2939,
    "▁Mind": 20152,
    "▁luglio": 17154,
    "▁Cort": 20290,
    "Express": 27404,
    "▁Laurent": 27011,
    "▁geld": 10559,
    "romagnet": 26097,
    "▁champion": 8064,
    "南": 30601,
    "▁уни": 11570,
    "<0x8A>": 141,
    "⊗": 31486,
    "▁redu": 3724,
    "▁Central": 8068,
    "Activ": 21786,
    "ству": 8864,
    "井": 30945,
    "зар": 28680,
    "▁HT": 3154,
    "▁pounds": 24261,
    "▁supported": 6969,
    "▁AP": 12279,
    "ga": 3249,
    "▁день": 22763,
    "▁Архи": 14122,
    "▁Ak": 10813,
    "ident": 1693,
    "▁katol": 29483,
    "▁Naz": 11409,
    "▁Charlie": 20283,
    "CTION": 9838,
    "gram": 1393,
    "inek": 27868,
    "ней": 8150,
    "ulsion": 25381,
    "issant": 19505,
    "▁fallen": 19225,
    "ḳ": 31897,
    "icity": 24798,
    "enkins": 16468,
    "ees": 12712,
    "Bag": 23544,
    "▁Palest": 22053,
    "SERT": 9938,
    "▁Ха": 10570,
    "туа": 29412,
    "anstalt": 22439,
    "UE": 4462,
    "ispiel": 15229,
    "▁location": 4423,
    "▁револю": 27307,
    "▁walking": 22049,
    "▁publications": 25964,
    "народ": 12133,
    "▁DB": 6535,
    "▁Storage": 26162,
    "ā": 30107,
    "cdnjs": 29062,
    "▁profession": 6351,
    "“)": 25035,
    "ugo": 15490,
    "reno": 26155,
    "skip": 11014,
    "tembre": 16252,
    "achiv": 24184,
    "free": 9021,
    "find": 2886,
    "ahr": 5610,
    "rate": 10492,
    "ceu": 22541,
    "▁actu": 20331,
    "лага": 15813,
    "parallel": 23482,
    "R": 29934,
    "▁Население": 21636,
    "module": 5453,
    "▁$\\{": 12564,
    "▁marzo": 6612,
    "Replace": 20083,
    "▁Mé": 10275,
    "⟶": 30938,
    "сков": 22136,
    "➜": 31245,
    "▁Neben": 19332,
    "▁forb": 19752,
    "▁days": 3841,
    "Source": 4435,
    "sys": 9675,
    "▁philosoph": 11847,
    "Hidden": 25108,
    "[$": 8308,
    "▁espèce": 20319,
    "vb": 24666,
    "▁anterior": 14123,
    "▁They": 2688,
    "Img": 25518,
    "▁Ci": 11402,
    "zés": 18314,
    "Three": 28575,
    "sol": 2929,
    "▁brother": 8099,
    "▁opera": 14495,
    "Back": 5841,
    "<<ST_305>>": 32305,
    "rike": 20995,
    "▁movement": 10298,
    "Sec": 7898,
    "▁els": 4728,
    "Db": 10234,
    "▁aantal": 25130,
    "serial": 15550,
    "当": 30948,
    "▁глав": 13986,
    "▁Cit": 21353,
    "DOCTYPE": 21300,
    "▁Block": 15658,
    "▁scales": 23431,
    "क": 30444,
    "▁breaking": 16679,
    "<<ST_675>>": 32675,
    "ász": 15995,
    "▁Pie": 26005,
    "adratkilometer": 21088,
    "drawable": 13131,
    "gemein": 20217,
    "▁spraw": 26183,
    "otte": 14360,
    "ț": 30067,
    "blatt": 22801,
    "▁experiment": 7639,
    "'),": 5477,
    "gif": 18660,
    "▁cinema": 24615,
    "▁column": 1897,
    "works": 13129,
    "▁Bur": 6640,
    "Tables": 24924,
    "로": 30906,
    "▁occ": 2179,
    "oor": 16946,
    "ug": 688,
    "▁áll": 13575,
    "oin": 28230,
    ",\\,": 24308,
    "▁co": 1302,
    "▁Constitution": 20063,
    "▁dernier": 16825,
    "structure": 23905,
    "▁Cord": 20893,
    "ifiz": 21722,
    "▁Ulrich": 29732,
    "жды": 24057,
    "▁gir": 27016,
    "empor": 9059,
    "▁onCreate": 14813,
    "adem": 18401,
    "ち": 30644,
    "▁grab": 17229,
    "Μ": 30362,
    "End": 5044,
    "▁synth": 14710,
    "▁Rev": 11459,
    "▁six": 4832,
    "▁Ah": 9070,
    ".....": 18598,
    "▁населення": 15242,
    "▁Bootstrap": 25746,
    "▁From": 3645,
    "▁oppos": 9209,
    "ivity": 2068,
    "ordre": 19809,
    "Names": 8659,
    "▁watching": 21217,
    "Line": 3542,
    "fp": 18091,
    "<<ST_235>>": 32235,
    "▁Items": 25085,
    "⁶": 30522,
    "▁example": 1342,
    "cpu": 21970,
    "кої": 17264,
    "▁году": 3294,
    "▁library": 3489,
    "Adapter": 6168,
    "Ex": 1252,
    "▁dzie": 22242,
    "강": 31774,
    "woord": 25317,
    "et": 300,
    "gnu": 18713,
    "un": 348,
    "▁phys": 4824,
    "▁computation": 16287,
    "▁війсь": 25858,
    "ioni": 3688,
    "▁Commonwealth": 27094,
    "▁weather": 14826,
    "▁Tam": 16939,
    "ckets": 9737,
    "<<ST_523>>": 32523,
    "equ": 1686,
    "―": 30217,
    "▁SW": 25289,
    "▁runt": 20307,
    "ográ": 12414,
    "Mat": 9782,
    "▁juli": 14396,
    "▁Costa": 17513,
    "OW": 9806,
    "陈": 31862,
    "Btn": 20808,
    "gabe": 14454,
    "▁expecting": 16120,
    "▁dokument": 27530,
    "▁Villa": 14439,
    "▁Scroll": 28797,
    "cd": 2252,
    "ih": 4861,
    "abol": 19388,
    "argument": 23516,
    "eil": 23270,
    "▁declared": 8052,
    "▁lista": 15023,
    "▁engineer": 22055,
    "▁Bü": 16144,
    "сор": 25998,
    "▁radio": 7155,
    "▁Duch": 23568,
    "?}": 13684,
    "▁vš": 20145,
    "▁wife": 6532,
    "▁Deport": 26736,
    "▁wrześ": 22018,
    "fully": 3730,
    "▁communities": 23507,
    "▁obtain": 4017,
    "▁duplicates": 20955,
    "лись": 7157,
    "▁Bew": 17446,
    "enia": 15748,
    "▁Sozial": 25094,
    "▁bigger": 16600,
    "▁smart": 15040,
    "▁Italiana": 28732,
    "ASS": 22933,
    "<<ST_169>>": 32169,
    "LENG": 19271,
    "▁engl": 19784,
    "▁Hyper": 26078,
    "▁Catholic": 11865,
    "▁muse": 23200,
    "ǐ": 30638,
    "▁editor": 6920,
    "▁få": 28105,
    "alleng": 16047,
    "▁Bevölker": 19683,
    "wid": 9163,
    "ớ": 31280,
    "vas": 4428,
    "▁resto": 25814,
    "▁cosm": 27973,
    "По": 20093,
    "rah": 19856,
    "▁prolong": 27044,
    "стрі": 27164,
    "Men": 28154,
    "▁pull": 8206,
    "▁(!": 5384,
    "▁él": 7877,
    "▁study": 6559,
    "anal": 7054,
    "▁harder": 22622,
    "бра": 8355,
    "▁repair": 26032,
    "▁oct": 4725,
    "▁lado": 19931,
    "▁Gh": 13491,
    "tr": 509,
    "<0x9F>": 162,
    "▁$('#": 7552,
    "|": 29989,
    "event": 3696,
    "PAR": 16320,
    "▁inequality": 14585,
    "Portail": 2639,
    "▁aer": 14911,
    "▁Complex": 26596,
    "Var": 9037,
    "▁form": 883,
    "When": 10401,
    "*/": 3877,
    "▁late": 5683,
    "obox": 23518,
    "lán": 15527,
    "кола": 8523,
    "管": 31624,
    "arring": 23693,
    "ový": 28921,
    "haft": 22023,
    "▁equals": 15743,
    "▁stood": 8389,
    "▁tradition": 11399,
    "Dig": 14991,
    "ската": 20276,
    "▁desde": 5125,
    "▁tutorial": 9673,
    "<<ST_475>>": 32475,
    "▁registered": 15443,
    "nection": 3559,
    "ним": 5472,
    "▁forced": 11826,
    "pres": 4569,
    "▁stati": 23436,
    "iform": 5560,
    "▁полови": 28072,
    "▁$,": 29313,
    "▁Dest": 15435,
    "▁classe": 17792,
    "ката": 25134,
    "▁choosing": 23906,
    "▁Mag": 3561,
    "Contact": 13443,
    "вей": 24659,
    "▁appropri": 7128,
    "▁=>": 1149,
    "Fi": 18800,
    "▁rá": 23504,
    "▁воло": 19186,
    "ilia": 11836,
    "▁ein": 1011,
    "▁Sele": 28051,
    "ป": 31010,
    "fb": 14943,
    "▁Search": 11856,
    "тура": 7217,
    "epsilon": 5463,
    "laces": 6048,
    "▁cruel": 24116,
    "▁Anyway": 18110,
    "▁benefit": 14169,
    "▁länkar": 13243,
    "Da": 27838,
    "▁absent": 29207,
    "Width": 6110,
    "fetch": 9155,
    "functions": 12171,
    "Fixed": 26262,
    "<<ST_189>>": 32189,
    "<<ST_104>>": 32104,
    "assert": 9294,
    "▁Beck": 19573,
    "▁своих": 29614,
    "codes": 18137,
    "▁Stadium": 17213,
    "ination": 3381,
    "▁repos": 17573,
    "fico": 14894,
    "--": 489,
    "മ": 30859,
    "▁scène": 20244,
    "▁sechs": 23320,
    "ty": 1017,
    "pas": 18182,
    "сть": 2321,
    "abc": 10736,
    "▁sculpt": 17039,
    "TRUE": 20652,
    "▁OUT": 19474,
    ".:": 4898,
    "▁ter": 1935,
    "binary": 19541,
    "ulf": 16302,
    "▁север": 23967,
    "ategory": 3326,
    "▁Герма": 24575,
    "bucket": 21454,
    "r": 29878,
    "▁kg": 12118,
    "ція": 11145,
    "Case": 8259,
    "(.": 11891,
    "getValue": 23433,
    "▁finished": 7743,
    "готов": 19300,
    "ço": 6102,
    "▁references": 9282,
    "<<ST_323>>": 32323,
    "condition": 16122,
    "rel": 2674,
    "цима": 20896,
    "Access": 6638,
    "ureau": 13411,
    "<<ST_515>>": 32515,
    "▁Rica": 29750,
    "▁aj": 13612,
    "▁Details": 25577,
    "▁##": 444,
    "▁Phill": 21856,
    "▁repre": 14767,
    "▁shared": 7258,
    "▁AD": 11033,
    "Example": 14023,
    "▁mistaken": 25257,
    "input": 2080,
    "▁root": 3876,
    "\\\\": 1966,
    "<<ST_211>>": 32211,
    "▁loading": 8363,
    "▁апреля": 16550,
    "▁ranks": 27871,
    "▁\\,": 7179,
    "▁pier": 9307,
    "isy": 13344,
    "iforn": 6557,
    "▁nord": 6218,
    "▁Дми": 23229,
    "бря": 5542,
    "ён": 5118,
    "Linear": 12697,
    "ific": 928,
    "▁famil": 1832,
    "▁Led": 28934,
    "▁household": 22329,
    "▁Heritage": 25635,
    "▁coffee": 26935,
    "encer": 22687,
    "ข": 31310,
    "▁Normdaten": 11193,
    "▁migli": 20379,
    "agin": 26584,
    "▁sorted": 12705,
    "frika": 22231,
    "▁:=": 3490,
    "stüt": 20617,
    "tuple": 23583,
    "▁pitch": 15905,
    "▁subtract": 23197,
    "▁Й": 14680,
    "ce": 346,
    "▁at": 472,
    "▁hus": 8646,
    "▁juris": 24894,
    "Something": 16804,
    "▁мар": 8487,
    "ada": 1114,
    "Domain": 15951,
    "▁apache": 12641,
    "내": 31940,
    "pty": 2349,
    "square": 17619,
    "ac": 562,
    "linear": 10660,
    "▁recherche": 23520,
    "▁leaving": 10124,
    "ständ": 11503,
    "SV": 7597,
    "▁algunos": 20071,
    "gb": 26300,
    "▁Naval": 21590,
    "usch": 17974,
    "▁cond": 2148,
    "▁kom": 4677,
    "cion": 12401,
    "<<ST_378>>": 32378,
    "iber": 12347,
    "▁nab": 26924,
    "▁prest": 18619,
    "{[": 13970,
    "scene": 24645,
    "eng": 996,
    "Intern": 17579,
    "▁dieses": 18947,
    "▁комму": 24486,
    "▁speaking": 13590,
    "enda": 8395,
    "contact": 12346,
    "Illustration": 12614,
    "▁João": 26117,
    "дя": 5640,
    "▁proces": 14177,
    "▁walk": 6686,
    "バ": 30517,
    "▁trakten": 18328,
    "controller": 8299,
    "▁olimp": 22512,
    "▁связи": 26874,
    "<<ST_377>>": 32377,
    "pring": 2339,
    "|}{": 29632,
    "FilterChain": 21621,
    "...,": 16361,
    "山": 30329,
    "auté": 18560,
    "▁Dark": 15317,
    "▁proved": 11827,
    "IDE": 22027,
    "oslav": 17464,
    "研": 31367,
    "atore": 6082,
    "pert": 10700,
    "▁Buffered": 22217,
    "▁opinion": 9426,
    "▁apolog": 27746,
    "▁eliminate": 27399,
    "▁prom": 2504,
    "▁Жи": 23492,
    "▁Einzel": 24978,
    "▁lider": 29110,
    "▁Bac": 29070,
    "▁parad": 26811,
    "isting": 15423,
    "▁metropol": 25311,
    "▁Greek": 12311,
    "iendo": 17008,
    "<<ST_118>>": 32118,
    "▁есть": 12795,
    "▁bl": 1999,
    "❯": 31840,
    "amma": 2735,
    "Once": 26222,
    "tomcat": 24468,
    "▁denote": 13530,
    "▁diese": 10009,
    "▁bien": 6079,
    "▁Fir": 14152,
    "steller": 14640,
    "({\\": 13670,
    "▁Ver": 1798,
    "再": 31733,
    "ябре": 25743,
    "没": 31423,
    "рож": 18538,
    "株": 31409,
    "▁magistr": 29102,
    "▁conj": 9589,
    "<0x2E>": 49,
    "▁hab": 2299,
    "century": 27371,
    "▁madre": 20443,
    "Updated": 29248,
    "▁passer": 27962,
    "▁transaction": 10804,
    "ced": 1133,
    "except": 19499,
    "~$\\": 28591,
    "!/": 14708,
    "хе": 14417,
    "▁ю": 8053,
    "▁avoid": 4772,
    "Met": 10095,
    "▁grup": 23752,
    ".'": 6169,
    "▁кни": 13024,
    "▁krit": 21401,
    "▁timestamp": 14334,
    "▁держа": 18716,
    "akov": 27695,
    "▁considered": 5545,
    "▁conducted": 18043,
    "▁sost": 17601,
    "cl": 695,
    "∙": 31492,
    "▁Oliver": 19731,
    "▁Sue": 28674,
    "qq": 24349,
    "▁rows": 4206,
    "▁lleg": 10953,
    "щё": 18141,
    "▁Cover": 26428,
    "abama": 23758,
    "ById": 4499,
    "▁involving": 21677,
    "▁ост": 14425,
    "tra": 3018,
    "factor": 19790,
    "▁working": 1985,
    "▁Kil": 12400,
    "▁Give": 25538,
    "▁pictures": 14956,
    "lor": 5095,
    "▁Typ": 14213,
    "AX": 6604,
    "<<ST_441>>": 32441,
    "örd": 8800,
    "▁equilib": 22213,
    "icky": 18219,
    "▁Inner": 25665,
    "Area": 13799,
    "צ": 30692,
    "yles": 5577,
    "▁moved": 6153,
    "▁wsp": 16438,
    "▁Terra": 20839,
    "ername": 4510,
    "ท": 30595,
    "▁XVI": 14488,
    "▁Caval": 28398,
    "riz": 7485,
    "▁När": 29756,
    "▁oltre": 21774,
    "Sem": 28516,
    "▁extract": 6597,
    "▁architect": 6956,
    "кой": 7337,
    "ér": 1064,
    "EC": 11206,
    "▁dével": 13942,
    "▁which": 607,
    "<<ST_707>>": 32707,
    "▁fel": 7995,
    "ücke": 17959,
    "▁grows": 25088,
    "Grid": 5756,
    ":\\\\": 22298,
    "riel": 12836,
    "ゃ": 31312,
    "ċ": 31920,
    "Lock": 16542,
    "aron": 5022,
    "▁Erz": 17390,
    "▁соста": 15553,
    "▁sect": 21149,
    "▁wel": 5476,
    "ště": 18856,
    "▁Dow": 26028,
    "▁като": 12041,
    "though": 3592,
    "bian": 22863,
    "férés": 9035,
    "╚": 31372,
    "lp": 22833,
    "tag": 4039,
    "死": 31580,
    "▁Transfer": 17934,
    "<<ST_360>>": 32360,
    "▁nor": 3643,
    "آ": 30726,
    "▁tool": 5780,
    "itch": 2335,
    "▁Ny": 16693,
    "amiento": 9993,
    "tered": 25396,
    "▁night": 4646,
    "<<ST_542>>": 32542,
    "CCN": 12921,
    "ics": 1199,
    "ile": 488,
    "/)": 4551,
    "▁loved": 18012,
    "ющим": 28002,
    "=\"@": 5213,
    "flutter": 20126,
    "▁tourn": 10733,
    "avant": 26608,
    "▁Step": 16696,
    "ete": 2650,
    "bid": 23883,
    "▁freely": 28472,
    "пара": 20691,
    "nost": 6582,
    "background": 7042,
    "ето": 25930,
    "▁Olympic": 19025,
    "▁means": 2794,
    "ните": 12897,
    "ha": 2350,
    "▁Fran": 1352,
    "ieur": 11542,
    "▁enc": 2094,
    "ná": 13980,
    "▁London": 4517,
    "▁announ": 7475,
    "▁nations": 19079,
    "《": 30866,
    "զ": 31816,
    "Л": 30050,
    "0": 29900,
    "▁Rule": 27308,
    "▁liber": 7866,
    "oten": 16368,
    "▁extreme": 18677,
    "дови": 28708,
    "▁laten": 23316,
    "▁item": 2944,
    "Don": 10310,
    "мож": 19085,
    "▁Fine": 28896,
    "Mon": 7185,
    "ских": 4483,
    "▁nag": 17995,
    "▁Gem": 15170,
    "▁ge": 1737,
    "▁retain": 11551,
    "phere": 9085,
    "split": 5451,
    "bla": 17530,
    "▁voll": 19446,
    "▁Gründ": 17965,
    "▁anch": 23791,
    "▁Eins": 16943,
    "▁boy": 8023,
    "▁Nep": 22806,
    "pon": 1112,
    "ética": 24142,
    "Fn": 29137,
    "▁rip": 18290,
    "ші": 14306,
    "Alignment": 14658,
    "▁UI": 3740,
    "parameters": 16744,
    "▁bzw": 16591,
    "states": 28631,
    "done": 15091,
    "ują": 14462,
    "цій": 9520,
    "cular": 16637,
    "▁abstract": 9846,
    "lieder": 16820,
    "site": 2746,
    "ather": 1624,
    "omsnitt": 17047,
    "▁gepubliceerd": 10711,
    "▁Num": 11848,
    "▁mog": 13160,
    "charge": 23367,
    "▁ratio": 11959,
    "estions": 2297,
    "cookie": 21509,
    "yp": 1478,
    "azioni": 8312,
    "▁reached": 7450,
    "ener": 759,
    "VM": 9219,
    "▁ihren": 14566,
    "mond": 8315,
    "<<ST_233>>": 32233,
    "▁según": 23831,
    "ène": 8146,
    "▁particulier": 28353,
    "<<ST_729>>": 32729,
    "▁entwick": 20151,
    "▁vit": 13901,
    "Ö": 30094,
    "umar": 24540,
    "▁Guard": 13211,
    "▁=": 353,
    "onymous": 11428,
    "▁noted": 11682,
    "▁concert": 13135,
    "▁меся": 29706,
    "▁sym": 5016,
    "▁przez": 7559,
    "wod": 27309,
    "<<ST_719>>": 32719,
    "▁players": 10769,
    "Weight": 22676,
    "faces": 8726,
    "▁device": 4742,
    "▁Student": 15740,
    "▁called": 2000,
    "▁String": 1714,
    "▁buried": 18550,
    "ADD": 17744,
    "▁internationale": 20110,
    "ста": 1229,
    "▁суще": 19391,
    "prev": 16304,
    "▁Madame": 18080,
    "▁strange": 8515,
    "дами": 29742,
    "▁Kloster": 25916,
    "VF": 24460,
    "▁TypeError": 20948,
    "Culture": 27926,
    "/": 29914,
    "atus": 2389,
    "▁seit": 8416,
    "▁XVIII": 14271,
    "定": 30495,
    "▁Indep": 14784,
    "▁Function": 6680,
    "▁gemeente": 18124,
    "press": 2139,
    "▁rec": 1162,
    "▁Би": 8503,
    "▁Napoli": 29642,
    "eros": 9672,
    "istory": 2668,
    "ustral": 12135,
    "▁dici": 8550,
    "oned": 22367,
    "▁river": 8580,
    "oses": 15806,
    "Events": 13634,
    "ʰ": 30704,
    "▁Ev": 7298,
    "▁Grant": 18102,
    "action": 2467,
    "▁century": 6462,
    "起": 31558,
    "IABot": 24291,
    "▁Francesco": 16922,
    "<<ST_367>>": 32367,
    "йт": 24139,
    "▁price": 8666,
    "▁‘": 5129,
    "▁Deutsche": 14102,
    "▁documentation": 5106,
    "ố": 30984,
    "annotation": 18317,
    "til": 1376,
    "process": 5014,
    "▁git": 6315,
    "▁your": 596,
    "▁weil": 24107,
    "dg": 20726,
    "][": 3816,
    "▁maison": 18234,
    "<<ST_735>>": 32735,
    "▁однако": 24439,
    "▁ó": 17604,
    "Picker": 13954,
    "▁спо": 7356,
    "gresql": 16153,
    "Pierre": 19621,
    "▁spawn": 29178,
    "ampion": 3103,
    "preis": 28506,
    "貴": 31887,
    "ł": 30006,
    "▁fais": 16623,
    "င": 31292,
    "▁referenced": 16180,
    "zd": 8849,
    "▁Gazette": 29604,
    "▁echo": 2916,
    "struct": 4984,
    "inct": 5562,
    "▁Yu": 27669,
    "oken": 4476,
    "▁Données": 25026,
    "▁ak": 11208,
    "<<ST_553>>": 32553,
    "▁Hinweis": 18627,
    "<<ST_38>>": 32038,
    "▁approaches": 13501,
    "▁Basketball": 21850,
    "▁Sul": 13358,
    "forward": 11333,
    "▁introduced": 9129,
    "CREATE": 27045,
    "▁quietly": 25970,
    "▁gh": 24170,
    "▁criteria": 16614,
    "multirow": 28570,
    "enable": 12007,
    "']['": 16215,
    "xi": 5389,
    "wand": 18622,
    "ũ": 31105,
    "ren": 1267,
    "▁lij": 24690,
    "Repository": 11481,
    "▁changes": 3620,
    "▁Orth": 23757,
    "▁clear": 2821,
    "Arm": 27429,
    "Fun": 25394,
    "<<ST_607>>": 32607,
    "?,": 14579,
    "ється": 8272,
    "rifice": 25193,
    "$}}%": 25069,
    "oauth": 23106,
    "ermo": 20772,
    "▁interpret": 6613,
    "oko": 15218,
    "▁recorded": 10478,
    "▁Inv": 15518,
    "化": 30705,
    "▁A": 319,
    "▁+=": 4619,
    "▁ERROR": 14431,
    "▁Jack": 5457,
    "▁!==": 15639,
    "▁Father": 17852,
    "<<ST_737>>": 32737,
    "natural": 25047,
    "▁null": 1870,
    "▁rent": 23990,
    "▁dist": 1320,
    "ános": 27118,
    "endes": 18684,
    "iles": 5475,
    "!”": 8530,
    "={\\": 21854,
    "TAC": 8687,
    "▁village": 5720,
    "▁Dun": 11566,
    "placeholder": 27074,
    "▁thereby": 27999,
    "OutputStream": 16764,
    "ház": 24910,
    "ige": 2231,
    "know": 28385,
    "ħ": 30924,
    "▁alten": 25920,
    "<0xC8>": 203,
    "ad": 328,
    "▁écrit": 19694,
    "▁tur": 7013,
    "▁pip": 8450,
    "itza": 24597,
    "▁Remember": 22738,
    "istration": 8306,
    "▁shield": 28761,
    "prevent": 18921,
    "▁dan": 6025,
    "▁vot": 9014,
    "▁requires": 6858,
    "bi": 5365,
    "▁Ces": 12390,
    "Fields": 14256,
    "▁bild": 14071,
    ")": 29897,
    "▁Observ": 21651,
    "▁марта": 15051,
    "ო": 30541,
    "▁np": 7442,
    "ен": 656,
    "oir": 6390,
    "ṃ": 31019,
    "dic": 27774,
    "需": 31383,
    "▁Farm": 23354,
    "▁inspired": 20603,
    "▁годах": 16780,
    "ctrl": 24220,
    "▁că": 13294,
    "▁Unterscheidung": 19838,
    "Components": 25503,
    "cout": 13147,
    "▁leadership": 26001,
    "CI": 8426,
    "offs": 22450,
    "today": 27765,
    "▁wenn": 13588,
    "▁cost": 3438,
    "▁Dire": 14818,
    "▁succ": 8348,
    "ظ": 30912,
    "Overflow": 23773,
    "Ρ": 30896,
    "ческого": 17683,
    "▁height": 3171,
    "▁Hospital": 15967,
    "Extensions": 26982,
    "n": 29876,
    "▁deuxième": 18768,
    "▁Franklin": 21504,
    "▁obliged": 24474,
    "'(": 12215,
    "▁Selected": 22012,
    "xsd": 19168,
    "om": 290,
    "рон": 6887,
    "▁conduct": 7512,
    "▁individ": 4348,
    "Setter": 22304,
    "▁coverage": 23746,
    "auth": 5150,
    "▁bem": 15522,
    ".@": 21240,
    "yg": 4790,
    "▁Hö": 11623,
    "▁URI": 23539,
    "©": 30211,
    "▁Filter": 19916,
    "xmlns": 18295,
    "院": 30963,
    "éo": 22756,
    "▁journalist": 24452,
    "cx": 18904,
    "Bu": 3727,
    "▁tour": 6282,
    "textarea": 20433,
    "▁ant": 3677,
    "host": 3069,
    "overline": 6875,
    "▁kingdom": 20748,
    "▁Price": 20743,
    "▁копи": 21526,
    "▁brit": 6791,
    "▁bin": 9016,
    "▁labour": 23390,
    "bas": 6500,
    "▁свя": 9690,
    "<<ST_9>>": 32009,
    "ible": 1821,
    "▁lst": 24471,
    "▁Brothers": 25522,
    "▁typical": 15662,
    "typeof": 18059,
    "▁long": 1472,
    "▁MVC": 13348,
    "ี": 30691,
    "▁Option": 10831,
    "]],": 20526,
    "▁dise": 10267,
    "▁duration": 14385,
    "rons": 12628,
    "гне": 21740,
    "▁заме": 24256,
    "▁pattern": 4766,
    "▁marque": 29452,
    "▁Prov": 9133,
    "▁Lic": 10413,
    "para": 22752,
    "found": 11940,
    "▁Commission": 11444,
    "▁Eng": 2201,
    "▁belang": 25585,
    "hm": 7184,
    "▁Beit": 23983,
    "▁sé": 7019,
    "▁sacrific": 26285,
    "▁бри": 14951,
    "▁pm": 26354,
    "▁compos": 5541,
    "▁invasion": 28425,
    "▁gets": 4947,
    ")}.": 29512,
    "▁devil": 29754,
    "ului": 7394,
    "▁upgrade": 14955,
    "pto": 24070,
    "To": 1762,
    "▁Insel": 22106,
    "▁Mais": 11948,
    "▁benefits": 23633,
    "viders": 29454,
    "enten": 19889,
    "ongodb": 13591,
    "▁lived": 10600,
    "▁Kauf": 29462,
    "▁Notes": 8695,
    "ním": 13057,
    "ince": 1239,
    "▁Pia": 27663,
    "▁Matthew": 22292,
    "otr": 25730,
    ".\",": 19602,
    ",--": 7839,
    "agnostic": 21780,
    "▁Tony": 15293,
    "▁verschied": 14261,
    "▁interview": 15593,
    "QU": 13356,
    "▁Кор": 20522,
    "Operation": 10925,
    "▁rit": 10421,
    "cluster": 19594,
    "nten": 13712,
    "_{-": 22631,
    "言": 31243,
    "▁boxes": 16273,
    "ׁ": 31194,
    "▁aston": 24293,
    "Days": 25991,
    "▁gesture": 29502,
    "▁Salv": 14964,
    "▁using": 773,
    "----+": 27385,
    "▁User": 4911,
    "лася": 21781,
    "ześ": 14527,
    "▁GPU": 22796,
    "▁Feb": 26319,
    "가": 30903,
    "zony": 19502,
    "▁Auch": 14307,
    "pgf": 14918,
    "▁ár": 28786,
    "▁RE": 5195,
    "▁Comm": 1876,
    "▁tight": 19932,
    "сну": 25729,
    "ajes": 23823,
    "▁read": 1303,
    "галь": 23003,
    "Picture": 28210,
    "ropol": 10759,
    "real": 6370,
    "fore": 1079,
    "▁gibt": 13456,
    "▁durante": 6372,
    "ätter": 29118,
    "igr": 4481,
    "<0x98>": 155,
    "氏": 31052,
    "<<ST_527>>": 32527,
    "▁Parameter": 24953,
    "▁Chapter": 23040,
    "▁view": 1776,
    "▁collision": 22369,
    "ortheast": 27374,
    "ництво": 25929,
    "▁Volks": 14639,
    "Category": 10900,
    "을": 31286,
    "iska": 8613,
    "▁Belgique": 27892,
    "Њ": 30300,
    "eman": 11422,
    "▁pog": 22086,
    "▁';": 21921,
    "▁р": 8201,
    "▁`-": 9370,
    "tk": 11178,
    "któber": 23441,
    "oop": 26793,
    "})^": 28813,
    "Handle": 13554,
    "pack": 4058,
    "driver": 9465,
    "▁products": 9316,
    "▁happiness": 22722,
    "arios": 8596,
    "▁Content": 10576,
    "initialize": 24926,
    "▁conocido": 25419,
    "▁Kate": 23738,
    "Rec": 4789,
    "segment": 28192,
    "TEST": 18267,
    "p": 29886,
    "▁Pal": 3793,
    "inks": 19363,
    "ifiable": 28677,
    "Й": 30134,
    "▁Dor": 9579,
    "Emp": 10495,
    "力": 31074,
    "▁curl": 11051,
    "airs": 7121,
    "▁бе": 9648,
    "▁Его": 26950,
    "Take": 26772,
    "▁turned": 6077,
    "ച": 31106,
    "'},": 16675,
    "▁freedom": 16082,
    "ját": 24651,
    "▁End": 2796,
    "телем": 17584,
    "▁ней": 25755,
    "▁appro": 2134,
    "▁rev": 6664,
    "▁Româ": 26332,
    "▁religion": 13433,
    "▁train": 7945,
    "ک": 30343,
    "▁reserved": 21676,
    "▁flat": 12151,
    "▁analysis": 7418,
    "lin": 1915,
    "▁prin": 12456,
    "▁group": 2318,
    "▁Philippines": 26260,
    "▁Async": 20688,
    "Item": 2001,
    "▁Testament": 29198,
    "▁yet": 3447,
    "女": 30647,
    "음": 31966,
    "▁probable": 16269,
    "▁out": 714,
    "▁•": 10266,
    "▁corners": 26995,
    "ows": 1242,
    "▁Nelson": 19135,
    "▁Supreme": 22569,
    "▁Burn": 16640,
    "▁tack": 22002,
    "▁quadratic": 25904,
    "<0xBD>": 192,
    "▁residents": 24060,
    "cross": 19128,
    "و": 30171,
    "estra": 8505,
    "▁Bas": 4886,
    "▁force": 4889,
    "vä": 10424,
    "▁staff": 13925,
    "PropertyChanged": 29109,
    "лан": 4453,
    "home": 5184,
    "▁&\\": 8682,
    "Mal": 22995,
    "汉": 31593,
    "▁prote": 3279,
    "▁solic": 26978,
    "Event": 2624,
    "▁Georges": 18604,
    "Path": 2605,
    "▁диа": 26487,
    "wa": 2766,
    "Fern": 20899,
    "▁banks": 24388,
    "va": 1564,
    "▁modes": 18893,
    "aca": 11989,
    ";</": 14814,
    "}{(": 19048,
    "越": 31844,
    "wr": 15866,
    "▁wen": 12987,
    "Special": 24780,
    "Batch": 23145,
    "vn": 18564,
    "liers": 27801,
    "▁business": 5381,
    "▁types": 4072,
    "▁Кри": 18645,
    "▁обще": 11471,
    "▁инте": 26133,
    "ными": 8535,
    "▁mel": 9232,
    "𝕜": 30994,
    "platform": 12120,
    "▁muerte": 22316,
    "▁INTO": 11646,
    "▁[": 518,
    "▁испо": 8629,
    "▁Issue": 26246,
    "Color": 3306,
    "anst": 16220,
    "▁Ti": 18439,
    "ht": 400,
    "iras": 20138,
    "ik": 638,
    "<<ST_31>>": 32031,
    "▁putting": 10594,
    "▁Кур": 27812,
    "aceae": 14149,
    "▁Series": 10488,
    "<0x59>": 92,
    "▁lutego": 29404,
    "▁beside": 17620,
    "恋": 31659,
    "▁zou": 15367,
    "▁identifier": 15882,
    "origin": 12574,
    "▁Julian": 27180,
    "▁доку": 24196,
    "▁pushed": 18760,
    "▁n": 302,
    "▁su": 480,
    "▁estudio": 29039,
    "▁División": 22076,
    "omorphism": 14143,
    "му": 1805,
    "NS": 3059,
    "hidden": 10892,
    "sep": 19570,
    "jak": 24744,
    "idden": 4215,
    "▁proposed": 7972,
    "▁Licencia": 24364,
    "^\\": 3823,
    "∫": 31230,
    "▁continuous": 9126,
    "▁Lan": 18273,
    "4": 29946,
    "▁Columbia": 15411,
    "▁hizo": 22598,
    "▁aggreg": 11404,
    "▁games": 8090,
    "<<ST_691>>": 32691,
    "▁hydro": 17546,
    "uni": 3909,
    "циаль": 9676,
    "▁eer": 6380,
    "▁\\$": 20282,
    "▁Henry": 6498,
    "folge": 22997,
    "▁trying": 1811,
    "final": 8394,
    "<<ST_420>>": 32420,
    "▁Ligações": 18315,
    "ighth": 18919,
    "▁sist": 7852,
    "▁===": 6805,
    "▁identification": 29769,
    "▁zona": 13890,
    "<<ST_105>>": 32105,
    "▁intellectual": 29762,
    "▁hover": 16758,
    "▁Zero": 28933,
    "▁style": 3114,
    "imper": 26039,
    "▁historique": 23396,
    "▁tenir": 29585,
    "▁density": 9027,
    "▁seconda": 18740,
    "ixed": 11925,
    "▁pri": 3691,
    "ἱ": 31514,
    "▁эконо": 24297,
    "sel": 2838,
    "▁hardware": 12837,
    "pd": 15926,
    "тиче": 7166,
    "▁ac": 1274,
    "▁gam": 24988,
    "mé": 12031,
    "▁ді": 15294,
    "▁Ged": 16836,
    "▁ordered": 10372,
    "▁tied": 21351,
    "volume": 24623,
    "▁layers": 15359,
    "▁Move": 25249,
    "▁Rich": 4385,
    "▁refers": 14637,
    "пози": 15884,
    "<<ST_709>>": 32709,
    "▁учи": 15517,
    "card": 7543,
    "olog": 1189,
    "\"))": 5783,
    "▁Mall": 23809,
    "platz": 16739,
    "▁baron": 25946,
    "▁Bit": 18531,
    "▁use": 671,
    "▁pg": 23822,
    "MainActivity": 23934,
    "dll": 12396,
    "▁Sports": 12453,
    "▁Buen": 15463,
    "mouth": 21026,
    "Dest": 14994,
    "▁satisf": 5119,
    "▁store": 3787,
    "▁opere": 29276,
    "▁vr": 11723,
    "▁na": 1055,
    "▁begg": 25945,
    "▁#{": 24037,
    "▁През": 23763,
    "▁passage": 13382,
    "▁años": 7396,
    "temper": 12863,
    "IS": 3235,
    "ICE": 12107,
    "▁vil": 11928,
    "▁(:": 13940,
    "Pay": 15467,
    "支": 31541,
    "▁který": 18625,
    "uve": 15008,
    "▁zp": 24724,
    "elines": 24210,
    "▁variants": 29161,
    "▁IBM": 27955,
    "▁ду": 9023,
    "▁kwietnia": 27802,
    "▁brought": 6296,
    "▁районе": 15560,
    "ij": 823,
    "▁NAME": 27085,
    "▁Motor": 16843,
    "<<ST_561>>": 32561,
    "▁accident": 11423,
    "rias": 15851,
    "្": 31155,
    "▁München": 10864,
    "▁werk": 23085,
    "ITE": 9094,
    "▁prede": 27978,
    "▁Corpor": 12767,
    "▁även": 14134,
    "▁\"@": 17962,
    "▁gehörte": 19976,
    "operatorname": 9158,
    "▁park": 14089,
    "▁erm": 27398,
    "▁Seven": 26647,
    "▁pseudo": 17381,
    "▁'<": 12801,
    "▁Pul": 27477,
    "▁observable": 25209,
    "cfg": 16859,
    "uvud": 11508,
    "ste": 1655,
    "▁Supp": 9179,
    "▁filled": 10423,
    "exception": 11739,
    "▁Advanced": 29287,
    "▁community": 7881,
    "assets": 16596,
    "ются": 9480,
    "▁contiene": 8651,
    "▁Efter": 28300,
    "cademy": 9567,
    "NU": 11601,
    "anse": 12350,
    "icago": 9384,
    "ште": 27626,
    "visibility": 28814,
    "Ch": 1451,
    "▁Kompon": 27860,
    "words": 9303,
    "lua": 29448,
    "▁celebr": 10894,
    "<<ST_389>>": 32389,
    "▁List": 2391,
    "▁waar": 7739,
    "<<ST_663>>": 32663,
    "▁educational": 28976,
    "DM": 23560,
    "▁AB": 17571,
    "▁Karl": 8425,
    "▁Bug": 28209,
    "▁sat": 3290,
    "anska": 19041,
    "ー": 30185,
    "<<": 9314,
    "▁Cole": 16816,
    "dart": 11353,
    "▁tail": 12464,
    "Ý": 30777,
    "uint": 13470,
    "▁click": 2828,
    "▁Moon": 17549,
    "дного": 27505,
    "▁száz": 26522,
    "<<ST_676>>": 32676,
    "Elements": 18868,
    "RESS": 26785,
    "َ": 30323,
    "▁eine": 2128,
    "▁sake": 16563,
    "▁wand": 24706,
    "店": 31758,
    "▁builder": 12856,
    "ternal": 1890,
    "gebracht": 28713,
    "ど": 31250,
    "▁Š": 9042,
    "GB": 7210,
    "▁ferro": 19850,
    "▁functional": 13303,
    "attr": 5552,
    "tac": 21229,
    "▁Wall": 14406,
    "ñ": 30046,
    "ied": 1000,
    "нологи": 15953,
    "?\"": 3026,
    "▁sigu": 12923,
    "▁▁▁▁▁▁▁▁▁▁": 965,
    "▁geomet": 28855,
    "ɵ": 31890,
    "че": 1093,
    "▁eerst": 9720,
    "Real": 21713,
    "enabled": 17590,
    "World": 14058,
    "▁wide": 9377,
    "▁storage": 8635,
    "▁`$": 5024,
    "տ": 30817,
    "▁dense": 20619,
    "▁retra": 29578,
    "film": 9663,
    "▁handlers": 25795,
    "евич": 13177,
    "цького": 25526,
    "▁át": 20741,
    "▁Dev": 9481,
    "▁carbon": 22004,
    "identifier": 25378,
    "▁Bre": 5826,
    "▁Green": 7646,
    "▁normal": 4226,
    "bb": 1327,
    "operation": 16453,
    "dot": 6333,
    "▁Now": 2567,
    "▁Atlas": 27076,
    "Editor": 15280,
    "▁guarante": 10509,
    "▁stud": 1921,
    "▁egg": 19710,
    "▁ec": 21226,
    "ctu": 22999,
    "ynomial": 9222,
    "percent": 25376,
    "▁PATH": 23611,
    "▁encode": 19750,
    "▁Ritter": 27917,
    "мест": 27192,
    "▁Dopo": 18352,
    "▁rei": 27409,
    "estro": 16906,
    "▁building": 5214,
    "TE": 4330,
    "uca": 18393,
    "icia": 11477,
    "Alt": 24528,
    "minipage": 24203,
    "edish": 21207,
    "花": 30830,
    "▁Click": 16297,
    "▁cp": 21447,
    "▁Frei": 26272,
    "pository": 7036,
    "▁aktiv": 24073,
    "ób": 17388,
    "▁epis": 6010,
    "DEX": 19577,
    "▁Being": 28265,
    "∥": 30876,
    "adi": 10129,
    "▁debate": 27836,
    "▁автомо": 26528,
    "▁driven": 18225,
    "▁części": 24177,
    "isions": 12112,
    "ftware": 14093,
    "rev": 13478,
    "▁enemy": 11103,
    "▁plug": 18665,
    "▁triple": 21954,
    "zz": 5617,
    "ünstler": 17312,
    "▁uns": 9644,
    "férence": 9625,
    "▁Hun": 16899,
    "▁decimal": 13677,
    "▁stations": 16355,
    "▁traject": 23324,
    "▁Ö": 6450,
    "\\|": 7893,
    "▁observe": 14111,
    "五": 30904,
    "mad": 19581,
    "▁noticed": 10548,
    "▁flow": 4972,
    "▁д": 662,
    "▁totalité": 22777,
    "▁возра": 27808,
    "RA": 4717,
    "Schema": 12763,
    "▁fought": 20722,
    "Graphics": 17290,
    "cher": 4630,
    "Connection": 5350,
    "▁trivial": 12604,
    "▁assignment": 12827,
    "▁treated": 14914,
    "simeq": 27798,
    "▁эк": 18796,
    "mission": 6737,
    "conf": 5527,
    "amy": 25934,
    "▁summ": 22792,
    "岩": 31753,
    "▁Sur": 6298,
    "]{": 3199,
    "▁with": 411,
    "inte": 6693,
    "▁ба": 4724,
    "▁chrome": 16735,
    "chod": 13884,
    "Folder": 12924,
    "ῶ": 30737,
    "▁provincial": 25750,
    "▁tags": 8282,
    "zil": 13170,
    "▁род": 19293,
    "ientí": 21449,
    "▁properties": 4426,
    "webdriver": 29813,
    "▁localidad": 26327,
    "▁verg": 24569,
    "ája": 22748,
    "▁femmes": 19452,
    "bitr": 8844,
    "▁prototype": 22267,
    "▁después": 11006,
    "▁schema": 10938,
    "▁constructed": 13319,
    "WM": 26735,
    "<<ST_246>>": 32246,
    "▁sb": 17444,
    "▁daß": 14106,
    "▁spoken": 19182,
    "此": 31389,
    "┘": 31119,
    "slide": 19265,
    "<<ST_482>>": 32482,
    "▁Datenbank": 18748,
    "пли": 19847,
    "element": 5029,
    "▁Access": 11028,
    "▁drop": 5768,
    "orp": 26423,
    "▁бра": 12224,
    "от": 10390,
    "幸": 31762,
    "▁sty": 15877,
    "▁%),": 29385,
    "▁trov": 27319,
    "▁associations": 27733,
    "▁Mathemat": 13486,
    "▁belonging": 23329,
    "chio": 19608,
    "hof": 8782,
    "▁Lake": 9459,
    "ování": 22604,
    "▁lá": 24303,
    "▁grid": 6856,
    "ask": 1278,
    "▁He": 940,
    "▁rain": 17251,
    "icker": 6541,
    "▁foreign": 9117,
    "▁Plan": 8402,
    "Ü": 30104,
    "操": 31904,
    "▁fail": 4418,
    "▁ин": 5068,
    "isset": 16290,
    "房": 31975,
    "▁pipeline": 16439,
    "ェ": 30887,
    ")}{": 10172,
    "▁Agu": 24106,
    "▁revolution": 19479,
    "▁alias": 13995,
    "▁calci": 15835,
    "<0x13>": 22,
    "bur": 8399,
    "lig": 3473,
    "▁Record": 14164,
    "amen": 5071,
    "▁Korean": 22467,
    "▁partitions": 23629,
    "heel": 10552,
    "▁T": 323,
    "▁frame": 3515,
    "▁gab": 11880,
    "▁Kle": 9924,
    "▁nue": 8005,
    "resources": 13237,
    "atures": 3698,
    "▁learned": 10972,
    "vector": 8111,
    "pel": 13111,
    "ponder": 27582,
    "▁complicated": 12092,
    "▁participants": 27138,
    "шим": 17653,
    "lices": 29399,
    "<<ST_166>>": 32166,
    "<<ST_497>>": 32497,
    "bg": 16264,
    "▁flowers": 18281,
    "чення": 14479,
    "tz": 17559,
    "fficient": 4543,
    "OUT": 12015,
    "▁Abstract": 25513,
    "<<ST_16>>": 32016,
    "▁Act": 3185,
    "園": 31179,
    "▁Michael": 5765,
    "Cook": 19159,
    "▁колле": 23154,
    "ierto": 25449,
    "▁później": 29728,
    "▁Rain": 21431,
    "\\.": 23301,
    "Changed": 7590,
    "SO": 6156,
    "▁Jonathan": 20983,
    "▁printf": 7571,
    "gruppe": 25218,
    "тный": 24885,
    "icing": 18499,
    "<0xEC>": 239,
    "<0x66>": 105,
    "▁série": 10375,
    "nou": 22897,
    "▁Отече": 28151,
    "und": 870,
    "▁Jugend": 19472,
    "weise": 4506,
    "▁Poland": 18898,
    "style": 3293,
    "omega": 4787,
    "<<ST_634>>": 32634,
    "▁Gi": 4406,
    "▁Гу": 15180,
    "▁sous": 5898,
    "▁Stu": 20061,
    "▁results": 2582,
    "에": 31054,
    "▁wo": 8879,
    "▁herm": 18606,
    "astic": 6288,
    "▁Muham": 27100,
    "▁OK": 9280,
    "minister": 15962,
    "django": 14095,
    "Û": 31210,
    "▁aan": 4711,
    "▁Stanisław": 29329,
    "▁threatened": 29513,
    "esia": 28666,
    "integer": 16031,
    "Red": 9039,
    "▁XXX": 22615,
    "icki": 26894,
    "▁compress": 27122,
    "operator": 6891,
    "opus": 26466,
    "ríguez": 26415,
    "geon": 25339,
    "▁median": 19194,
    "ress": 1253,
    "continu": 20621,
    "zef": 26870,
    "▁reasoning": 24481,
    "Ind": 2568,
    "<0x50>": 83,
    "▁conquer": 26474,
    "rotate": 23361,
    "▁Entry": 28236,
    "Tom": 21599,
    "▁Gir": 21572,
    "▁guidance": 27323,
    "ган": 7478,
    "ature": 1535,
    "ién": 5170,
    "▁Ко": 3840,
    "▁discussion": 10679,
    "⊕": 31200,
    "▁veröff": 17808,
    "▁réalisé": 24984,
    "eign": 7577,
    "velope": 21367,
    "▁компа": 16944,
    "▁pén": 26520,
    "ensen": 14762,
    "ش": 30256,
    "▁clearly": 9436,
    "cludes": 27722,
    "▁irregular": 27931,
    "▁Texas": 10319,
    "▁imm": 5198,
    "▁розта": 19735,
    "▁Inside": 22804,
    "▁disturb": 29543,
    "jax": 6487,
    "ático": 22054,
    "]{'": 27706,
    "▁Web": 2563,
    "któ": 18882,
    "Inject": 28329,
    "Ë": 30949,
    "apest": 13198,
    "dict": 8977,
    "▁Mannschaft": 21404,
    "jsp": 21318,
    "▁budget": 23562,
    "▁stal": 28367,
    "▁bur": 6866,
    "▁Пред": 25115,
    "itut": 12937,
    ".`": 17580,
    "▁appel": 16794,
    "▁gut": 22341,
    "And": 2855,
    "pred": 11965,
    "laus": 15273,
    "гласно": 23405,
    "▁koji": 21016,
    "▁Route": 12034,
    "of": 974,
    "<0xA3>": 166,
    "▁Res": 2538,
    "▁mov": 2351,
    "▁той": 23879,
    "bol": 2095,
    "▁прис": 27167,
    "tabs": 21175,
    "▁pointers": 12589,
    "▁один": 15515,
    "▁stamp": 25214,
    "▁wrest": 24613,
    "▁Kelly": 21872,
    "▁ла": 11046,
    "rer": 2872,
    "▁leak": 24993,
    "宿": 31612,
    "<<ST_483>>": 32483,
    "ਸ": 31691,
    "impl": 13699,
    "iel": 709,
    "▁fatto": 20033,
    "▁prince": 15927,
    "▁contribution": 11896,
    "arm": 2817,
    "hpp": 29623,
    "лей": 6188,
    "▁shell": 6473,
    "État": 16061,
    "▁Thomas": 5569,
    "Dev": 16618,
    "▁won": 2113,
    "▁Литература": 15799,
    "Po": 9837,
    "ite": 568,
    "▁millions": 14746,
    "▁statement": 3229,
    "ρ": 30147,
    "elt": 2152,
    "▁slov": 25007,
    "ők": 23420,
    "ange": 927,
    "elijke": 6945,
    "Success": 14191,
    "▁godine": 20453,
    "▁Из": 10692,
    "▁conversion": 11301,
    "▁Sc": 2522,
    "▁zwar": 26979,
    "▁happen": 3799,
    "▁nouvelle": 15217,
    "ково": 7220,
    "▁continue": 6773,
    "▁cors": 27672,
    "Hint": 28016,
    "▁symmetry": 18446,
    "▁Ident": 13355,
    "oga": 14895,
    "cling": 19914,
    "▁Sum": 6991,
    "edge": 12864,
    "▁trag": 25305,
    "▁Première": 28720,
    "ं": 30757,
    "▁biz": 20132,
    "▁target": 3646,
    "<0xEB>": 238,
    "▁spark": 16267,
    "▁któ": 6738,
    "▁vue": 15911,
    "\\)": 7244,
    "erva": 25461,
    "label": 1643,
    "▁temperature": 10430,
    "...)": 11410,
    "▁sze": 17007,
    "▁Connecticut": 27230,
    "ℚ": 31528,
    "▁restore": 17749,
    "ão": 1368,
    "street": 29352,
    "▁galaxies": 25494,
    "▁emphas": 19310,
    "▁characteristics": 21862,
    "▁Bush": 24715,
    "▁Ro": 1528,
    "нова": 8240,
    "▁is": 338,
    "odi": 12143,
    "▁Hem": 20863,
    "▁public": 970,
    "unique": 13092,
    "▁dup": 5141,
    "oreferrer": 3798,
    "ague": 3437,
    "▁November": 3979,
    "▁Princess": 22063,
    "dia": 15321,
    "attend": 27601,
    "<s>": 1,
    "▁Pennsylvania": 16636,
    "▁``": 4954,
    "▁Kir": 5201,
    "lopedia": 9547,
    "ine": 457,
    "▁arm": 5075,
    "ifica": 15039,
    "ilde": 7154,
    "CheckBox": 28360,
    "stru": 10582,
    "▁terme": 20689,
    "uct": 5313,
    "▁aspects": 21420,
    "▁ISO": 17723,
    "isms": 12903,
    "appen": 19934,
    "도": 31136,
    "wide": 8157,
    "іль": 4202,
    "▁specie": 23464,
    "▁Kriegs": 21249,
    "dp": 6099,
    "▁marca": 17363,
    "▁Toast": 15891,
    "▁poetry": 22309,
    "▁altern": 5136,
    "abe": 4302,
    "东": 30979,
    "▁gender": 23346,
    "ква": 11691,
    "▁Possible": 20049,
    "6": 29953,
    "kk": 6859,
    "س": 30198,
    "▁Gemeinde": 8662,
    "asketball": 11852,
    "▁Oktober": 7619,
    "uur": 13692,
    "▁ге": 10342,
    "▁volunte": 27886,
    "值": 30959,
    "icular": 16311,
    "▁jest": 6771,
    "▁passenger": 28507,
    "icile": 25123,
    "▁Gard": 15971,
    "ával": 19147,
    "eler": 7367,
    "href": 12653,
    "ном": 2815,
    "random": 8172,
    "чка": 10546,
    "▁disappoint": 23451,
    "▁star": 5810,
    "urrent": 1264,
    "atica": 29288,
    "cken": 8916,
    "ienne": 7081,
    "▁knows": 9906,
    "ircraft": 12664,
    "esa": 8625,
    "у": 29960,
    "fileName": 28926,
    "imin": 8332,
    "コ": 30459,
    "▁це": 8816,
    "▁Range": 12146,
    "富": 31730,
    "item": 667,
    "▁poly": 15680,
    "▁pueden": 19796,
    "aszt": 19812,
    "▁ohne": 14233,
    "▁causing": 10805,
    "▁classification": 12965,
    "rules": 19238,
    "▁expres": 29150,
    "▁ging": 12773,
    "▁ś": 6192,
    "пер": 7043,
    "▁представи": 21768,
    "lemma": 13846,
    "Perm": 15737,
    "▁wechselte": 25017,
    "async": 12674,
    "▁Tell": 24948,
    "ret": 2267,
    "▁tandis": 27093,
    "▁сво": 3862,
    "же": 1498,
    "ari": 1306,
    "▁Gest": 19817,
    "ativity": 28157,
    "▁Ej": 26087,
    "▁включа": 20352,
    "▁person": 2022,
    "athol": 6347,
    "ct": 312,
    "▁silent": 17436,
    "▁sharp": 15301,
    "enson": 25151,
    "dog": 26169,
    "▁nas": 8281,
    "▁disappeared": 24273,
    "▁Dir": 19378,
    "▁min": 1375,
    "▁stop": 5040,
    "prüft": 22918,
    "▁imp": 2411,
    "▁No": 1939,
    "▁Jahres": 19787,
    "[]{": 24406,
    "<<ST_53>>": 32053,
    "▁hijo": 23737,
    "▁Lincoln": 17274,
    "▁accompanied": 21302,
    "<<ST_549>>": 32549,
    "sen": 4881,
    "ứ": 31318,
    "九": 31321,
    "Next": 9190,
    "▁Ener": 15163,
    "▁division": 8542,
    "ów": 2165,
    "▁Dead": 16992,
    "▁datetime": 12865,
    "▁dialog": 7928,
    "线": 31532,
    "▁NC": 25166,
    "▁país": 9764,
    "▁od": 2413,
    "▁tiem": 12511,
    "▁June": 5306,
    "▁cases": 4251,
    "雪": 31731,
    "▁Star": 7828,
    "▁\"{": 29850,
    "▁Lam": 12718,
    "inci": 2173,
    "▁Tir": 27810,
    "▁häufig": 27050,
    "▁ez": 20803,
    "book": 2909,
    "Well": 11284,
    "א": 30253,
    "Imp": 24192,
    "olen": 18975,
    "▁go": 748,
    "Game": 14199,
    "▁solves": 24307,
    "title": 3257,
    "▁these": 1438,
    "▁....": 13035,
    "<<ST_245>>": 32245,
    "▁habe": 19221,
    "▁Bud": 7038,
    "﹕": 30375,
    "ele": 6146,
    "▁Olympics": 16373,
    "▁yesterday": 22600,
    "구": 31231,
    "▁дов": 26313,
    "头": 31584,
    "<<ST_248>>": 32248,
    "▁refuse": 26506,
    "mult": 4713,
    "ennes": 9387,
    "atural": 18771,
    "ellers": 28257,
    "▁SSL": 17122,
    "▁underlying": 14407,
    "▁сельсов": 29162,
    "Bo": 8431,
    "▁template": 4472,
    "▁X": 1060,
    "▁Community": 19184,
    "multicol": 14155,
    "▁Véase": 17866,
    "▁Upon": 19956,
    "▁metros": 24086,
    "▁Literatur": 6873,
    "▁persu": 20408,
    "ov": 586,
    "brow": 23721,
    "▁tener": 22975,
    "vez": 13325,
    ":{": 26254,
    "components": 14036,
    "▁Rio": 11611,
    "▁Blues": 23434,
    "▁algo": 24673,
    "ization": 2133,
    "▁parameter": 3443,
    "zott": 29730,
    "ws": 5652,
    "гі": 8392,
    "way": 1582,
    "нее": 13820,
    "per": 546,
    "▁Euro": 11652,
    "PUT": 12336,
    "▁fish": 9427,
    "tery": 22005,
    "import": 5215,
    "▁cro": 8182,
    "cong": 21015,
    "▁Пет": 12956,
    "▁Pos": 10321,
    "▁vérit": 27128,
    "▁radiation": 27310,
    "▁Cult": 7965,
    "▁hé": 22500,
    "uru": 20144,
    "aucoup": 20168,
    "▁forum": 24179,
    "▁marked": 10902,
    "▁since": 1951,
    "▁Jefferson": 29011,
    "▁radius": 11855,
    "▁rod": 15382,
    "sert": 1940,
    "▁faz": 16928,
    "▁européenne": 29211,
    "comment": 9342,
    "▁protagon": 15572,
    "amil": 1344,
    "VALID": 26707,
    "▁agricult": 18032,
    "▁Sho": 17550,
    "ombres": 20934,
    "▁opts": 29111,
    "▁де": 2263,
    "lär": 17605,
    "▁lost": 5714,
    "藤": 30804,
    "wohl": 29300,
    "Hor": 17241,
    "▁О": 1651,
    "▁kwiet": 25145,
    "∉": 31586,
    "вшие": 28429,
    "▁Cle": 21386,
    "Boolean": 18146,
    "segu": 21664,
    "suit": 29658,
    "▁liga": 28714,
    "ύ": 31469,
    "▁grudnia": 26106,
    "▁Live": 10782,
    "article": 7914,
    "Initial": 15514,
    "▁Ist": 11066,
    "cych": 18614,
    "merce": 15667,
    "Function": 6678,
    "▁moreover": 25409,
    "▁quali": 18661,
    "▁whites": 18960,
    "結": 31711,
    "▁entre": 2637,
    "tw": 7516,
    "modules": 7576,
    "meter": 29391,
    "IG": 6259,
    "prom": 14032,
    "▁auteurs": 19117,
    "ɯ": 31983,
    "imon": 20170,
    "▁Расподела": 28354,
    "werp": 14485,
    "̈": 31719,
    "▁Valid": 15758,
    "▁campo": 15921,
    "})$": 8435,
    "љу": 12659,
    "▁damit": 14733,
    "through": 20678,
    "ղ": 31443,
    "▁committee": 21118,
    "empl": 16305,
    "▁Á": 7260,
    "ϕ": 30821,
    "<0xB0>": 179,
    "rera": 13941,
    "▁szó": 27025,
    "▁migr": 9725,
    "▁SU": 20134,
    "▁Professor": 11386,
    "rand": 9502,
    "▁Double": 11599,
    "CODE": 16524,
    "▁sons": 18025,
    "false": 4541,
    "iore": 19258,
    "▁classic": 22037,
    "▁сот": 23966,
    "▁Abr": 27782,
    "▁corpo": 25545,
    "ének": 20242,
    "ющих": 17200,
    "uuid": 25118,
    "▁edific": 15454,
    "▁други": 7563,
    "▁честь": 28654,
    "▁geb": 5772,
    "▁cheval": 25042,
    "事": 30745,
    "▁sun": 6575,
    "atisf": 27685,
    "aly": 14997,
    "▁nous": 8556,
    "▁gebied": 26389,
    "owego": 13363,
    "dess": 19521,
    "▁kunnen": 24055,
    "▁Dan": 3951,
    "▁Success": 21397,
    "₉": 30301,
    "`.": 1412,
    "ря": 2359,
    "▁Се": 7215,
    "▁cell": 3038,
    "▁general": 2498,
    "<<ST_391>>": 32391,
    "▁kdy": 27546,
    "Архівовано": 11804,
    "TF": 8969,
    "里": 30755,
    "folk": 17976,
    "▁Kun": 25472,
    "furt": 13065,
    "ätte": 21269,
    "▁Rück": 15582,
    "▁α": 19883,
    "▁who": 1058,
    "kc": 12192,
    "▁things": 2712,
    "кро": 25041,
    "de": 311,
    "idge": 5525,
    "▁religios": 20187,
    "app": 932,
    "solute": 14977,
    "mk": 11256,
    "▁Gast": 18406,
    "ляет": 23401,
    "▁unless": 6521,
    "▁Lower": 27723,
    "▁pivot": 24438,
    "▁cultiv": 18834,
    "WP": 26433,
    "lywood": 16239,
    "andon": 9214,
    "▁soll": 10297,
    "▁March": 4779,
    "<0x38>": 59,
    "egen": 3442,
    "<<ST_306>>": 32306,
    "▁diagram": 13722,
    "▁Prior": 22096,
    "ğ": 30200,
    "▁incomplete": 28907,
    "▁found": 1476,
    "registr": 29238,
    "кт": 3931,
    "▁зву": 29351,
    "▁enjoyed": 27849,
    "ség": 25038,
    "▁further": 4340,
    "▁compét": 25732,
    "/(": 14571,
    "SELECT": 6404,
    "don": 9176,
    "▁hina": 27957,
    "▁як": 9285,
    "reader": 16950,
    "▁founder": 25331,
    "ната": 10392,
    "AUT": 20656,
    ")^": 4887,
    "Location": 6508,
    "kten": 9553,
    "ügel": 25146,
    "▁guid": 16605,
    "lete": 2810,
    "▁Kat": 12553,
    "▁Spieler": 25789,
    "-": 29899,
    "▁Bav": 24311,
    "▁пора": 28227,
    "лы": 5985,
    "idx": 13140,
    "keeper": 23935,
    "CAA": 22701,
    "▁consecutive": 18942,
    "▁coin": 19480,
    "▁Beispiel": 22621,
    "text": 726,
    "▁Lim": 9628,
    "▁movie": 14064,
    "Õ": 30983,
    "▁encore": 10440,
    "nih": 13428,
    "시": 30889,
    "Deb": 10251,
    "▁вто": 15046,
    "нь": 5392,
    "rupt": 6685,
    "▁angles": 23619,
    "but": 4187,
    "▁judge": 16833,
    "▁Hat": 25966,
    "jas": 14196,
    "kill": 21174,
    "markt": 16325,
    "Mil": 29316,
    "cles": 7799,
    "手": 30880,
    "▁wx": 26437,
    "heid": 9722,
    "▁Ши": 25445,
    "▁calcio": 29515,
    "▁restart": 10715,
    "lav": 4112,
    "cond": 1116,
    "lessly": 23769,
    "▁bud": 8619,
    "▁While": 5806,
    "▁Аб": 29484,
    "iod": 2660,
    "document": 3225,
    "<<ST_556>>": 32556,
    "игра": 25087,
    "▁membership": 28512,
    "▁i": 474,
    "сия": 21290,
    "usqu": 8555,
    "▁magyar": 17717,
    "▁coff": 19785,
    "⅓": 31690,
    "▁ш": 3354,
    "тельной": 28787,
    "▁reactjs": 20358,
    "▁above": 2038,
    "▁Brit": 3230,
    "ют": 4394,
    "rb": 6050,
    "▁queen": 26624,
    "Copy": 11882,
    "▁mondiale": 14475,
    "bereich": 27915,
    "▁искус": 21073,
    "▁mom": 16823,
    "▁gegenüber": 26479,
    "▁opposite": 11564,
    "▁autonom": 28273,
    "▁repositories": 28914,
    "▁used": 1304,
    "φ": 30237,
    "▁direct": 1513,
    "▁grave": 15258,
    "▁soup": 22300,
    "▁surface": 7101,
    "ân": 10031,
    "&": 29987,
    "▁quantities": 26855,
    "gesellschaft": 26175,
    "▁Reich": 9320,
    "▁\"'": 13577,
    "chrome": 18114,
    "▁находи": 14050,
    "▁Bilder": 8354,
    "▁Bob": 7991,
    "▁юго": 28162,
    "▁hosts": 18982,
    "Gi": 26074,
    "pts": 16485,
    "complex": 19676,
    "▁produces": 13880,
    "▁gan": 9581,
    "▁increased": 11664,
    "respons": 26679,
    "iation": 11685,
    "▁tunnel": 26086,
    "paragraph": 26956,
    "▁Try": 3967,
    "▁Peace": 24819,
    "ючи": 15598,
    "èt": 23855,
    "▁covers": 18469,
    "▁vég": 17751,
    "develop": 4888,
    "ges": 2710,
    "ész": 11065,
    "aching": 9733,
    "▁Tod": 7561,
    "▁dont": 4555,
    "▁Hä": 24007,
    "<0x0B>": 14,
    "ond": 898,
    "▁woods": 25013,
    "NULL": 10074,
    "▁cancer": 23900,
    "▁ok": 3431,
    "indu": 19910,
    "гра": 2194,
    "▁Резултати": 27061,
    "meisterschaft": 28110,
    "▁Coppa": 25857,
    "irmingham": 28836,
    "rinn": 18023,
    "▁concern": 5932,
    "ideo": 3007,
    "ació": 12076,
    "ver": 369,
    "====": 2751,
    "▁бі": 16312,
    "▁invited": 23610,
    "www": 1636,
    "存": 30946,
    "▁snow": 15007,
    "▁iv": 20444,
    "licit": 4019,
    "▁politique": 11398,
    "▁și": 4209,
    "▁obj": 5446,
    "Release": 19729,
    "▁sol": 899,
    "uting": 17068,
    "▁opt": 3523,
    "▁econ": 20490,
    "▁Review": 13957,
    "elling": 7807,
    "eds": 5779,
    "ection": 9739,
    "▁daily": 14218,
    "▁była": 22857,
    "ori": 4170,
    "▁siè": 6476,
    "<<ST_122>>": 32122,
    "Chr": 11626,
    "gl": 3820,
    "swers": 5956,
    "(',": 29317,
    "ู": 31396,
    "▁Май": 24314,
    "▁…": 16088,
    "fa": 5444,
    "iffs": 28324,
    "ез": 5836,
    "is": 275,
    "▁AV": 16884,
    "ání": 10497,
    "Inner": 27748,
    "чё": 16182,
    "<<ST_713>>": 32713,
    "ض": 30624,
    "iss": 790,
    "▁tensorflow": 26110,
    "▁OS": 6570,
    "▁username": 8952,
    "ordinary": 24310,
    "▁Oregon": 25203,
    "▁favour": 15381,
    "▁Eq": 12345,
    "据": 30763,
    "▁neural": 19677,
    "▁харак": 18194,
    "▁probabil": 23950,
    "▁Bibliografía": 29054,
    "œuvre": 19898,
    "íos": 27251,
    "▁Sam": 3685,
    "]`": 7961,
    "ènes": 22702,
    "շ": 31720,
    "ภ": 31070,
    "Connect": 17918,
    "▁lug": 7245,
    "▁[],": 19997,
    "▁ung": 29443,
    "▁Wu": 29624,
    "▁mil": 2316,
    "ology": 3002,
    "<<ST_697>>": 32697,
    "▁newsp": 14578,
    "ția": 17160,
    "▁Bind": 29672,
    "attle": 5315,
    "▁correlation": 19869,
    "▁всего": 26566,
    "<<ST_641>>": 32641,
    "entry": 8269,
    "roc": 10198,
    "‘": 30086,
    "▁pob": 6130,
    "▁роках": 25696,
    "esc": 9977,
    "▁inform": 1871,
    "▁tracking": 23110,
    "ico": 1417,
    "类": 30832,
    "<<ST_365>>": 32365,
    "agn": 4211,
    "вана": 29241,
    "zik": 20711,
    "▁customers": 20330,
    "));": 2483,
    "▁dalle": 19078,
    "iman": 25895,
    "<<ST_562>>": 32562,
    "dfs": 29069,
    "FT": 7818,
    "interface": 13248,
    "Plan": 20334,
    "▁linear": 5608,
    "niu": 21399,
    "archy": 12040,
    "▁резу": 12250,
    "<<ST_79>>": 32079,
    "rund": 29160,
    "anel": 3870,
    "\\/": 25558,
    "san": 28455,
    "▁rapp": 12468,
    "保": 30982,
    "église": 20822,
    "schemas": 11993,
    "": 30751,
    "enza": 5723,
    "def": 1753,
    "itmap": 10137,
    "▁Bef": 20630,
    "kö": 12910,
    "tbl": 16400,
    "arse": 7989,
    "显": 31542,
    "▁réseau": 28710,
    "▁earliest": 24577,
    "flow": 1731,
    "<0x4D>": 80,
    "▁bool": 6120,
    "Fragment": 8752,
    "sp": 1028,
    "NotFound": 17413,
    "▁frames": 16608,
    "}/": 6822,
    "Types": 10562,
    "▁among": 4249,
    "chk": 29570,
    "кими": 21456,
    "mv": 29324,
    ".;": 8670,
    "▁comune": 14915,
    "▁différ": 12694,
    "▁tax": 8818,
    "unicip": 4376,
    "▁aliment": 20196,
    "inu": 8675,
    "▁relacion": 19727,
    "<<ST_102>>": 32102,
    "▁rivière": 28660,
    "▁Temp": 21121,
    "▁arqu": 19325,
    "owski": 11716,
    "▁effects": 9545,
    "▁Clara": 29042,
    "ithmetic": 18542,
    "сс": 8808,
    "▁compression": 24221,
    "ład": 8650,
    "itated": 22731,
    "onds": 13788,
    "ə": 30184,
    "CES": 27266,
    "▁Sarah": 19235,
    "▁Gebäude": 22912,
    "////////": 10797,
    "eling": 14067,
    "▁fire": 3974,
    "Card": 13200,
    "▁marry": 20479,
    "Ad": 3253,
    "▁looks": 3430,
    "▁викори": 19749,
    "▁спе": 10707,
    "été": 7342,
    "▁Alf": 8131,
    "‑": 30477,
    "unter": 8428,
    "...\"": 17794,
    "Ч": 30076,
    "▁Este": 12723,
    "▁See": 2823,
    "▁error": 1059,
    "▁Gu": 2088,
    "<<ST_311>>": 32311,
    "reso": 28857,
    "▁quadr": 15448,
    "elif": 23681,
    "run": 3389,
    "▁zam": 14583,
    "ację": 29357,
    "<<ST_656>>": 32656,
    "▁tv": 9631,
    "▁appart": 25479,
    "▁Mi": 5493,
    "▁pap": 3500,
    "GC": 8766,
    "▁servants": 26202,
    "▁point": 1298,
    "er": 261,
    "<<ST_193>>": 32193,
    ".": 29889,
    "▁programming": 8720,
    "▁Theater": 16150,
    "▁mach": 7672,
    "czas": 14286,
    "POST": 5438,
    "frac": 1154,
    "Mark": 9802,
    "isis": 15773,
    "▁Swedish": 21892,
    "▁червня": 26527,
    "▁track": 5702,
    "ру": 1086,
    "phony": 22214,
    "▁Julius": 23762,
    "▁substring": 28228,
    "▁networks": 14379,
    "<0xF8>": 251,
    "▁trif": 27735,
    "isses": 29284,
    "iš": 21365,
    "▁artist": 7664,
    "▁ist": 1752,
    "▁Ed": 2155,
    "Camera": 20717,
    "▁Petersburg": 29675,
    "ruf": 26822,
    "Indicator": 28013,
    "ază": 26037,
    "▁shooting": 27904,
    "▁depth": 10809,
    "▁heav": 14200,
    "ovie": 5672,
    "▁err": 4589,
    "wi": 4353,
    "▁ask": 2244,
    "▁Wit": 24363,
    "\"><": 3254,
    "ops": 3554,
    "aud": 15052,
    "▁Lorenzo": 25829,
    "▁pr": 544,
    "▁resolved": 11527,
    "▁ikke": 27408,
    "▁blind": 16842,
    "orton": 26342,
    "rieben": 16609,
    "▁Line": 7407,
    "▁bil": 13181,
    "▁belle": 26436,
    "▁Boys": 22148,
    "ger": 914,
    "▁medi": 14457,
    "teen": 9404,
    "▁Classic": 24300,
    "▁кораб": 27009,
    "▁purpose": 6437,
    "▁streams": 20873,
    "pet": 10963,
    "ências": 9339,
    ">\\<^": 26498,
    "inese": 8233,
    "▁academic": 21567,
    "vey": 6950,
    "▁zero": 5225,
    "ression": 23881,
    "por": 1971,
    "▁объек": 29599,
    "sync": 16593,
    "$),": 25942,
    "ṅ": 31397,
    "INSERT": 19460,
    "▁während": 12829,
    "▁tierra": 27907,
    "rup": 17827,
    "▁festival": 16005,
    "场": 31632,
    "arten": 8109,
    "▁Einzelnach": 6663,
    "▁shut": 12522,
    "▁Пів": 28892,
    "▁neces": 16632,
    "stackexchange": 7041,
    "▁swo": 16768,
    "▁helpful": 8444,
    "quin": 24150,
    "▁esta": 7444,
    "ien": 819,
    "▁convent": 13064,
    "мор": 12434,
    "мена": 20663,
    "Ω": 30357,
    "▁careful": 16010,
    "top": 3332,
    "Butt": 29819,
    "▁contrib": 17737,
    "▁small": 2319,
    "▁Abs": 24650,
    "▁Nin": 27960,
    "ET": 2544,
    "▁leaves": 11308,
    "ế": 30717,
    "▁Norway": 27440,
    "entation": 9233,
    "VID": 13044,
    "▁▁▁▁▁▁▁▁▁▁▁▁▁": 795,
    "▁Daw": 29461,
    "▁že": 15304,
    "▁Us": 10783,
    "hbar": 26620,
    "arks": 17862,
    "▁detection": 15326,
    "转": 31415,
    "wt": 14554,
    "erset": 24197,
    "лії": 27376,
    "▁corps": 14913,
    "▁permit": 14257,
    "üd": 6215,
    "▁Binding": 25799,
    "RIG": 22789,
    "▁Encyc": 12145,
    "kwargs": 19290,
    "▁міс": 13259,
    "▁letting": 27697,
    "migr": 26983,
    "▁mines": 29086,
    "放": 31182,
    "▁fil": 977,
    "▁Raf": 17881,
    "clic": 28746,
    "▁Filip": 21391,
    "▁rôle": 17889,
    "▁липня": 25283,
    "login": 7507,
    "ʲ": 30668,
    "öffentlich": 26207,
    "czy": 6902,
    "▁occident": 17543,
    "▁Trad": 18375,
    "▁là": 18916,
    "▁Mine": 26833,
    "ciale": 21101,
    "▁subgroup": 24410,
    "arial": 27521,
    "▁hand": 1361,
    "▁В": 939,
    "ії": 5980,
    "pf": 7810,
    "⁠": 30365,
    "▁Download": 25553,
    "▁Donald": 18935,
    "▁apr": 21783,
    "▁свои": 26348,
    "▁этой": 24643,
    "owana": 25880,
    "▁low": 4482,
    "▁ol": 13386,
    "▁реа": 24548,
    "▁Укра": 15949,
    "sef": 28604,
    "▁amp": 21332,
    "▁boat": 13006,
    "▁grade": 19468,
    "▁коро": 10210,
    "▁фрон": 23502,
    "esome": 14151,
    "▁немец": 24351,
    "▁costitu": 24249,
    ")&": 26927,
    "▁huit": 27052,
    "Exec": 5379,
    "jquery": 5880,
    "eree": 23987,
    "▁prompt": 9508,
    "▁soci": 5374,
    "ན": 31614,
    "ɑ": 30426,
    "endor": 12184,
    "pg": 4061,
    "▁Find": 10987,
    "▁give": 2367,
    "ship": 3527,
    "▁профес": 15240,
    "▁−": 13935,
    "icane": 26655,
    "馬": 31087,
    "数": 30354,
    "AMP": 19297,
    "ides": 2247,
    "▁прави": 12318,
    "SBN": 1977,
    "▁ano": 19410,
    "sson": 12371,
    "▁county": 15178,
    "getInstance": 20958,
    "ität": 7033,
    "▁Bobby": 27665,
    "ilis": 23285,
    "▁ком": 5294,
    "▁Book": 6726,
    "ент": 3648,
    "aze": 28334,
    "▁services": 5786,
    "▁guaranteed": 22688,
    "expected": 9684,
    "▁occasions": 26108,
    "▁play": 1708,
    "▁raised": 10425,
    "▁Ло": 15636,
    "\\}$.": 23699,
    "▁Zur": 16318,
    "▁süd": 14823,
    "![": 21298,
    "());": 3310,
    "ürgen": 29179,
    "▁polit": 2832,
    "jack": 21452,
    "demás": 14086,
    "acy": 4135,
    "▁doubles": 27641,
    "▁keine": 13945,
    "▁Psych": 16777,
    "▁Analysis": 24352,
    "▁Никола": 13966,
    "org": 990,
    "▁techni": 7304,
    "дій": 19686,
    "прави": 19524,
    "▁copy": 3509,
    "iction": 2463,
    "virt": 15389,
    "jou": 20551,
    "▁operate": 21994,
    "▁Ги": 27553,
    "cco": 26454,
    "▁organization": 13013,
    "imiter": 19657,
    "▁}": 500,
    "▁Private": 12230,
    "▁causes": 9946,
    "▁meant": 6839,
    "lare": 8663,
    "▁früher": 27509,
    "▁годи": 5808,
    "▁виде": 21986,
    "cki": 22736,
    "▁misunder": 19818,
    "izations": 17063,
    "▁darauf": 19118,
    "⟨": 30266,
    "presentation": 26081,
    "fort": 3921,
    "Dim": 16142,
    "▁protein": 26823,
    "▁consultato": 17798,
    "▁canon": 15355,
    "ала": 24036,
    "▁Rome": 9184,
    "▁Haz": 25606,
    "▁cap": 2117,
    "▁carriage": 23840,
    "▁Musée": 26273,
    "Ї": 30331,
    "rade": 15464,
    "▁grupos": 26161,
    "▁rap": 14937,
    "BE": 15349,
    "▁Admir": 23946,
    "▁для": 3807,
    "тори": 24689,
    "<0xE8>": 235,
    "▁mich": 21488,
    "▁MongoDB": 29004,
    "LC": 12182,
    "={{": 28493,
    "éric": 9989,
    "▁Indiana": 21817,
    "пу": 2968,
    "agem": 13904,
    "▁Höhe": 24076,
    "bo": 833,
    "ura": 2002,
    "Other": 16107,
    "▁Syn": 10829,
    "▁comme": 4191,
    "eny": 15274,
    "▁Cru": 11263,
    "▁Squadron": 26070,
    "Also": 17351,
    "тельства": 21841,
    "▁округу": 28044,
    "->{": 20667,
    "Writer": 10507,
    "дан": 6798,
    "from": 3166,
    "ètes": 21017,
    "preview": 25347,
    "Ph": 4819,
    "▁sar": 22887,
    "ω": 30206,
    "▁artific": 19069,
    "▁displaying": 16384,
    "▁molti": 28248,
    "▁juni": 17340,
    "cation": 9252,
    "src": 4351,
    "float": 7411,
    "▁XX": 6193,
    "browser": 15965,
    "산": 31458,
    "▁episodes": 23238,
    "ruby": 9754,
    "UND": 18783,
    "BU": 7838,
    "CAT": 23972,
    "sprach": 29339,
    "▁Государ": 29063,
    "reib": 12207,
    "▁ASP": 12738,
    "▁Cir": 25079,
    "play": 1456,
    "▁Campe": 13592,
    "▁Like": 8502,
    "▁transactions": 22160,
    "skiej": 8779,
    "▁Fab": 10629,
    "▁joins": 26205,
    "▁told": 5429,
    "▁temporary": 13201,
    "line": 1220,
    "▁Gran": 6274,
    "▁Row": 11438,
    "▁Dabei": 26034,
    "ABC": 19658,
    "▁Ди": 8804,
    "('\\": 28909,
    "ZygoteInit": 25587,
    "▁pair": 5101,
    "▁nell": 10099,
    "▁beach": 25695,
    "Control": 4809,
    "ře": 12859,
    "CL": 6154,
    "ique": 1387,
    "ptr": 7414,
    "Γ": 30339,
    "who": 15970,
    "trim": 15450,
    "▁seule": 25642,
    "vek": 19134,
    "▁interfaces": 19510,
    "apis": 11355,
    "▁Perl": 23907,
    "▁distinguish": 20820,
    "Bind": 15708,
    "▁particular": 3153,
    "court": 27845,
    "emes": 13826,
    "▁zab": 22249,
    "▁topic": 11261,
    "ugin": 3851,
    "▁not": 451,
    "Ge": 7999,
    "imum": 12539,
    "lot": 8276,
    "▁лет": 10975,
    "▁parentheses": 29494,
    "<<ST_456>>": 32456,
    "aupt": 7479,
    "▁tras": 6809,
    "▁discipline": 29822,
    "3": 29941,
    "der": 672,
    "ictures": 10373,
    "▁Los": 4602,
    "Attributes": 15801,
    "ана": 14611,
    "▁TE": 17067,
    "ща": 4826,
    "▁Division": 7946,
    "files": 5325,
    "▁pens": 10420,
    "▁absor": 17977,
    "▁memb": 3813,
    "<<ST_334>>": 32334,
    "▁by": 491,
    "▁vin": 13848,
    "▁площа": 20281,
    "▁Ні": 23865,
    "Active": 9966,
    "|\\": 4295,
    "▁otto": 15999,
    "–": 29994,
    "мі": 3272,
    "▁Culture": 14062,
    "▁composed": 13725,
    "▁Armen": 19549,
    "endre": 9030,
    "ules": 2540,
    "▁terug": 21484,
    "cola": 15519,
    "ί": 30207,
    "▁canad": 23801,
    "▁personne": 26744,
    "▁Dies": 6065,
    "ció": 2617,
    "PD": 25014,
    "▁visto": 29025,
    "]}": 12258,
    "▁Change": 10726,
    "▁concrete": 18387,
    "▁Sy": 8713,
    "indow": 2064,
    "▁Val": 2630,
    "hape": 14443,
    "්": 31301,
    "▁Tru": 17238,
    "▁Hog": 27675,
    "rf": 9600,
    "vendor": 19167,
    "ART": 8322,
    "gets": 20078,
    "ˆ": 31597,
    "▁lar": 2203,
    "mathscr": 13002,
    "▁znajdu": 22562,
    "▁vital": 27131,
    "▁protected": 6364,
    "](": 850,
    "▁Menschen": 14922,
    "▁infant": 28056,
    "in": 262,
    "▁LA": 17900,
    "∂": 30934,
    "▁Orchestra": 23685,
    "▁Libert": 25421,
    "▁Mat": 5345,
    "entries": 26586,
    "▁signs": 18906,
    "record": 11651,
    "ography": 5275,
    "unicí": 27634,
    "▁libro": 19366,
    "}=\\": 8738,
    "\"/>": 4681,
    "icy": 4245,
    "▁sizes": 15786,
    "Optional": 27636,
    "alette": 26456,
    "ories": 3842,
    "arbe": 23536,
    "▁social": 5264,
    "product": 4704,
    "▁cert": 2284,
    "כ": 30498,
    "▁key": 1820,
    "bij": 19352,
    "}^{-": 19579,
    "▁sudden": 8327,
    "黃": 31995,
    "ensive": 6270,
    "<0x78>": 123,
    "▁Inter": 4124,
    "▁NO": 11698,
    "▁throne": 27446,
    "ados": 2255,
    "▁interface": 5067,
    "Step": 14448,
    "staden": 20985,
    "▁plenty": 20947,
    "▁équipes": 29496,
    "▁campion": 18160,
    "comes": 26807,
    "you": 6293,
    "autorité": 11074,
    "▁toe": 29363,
    "▁svě": 28370,
    "///": 6658,
    "▁screens": 11844,
    "łod": 25073,
    "▁assuming": 10241,
    "▁Split": 26178,
    "й": 29977,
    "▁két": 23751,
    "-$": 18039,
    "▁neg": 3480,
    "▁beta": 21762,
    "asy": 8995,
    "م": 30159,
    "▁linked": 9024,
    "<0x4F>": 82,
    "ヤ": 31258,
    "▁skills": 25078,
    "▁Email": 22608,
    "ppi": 19788,
    "kv": 27049,
    "▁hold": 4808,
    "дения": 28161,
    "nig": 22234,
    "▁SQL": 3758,
    "decor": 19557,
    "▁hung": 18757,
    "gres": 7201,
    "plant": 24389,
    "▁frag": 13855,
    "▁purposes": 11976,
    "ця": 10264,
    "▁calculating": 25202,
    "▁gebru": 16685,
    "каде": 12832,
    "submit": 7892,
    "▁gewann": 17479,
    "▁vessel": 21239,
    "▁alta": 21352,
    "chter": 8255,
    "ļ": 31008,
    "▁essere": 10026,
    "▁français": 7691,
    "▁compan": 8119,
    "深": 31947,
    "bject": 1675,
    "about": 12717,
    "▁sets": 6166,
    "▁sitt": 24835,
    "pop": 7323,
    "']": 2033,
    "▁addressed": 20976,
    "▁Austin": 24518,
    "igh": 1141,
    "List": 1293,
    "accept": 16044,
    "?>": 17382,
    "▁ancient": 12297,
    "▁Christ": 2819,
    "▁Those": 16025,
    "▁Administration": 23303,
    "üsseld": 25646,
    "éal": 21659,
    "animation": 18962,
    "客": 31915,
    "andis": 23922,
    "ire": 533,
    "▁fired": 17285,
    "▁Stanis": 21585,
    "▁poc": 15341,
    "owo": 9616,
    ")}}": 21345,
    "▁curiosity": 27742,
    "dec": 7099,
    "▁weit": 11181,
    "lat": 5066,
    "▁ubuntu": 16338,
    "/{": 19248,
    "歌": 31173,
    "▁Однако": 24017,
    "ové": 13169,
    "男": 31203,
    "▁signing": 26188,
    "meister": 11331,
    "rés": 19199,
    "urls": 26045,
    "▁Ga": 10415,
    "▁amery": 26447,
    "▁\"(": 18227,
    "iele": 9152,
    "▁coming": 6421,
    "imes": 1355,
    "▁forms": 7190,
    "dependencies": 22594,
    "▁Query": 13641,
    "ști": 15700,
    "прав": 6842,
    "local": 2997,
    "▁twee": 15528,
    "현": 31680,
    "ionali": 21868,
    "▁Михай": 22421,
    "nehm": 25543,
    "mov": 13529,
    "<0x61>": 100,
    "▁CP": 28505,
    "stract": 4440,
    "ier": 631,
    "ห": 30663,
    "enger": 15109,
    "uttavia": 23208,
    "udi": 4749,
    "editor": 15204,
    "▁Männer": 29760,
    "▁bent": 26148,
    "legte": 29838,
    "▁waren": 6183,
    "▁Mut": 20749,
    "▁Bull": 20293,
    "▁Fle": 13859,
    "▁Trop": 21601,
    "▁schließ": 22273,
    "ldots": 7796,
    "OD": 13668,
    "▁pia": 26597,
    "▁compatible": 15878,
    "▁subsequent": 15352,
    "▁consulté": 27883,
    "англ": 6186,
    "▁Españ": 29046,
    "textt": 16196,
    "при": 7104,
    "կ": 30795,
    "▁conflic": 9476,
    "ood": 2092,
    "▁actors": 29701,
    "lá": 22867,
    "▁deren": 15286,
    "▁Correct": 28518,
    "Ù": 31078,
    "arias": 20225,
    "▁Zel": 27997,
    "▁ess": 3686,
    "▁responsible": 14040,
    "Library": 12284,
    "vd": 27491,
    "▁far": 2215,
    "museum": 25360,
    "break": 8690,
    "ŏ": 30476,
    "▁stuff": 6433,
    "▁rok": 28159,
    "▁prakt": 28683,
    "<<ST_330>>": 32330,
    "w": 29893,
    "▁quelle": 25178,
    "▁способ": 27876,
    "▁worn": 28043,
    "dev": 3359,
    "▁zich": 9834,
    "obierno": 14105,
    "▁cop": 5614,
    "`).": 12913,
    "\":{\"": 28819,
    "related": 12817,
    "▁Politik": 27622,
    "▁Arc": 22711,
    "▁proxy": 10166,
    "каз": 16602,
    "▁foundation": 22778,
    "▁tx": 25568,
    "<<ST_35>>": 32035,
    "▁використову": 26720,
    "▁Bedeutung": 22665,
    "reven": 27901,
    "manifest": 29135,
    "▁ricon": 26365,
    "セ": 30885,
    "mi": 2460,
    "▁Kra": 19387,
    "▁authors": 15717,
    "enas": 23509,
    "div": 4563,
    "▁Kenn": 13276,
    "alen": 10066,
    "unque": 11246,
    "▁principles": 18671,
    "▁Dennis": 27974,
    "▁{'": 11117,
    "面": 30806,
    "ый": 11767,
    "▁Problem": 11583,
    "anci": 8463,
    "▁recommended": 13622,
    "▁Serie": 15014,
    "employee": 26143,
    "▁accessed": 20592,
    "▁crowd": 19174,
    "ת": 30286,
    "akult": 26189,
    "▁donc": 12866,
    "▁gentlemen": 26703,
    "fig": 1003,
    "imar": 20232,
    "▁grandes": 13830,
    "▁def": 822,
    "▁François": 13645,
    "Rel": 9662,
    "Se": 2008,
    "large": 16961,
    "ñas": 27451,
    "▁Apache": 13380,
    "лер": 22565,
    "▁eye": 10977,
    "lst": 20155,
    "verkehr": 27271,
    "▁też": 16983,
    "ッ": 30317,
    "erek": 20400,
    "▁Hol": 4168,
    "▁angular": 6401,
    "oval": 10611,
    "compat": 12667,
    "▁puntos": 28780,
    "▁basic": 6996,
    "<0xDB>": 222,
    "тку": 14421,
    "フ": 30423,
    "<<ST_695>>": 32695,
    "seen": 28026,
    "ат": 12174,
    "▁y": 343,
    "†": 30087,
    "▁bot": 9225,
    "ulk": 24456,
    "▁influen": 13787,
    "▁Media": 8213,
    "▁examples": 6455,
    "ption": 683,
    "▁Horn": 19674,
    "édia": 13292,
    "个": 30502,
    "▁busy": 19587,
    "▁incorrectly": 29676,
    "ightarrow": 28142,
    "▁ases": 27985,
    "▁округа": 26042,
    "/:": 24676,
    "▁Tür": 25424,
    "▁percentage": 19649,
    "▁apps": 11446,
    "▁Program": 7835,
    "▁beiden": 13066,
    "=-": 10457,
    "▁conte": 21030,
    "ivi": 8107,
    "<0x16>": 25,
    "▁filling": 27523,
    "gov": 13513,
    "▁GB": 19289,
    "HL": 15444,
    "▁eux": 23778,
    "After": 13555,
    "▁Q": 660,
    "jango": 5364,
    "<0xCA>": 205,
    "rote": 4859,
    "<<ST_588>>": 32588,
    "Gesture": 24110,
    "question": 12470,
    "▁Director": 15944,
    "▁Marsh": 13216,
    "▁frequent": 17091,
    "tensorflow": 29056,
    "▁aim": 12242,
    "▁pent": 11137,
    "▁rejo": 19136,
    "▁<>": 15271,
    "▁musical": 9636,
    "ァ": 30897,
    "▁состав": 7923,
    "tto": 16461,
    "▁cas": 3209,
    "▁ange": 15725,
    "▁speed": 6210,
    "<0x5F>": 98,
    "зо": 4734,
    "▁Reb": 12936,
    "▁remaining": 9886,
    "▁Su": 2166,
    "▁sul": 5394,
    "uff": 3096,
    "WT": 17755,
    "ільки": 24949,
    "▁броја": 25564,
    "ńska": 27123,
    "оз": 29495,
    "▁Congo": 29723,
    "▁Bayern": 19584,
    "▁Assume": 22680,
    "expr": 13338,
    "▁party": 6263,
    "▁références": 11170,
    "▁genre": 16151,
    "▁datasets": 20035,
    "▁sing": 1809,
    "▁kept": 8126,
    "istema": 28474,
    "▁clusters": 24554,
    "keiten": 14027,
    "▁Marcel": 16633,
    "Ė": 31742,
    "▁figura": 27316,
    "fficiale": 15765,
    "tan": 13161,
    "▁Martin": 6502,
    "▁number": 1353,
    "▁delivery": 28289,
    "▁ii": 13607,
    "▁Kos": 17457,
    "sup": 12587,
    "▁Kör": 23722,
    "ili": 2638,
    "▁seasons": 20084,
    "days": 16700,
    "▁fas": 25995,
    "▁inside": 2768,
    "ilen": 17022,
    "▁Zach": 29103,
    "Vertex": 22479,
    "▁petite": 22577,
    "▁Constant": 28601,
    "▁chars": 22524,
    "▁`'": 16218,
    "лия": 9844,
    "▁surrounding": 18830,
    "ỳ": 31842,
    "urchase": 27574,
    "orem": 3668,
    "▁Tang": 27378,
    "ANCE": 23219,
    "▁ni": 6836,
    "inth": 22653,
    "<<ST_54>>": 32054,
    "▁gew": 5247,
    "pción": 27463,
    "uous": 17269,
    "Move": 16619,
    "▁Dí": 26777,
    "миче": 13584,
    "▁contained": 11122,
    "『": 31007,
    "▁faces": 17240,
    "ahl": 4494,
    "Sound": 29456,
    "▁Ein": 2694,
    "umm": 23824,
    "话": 31852,
    "Be": 3629,
    "nbsp": 14239,
    "ably": 2197,
    "▁Giuseppe": 18824,
    "iges": 13541,
    "▁white": 4796,
    "iony": 25295,
    "<0xB9>": 188,
    "▁{@": 26633,
    "▁czas": 15062,
    "▁Que": 5462,
    "▁nan": 23432,
    "▁wr": 2358,
    ".\")": 23157,
    "▁appear": 2615,
    "analysis": 15916,
    "urd": 18245,
    "▁scientific": 16021,
    "▁World": 2787,
    "▁obras": 20589,
    "tout": 24442,
    "▁substr": 25148,
    "▁rond": 24627,
    "picture": 12095,
    "webkit": 14085,
    "▁développement": 24305,
    "▁Med": 3436,
    "▁----": 23250,
    "▁coast": 12180,
    "▁spatial": 18652,
    "▁();": 27367,
    "ív": 13906,
    "hash": 8568,
    "<0xB2>": 181,
    "Uni": 8110,
    "Lower": 19357,
    "直": 31157,
    "▁alberga": 19441,
    "▁Mercur": 29389,
    "<0x9C>": 159,
    "Mask": 19832,
    "▁k": 413,
    "▁build": 2048,
    "়": 31552,
    "witz": 25709,
    "▁два": 11883,
    "▁trip": 17487,
    "▁Punk": 22723,
    "ി": 30387,
    "▁Sn": 22639,
    "▁верну": 27585,
    "▁Arten": 22335,
    "▁gouvernement": 17284,
    "▁unexpected": 15668,
    "▁sede": 17149,
    "▁Ingl": 27837,
    "▁holds": 8640,
    "▁repro": 28094,
    "assen": 11257,
    "▁Robinson": 22265,
    "▁gminy": 28613,
    "▁czerw": 21658,
    "▁nobles": 26784,
    "bu": 2423,
    "must": 21969,
    "▁operators": 12768,
    "▁principal": 5882,
    "jna": 27983,
    "êque": 26075,
    "▁helping": 19912,
    "▁Он": 16456,
    "ans": 550,
    "nth": 20800,
    "▁тер": 10539,
    "#,": 6552,
    "ateur": 7289,
    "▁основ": 8838,
    "▁Following": 12206,
    "▁intellect": 18715,
    "▁selenium": 18866,
    "▁kil": 4679,
    "oi": 7768,
    "▁India": 7513,
    "⊤": 31771,
    "▁игра": 13781,
    "Save": 11371,
    "▁Two": 7803,
    "▁notify": 26051,
    "ividual": 23352,
    ")}": 2915,
    "▁Cat": 10459,
    "▁abstra": 27086,
    "▁Sure": 18585,
    "▁województ": 25509,
    "▁Camer": 20939,
    "osten": 10935,
    "▁anx": 14919,
    "▁Exit": 25954,
    "▁_,": 17117,
    "▁packages": 9741,
    "▁első": 19251,
    "▁both": 1716,
    "ucht": 10236,
    "▁Bij": 20942,
    "▁Krist": 17773,
    "ulas": 15173,
    "▁Анд": 14988,
    "abile": 18119,
    "▁Think": 25086,
    "avano": 21310,
    "zza": 10177,
    "▁Fiche": 24918,
    "rugu": 18250,
    "lu": 6092,
    "▁single": 2323,
    "▁beginner": 26605,
    "▁agents": 19518,
    "▁subs": 11684,
    "ForKey": 23640,
    "▁strateg": 16650,
    "ße": 5831,
    "prim": 9469,
    "▁Kent": 13272,
    "▁Arbeit": 17561,
    "ŭ": 30520,
    "▁pelo": 10845,
    "]).": 14664,
    "ANGE": 24336,
    "▁Zum": 25174,
    "кти": 9054,
    "▁objects": 3618,
    "▁Init": 10886,
    "▁successfully": 8472,
    "▁prüfe": 21169,
    "fan": 12963,
    "▁prac": 16689,
    "▁водо": 20783,
    "─": 30091,
    "▁inglês": 21297,
    "▁Encyclopedia": 18791,
    "▁Mexican": 24777,
    "ков": 2530,
    "望": 31839,
    "▁restaurant": 27144,
    "▁interrupt": 23754,
    "ónica": 26316,
    "▁ј": 12887,
    "▁sulle": 28734,
    "<<ST_101>>": 32101,
    "▁maggiore": 26812,
    "INCT": 28852,
    "cala": 9256,
    "<0xA9>": 172,
    "dorf": 16360,
    "▁\\]": 11424,
    "▁Т": 1703,
    "▁Мекси": 10168,
    "onia": 6405,
    "<0xA2>": 165,
    "ederbörd": 12731,
    "▁esto": 18261,
    "міні": 21124,
    "▁Jak": 13669,
    "å": 30020,
    "hbox": 21368,
    "ActivityThread": 15746,
    "$}": 17133,
    "<<ST_681>>": 32681,
    "kadem": 13098,
    "▁evol": 15220,
    "<0xEE>": 241,
    "quit": 28358,
    "ungen": 2469,
    "▁quando": 9836,
    "enschaft": 7008,
    "▁Railway": 16795,
    "▁Bez": 14691,
    "th": 386,
    "▁liste": 13773,
    "points": 9748,
    "▁awk": 13689,
    "jure": 16465,
    "dz": 5601,
    "▁estim": 4844,
    "ató": 20062,
    "(|": 27204,
    "▁hol": 8753,
    "▁roi": 14100,
    "<<ST_261>>": 32261,
    "zen": 2256,
    "ят": 10691,
    "▁СССР": 12383,
    "▁got": 2355,
    "▁Dragon": 24339,
    "И": 30054,
    "▁NEW": 29091,
    "▁Gros": 28006,
    "jed": 11370,
    "▁MC": 21271,
    "ording": 3278,
    "sdl": 29222,
    "▁bod": 13004,
    "▁depuis": 8997,
    "agner": 18303,
    "atre": 6064,
    "▁For": 1152,
    "▁hid": 20552,
    "ucion": 28762,
    "ха": 3369,
    "<<ST_383>>": 32383,
    "▁Template": 25663,
    "бин": 24847,
    "▁CE": 14645,
    "Thread": 4899,
    "sizeof": 17921,
    "▁parenthes": 28076,
    "itzer": 13510,
    "▁Pas": 10043,
    "It": 3112,
    "rupted": 14214,
    "传": 31471,
    "▁authority": 14329,
    "т": 29932,
    "ba": 2291,
    "hill": 29131,
    "▁colonial": 25539,
    "▁grad": 4656,
    "▁Ви": 4491,
    "il": 309,
    "javax": 23357,
    "▁Rh": 7861,
    "ств": 2513,
    "ryty": 29157,
    "▁Buch": 10586,
    "▁exports": 29586,
    "ador": 3136,
    "Cam": 14353,
    "ową": 20855,
    "▁Mol": 10750,
    "▁sjö": 28364,
    "▁кре": 15798,
    "▁необ": 23842,
    "▁Germania": 26789,
    "▁management": 10643,
    "nal": 20809,
    "ragma": 23929,
    "▁mu": 3887,
    "▁Hir": 20417,
    "▁під": 6908,
    "fif": 28491,
    "▁Parse": 20969,
    "▁industry": 13661,
    "Subview": 26794,
    "▁apenas": 22321,
    "Outlet": 29377,
    "abeth": 9394,
    "▁supports": 11286,
    "▁linux": 10542,
    "csv": 7638,
    "▁Sach": 28944,
    "▁Labour": 29453,
    "▁varias": 24362,
    "▁suitable": 13907,
    "▁Ret": 4649,
    "▁Bh": 20303,
    "lay": 8387,
    "▁amb": 3181,
    "▁Bod": 19929,
    "ANG": 19453,
    "▁studied": 12399,
    "compare": 18307,
    "<0xDA>": 221,
    "Have": 25559,
    "▁vs": 7186,
    "鬼": 31820,
    "rayed": 25724,
    "▁Ernst": 15969,
    "▁Colors": 29183,
    "ordinates": 24266,
    "▁wenig": 28298,
    "▁britann": 14629,
    "ár": 3054,
    "▁Фи": 13038,
    "LIST": 24360,
    "ępu": 21917,
    "ropri": 6649,
    "▁Ski": 28551,
    "▁Ki": 16540,
    "Func": 14400,
    "central": 25171,
    "▁kill": 12088,
    "▁Ama": 11562,
    "riv": 1150,
    "▁selecting": 18851,
    "ugust": 2781,
    "▁совер": 28485,
    "VAL": 8932,
    "▁pool": 11565,
    "ira": 3055,
    "▁persone": 29116,
    "Constraints": 27427,
    "vers": 874,
    "лья": 21607,
    "ζ": 30460,
    "▁governor": 20221,
    "RECT": 26282,
    "▁représent": 17899,
    "<<ST_521>>": 32521,
    "ș": 30065,
    "▁virtuel": 19419,
    "ruct": 1247,
    "▁illustr": 8632,
    "▁knew": 6363,
    "uß": 5002,
    "▁Linked": 28547,
    "▁szeptember": 27191,
    "▁[]": 5159,
    "▁evaluate": 14707,
    "▁fault": 12570,
    "сно": 9627,
    "execute": 7978,
    "ales": 2122,
    "▁meat": 27654,
    "$:": 21063,
    "<0x20>": 35,
    "▁slope": 24968,
    "Sidenote": 28030,
    "Stage": 27276,
    "▁Mart": 3760,
    "ős": 14773,
    "▁zat": 29052,
    "mes": 4467,
    "Pop": 12310,
    "▁Pale": 26412,
    "▁everywhere": 16978,
    "bbi": 14663,
    "annels": 12629,
    "▁mem": 2626,
    "gems": 11900,
    "ander": 3825,
    "▁mij": 25262,
    "▁colle": 23056,
    "Д": 30032,
    "▁singles": 22102,
    "Find": 12542,
    "loading": 13234,
    "<0xA4>": 167,
    "▁Austral": 4648,
    "▁grav": 8310,
    "обра": 15124,
    "▁wait": 4480,
    "▁quel": 7594,
    "<<ST_688>>": 32688,
    "▁seek": 16508,
    "chten": 12385,
    "▁aix": 23609,
    "UILD": 25282,
    "Date": 2539,
    "<<ST_301>>": 32301,
    "▁versione": 26670,
    "▁parts": 5633,
    "▁регі": 29084,
    "SET": 10490,
    "стор": 13278,
    "looking": 23261,
    "▁word": 1734,
    "lar": 4675,
    "▁Joan": 19317,
    "unge": 19440,
    "▁sang": 13625,
    "▁infinity": 27971,
    "▁Lanc": 24994,
    "▁miejs": 8786,
    "▁carrying": 19436,
    "ћи": 16765,
    "▁kyr": 28164,
    "▁problemas": 29726,
    "ints": 9466,
    "▁ft": 11791,
    "ye": 4099,
    "▁swift": 12086,
    "إ": 30754,
    "нци": 11754,
    "<<ST_644>>": 32644,
    "▁headers": 9066,
    "▁Append": 22871,
    "▁ми": 4157,
    "▁brick": 28645,
    "PASS": 25711,
    "VERSION": 16358,
    "▁flush": 28371,
    "п": 29964,
    "▁imply": 22366,
    "▁exper": 2902,
    "бі": 7986,
    "missing": 27259,
    "<<ST_753>>": 32753,
    "ható": 26741,
    "ribución": 24903,
    "▁stock": 10961,
    "atom": 8678,
    "iszt": 26409,
    "▁são": 12777,
    "▁consistent": 13747,
    "ván": 20137,
    "▁noch": 5440,
    "ula": 2497,
    "ijn": 3263,
    "<<ST_650>>": 32650,
    "▁became": 3897,
    "slice": 18337,
    "▁prisoner": 27314,
    "▁Suppose": 12142,
    "гор": 17310,
    "<0xD4>": 215,
    "▁motiv": 17385,
    "nodes": 18010,
    "▁Other": 5901,
    "▁bearing": 24638,
    "cha": 5815,
    "▁By": 2648,
    "▁material": 5518,
    "ucky": 14395,
    "▁finish": 8341,
    "Power": 21472,
    "▁Compet": 24620,
    "bráz": 21437,
    "roe": 26968,
    "master": 6207,
    "▁cou": 3581,
    "gradient": 24970,
    "▁Kin": 20311,
    "}})": 24289,
    "▁holes": 26532,
    "▁début": 13222,
    "рук": 11218,
    "▁videos": 19707,
    "Mapper": 19968,
    "ww": 1615,
    "▁клу": 10833,
    "▁pas": 2331,
    "<<ST_440>>": 32440,
    "▁vor": 3764,
    "general": 17492,
    "▁abc": 25638,
    "▁Zwe": 9647,
    "zeichnis": 29326,
    "рах": 16352,
    "▁faire": 9073,
    "▁\\|": 12926,
    "▁simplest": 20393,
    "▁Griff": 22990,
    "դ": 31387,
    "▁Seg": 6667,
    "setText": 12038,
    "▁Linki": 17331,
    "▁SA": 16698,
    "fish": 15161,
    "<<ST_488>>": 32488,
    "▁boot": 6579,
    "▁attr": 12421,
    "▁Bapt": 23759,
    "▁localhost": 15683,
    "<0xE0>": 227,
    "▁stack": 5096,
    "жива": 13204,
    "_{": 648,
    "områ": 12769,
    "batch": 16175,
    "남": 31754,
    "<<ST_745>>": 32745,
    "*(": 16395,
    "▁historian": 27629,
    "▁Collegamenti": 7764,
    "▁competition": 13888,
    "▁enumer": 22447,
    "▁BR": 25185,
    "ág": 4064,
    "▁disse": 29340,
    "▁prison": 8475,
    "▁}).": 22719,
    "▁Bun": 27105,
    "вен": 12638,
    "isz": 16399,
    "▁DR": 26900,
    "pur": 15503,
    "beeld": 26366,
    "▁manual": 12219,
    "teger": 4126,
    ">\\": 14247,
    "▁Control": 11264,
    "▁avo": 26580,
    "ן": 30447,
    "oint": 2461,
    "▁indexes": 18111,
    "ěl": 16940,
    "▁Archivado": 8806,
    "sourceforge": 28315,
    "Scal": 29636,
    "agy": 6485,
    "▁Property": 9079,
    "bara": 13839,
    "▁default": 2322,
    "▁aux": 3479,
    "ostream": 18123,
    "བ": 31326,
    "ouw": 7100,
    "▁Ok": 3674,
    "ft": 615,
    "urr": 1038,
    "торы": 5090,
    "Sym": 25548,
    "▁House": 5619,
    "▁faith": 10847,
    "▁blob": 23755,
    "<0xAA>": 173,
    "Short": 21322,
    "▁étant": 19154,
    "distribution": 27691,
    "Action": 4276,
    "ault": 1292,
    "▁ferm": 16895,
    "▁deutsch": 4795,
    "<0x94>": 151,
    "<>();": 27258,
    "ospital": 8189,
    "▁Git": 11786,
    "▁recre": 28709,
    "napshot": 14551,
    "ར": 31232,
    "lando": 28514,
    "▁third": 4654,
    "▁савезној": 18051,
    "▁Person": 5196,
    "▁@": 732,
    "▁mais": 3503,
    "andal": 24258,
    "▁ву": 18270,
    "▁kam": 9286,
    "▁Flag": 28697,
    "ceed": 3947,
    "▁vida": 10828,
    "▁socket": 9909,
    "istik": 27013,
    "ächen": 29523,
    "ável": 28691,
    "athon": 25206,
    "pdf": 5140,
    "omp": 21744,
    "okat": 18489,
    "Р": 30027,
    "▁debug": 4744,
    "iffe": 11540,
    "<<ST_546>>": 32546,
    "ờ": 30997,
    ")){": 18840,
    "]{\\": 21545,
    "nothing": 28450,
    "<<ST_293>>": 32293,
    "    ": 17891,
    "Wrapper": 15646,
    "Dispatch": 14777,
    "▁marine": 23585,
    "▁ga": 10364,
    "▁aufgrund": 25670,
    "Option": 8375,
    "▁bits": 9978,
    "▁attached": 10959,
    "Г": 30040,
    "▁nak": 23349,
    "▁matrix": 4636,
    "TIME": 15307,
    "▁komt": 23159,
    "▁Una": 12127,
    "']))": 25901,
    "▁Re": 830,
    "ic": 293,
    "▁†": 6700,
    "brand": 16472,
    "▁insp": 8681,
    "port": 637,
    "▁mě": 11450,
    "<<ST_190>>": 32190,
    "▁Daily": 23331,
    "getting": 29264,
    "▁pressure": 12959,
    "SU": 14605,
    "▁dropped": 13700,
    "▁Mess": 11946,
    "▁Schweizer": 20320,
    "сло": 15391,
    "▁decision": 10608,
    "▁tek": 20996,
    "▁dispatch": 13916,
    "oking": 17223,
    "▁villages": 18481,
    "▁detected": 17809,
    "irable": 27797,
    "▁мет": 17194,
    "군": 31699,
    "▁ze": 3777,
    "▁integral": 10160,
    "ajax": 6538,
    "▁Japanese": 10369,
    "achsen": 14145,
    "go": 1484,
    "▁separation": 23683,
    "union": 13094,
    "▁Reino": 25067,
    "▁IDs": 23481,
    "stag": 24403,
    "▁Sachsen": 23783,
    "▁Bog": 15872,
    "mathfrak": 7237,
    "plots": 26762,
    "onces": 17330,
    "isé": 11728,
    "%.": 15543,
    "▁engaged": 17785,
    "ACTION": 24705,
    "▁gcc": 20243,
    "<<ST_524>>": 32524,
    "fers": 25534,
    "<<ST_757>>": 32757,
    "▁Archive": 9000,
    "▁anys": 15558,
    "˜": 31793,
    "Во": 27129,
    "▁great": 2107,
    "etailed": 11881,
    "▁Sohn": 15148,
    "▁Good": 7197,
    "▁injured": 28606,
    "▁historical": 15839,
    "▁работы": 24534,
    "rif": 9710,
    "▁homme": 14738,
    "тка": 19972,
    "FAULT": 13274,
    "Atlas": 27753,
    "▁visible": 7962,
    "<0xE7>": 234,
    "<'": 26717,
    "局": 31655,
    "▁surrounded": 22047,
    "▁rug": 29833,
    "▁vista": 21225,
    "<0xB5>": 184,
    "▁São": 12281,
    "▁fra": 5227,
    "amarin": 18257,
    "▁progetti": 7188,
    "<<ST_504>>": 32504,
    "▁Flora": 23267,
    "▁fighting": 17770,
    "▁sess": 27937,
    "▁exha": 18782,
    "eded": 19226,
    "avor": 17118,
    "▁Vis": 5741,
    "▁anom": 29342,
    "msg": 7645,
    "aye": 15802,
    "▁[[": 5519,
    "▁fmt": 19200,
    "TA": 6040,
    "▁'./": 19283,
    "해": 31435,
    "ächt": 26704,
    "▁ther": 29220,
    "▁previous": 3517,
    "▁dalla": 7286,
    "▁charset": 17425,
    "▁Einwo": 14429,
    "▁Pla": 13494,
    "▁courses": 21888,
    "▁too": 2086,
    "▁behave": 23389,
    "Internet": 26341,
    "abling": 17961,
    "▁placed": 7180,
    "▁palace": 24369,
    "▁\\": 320,
    "wing": 16958,
    "▁Russian": 10637,
    "▁généra": 16805,
    "<<ST_559>>": 32559,
    "▁Dak": 22679,
    "▁din": 4538,
    "▁Fa": 7748,
    "▁erg": 23682,
    "▁столі": 29526,
    "▁ba": 9922,
    "лена": 14275,
    "▁köz": 7591,
    "▁polynomials": 24655,
    "stackoverflow": 2417,
    "olean": 4132,
    ":(": 5919,
    "▁queue": 9521,
    "▁Malays": 26417,
    "ples": 2701,
    "▁Census": 20121,
    "Native": 11024,
    "isce": 17438,
    "▁Sunday": 16340,
    "▁accordingly": 16205,
    "▁kir": 18990,
    "ás": 1569,
    "$.": 1504,
    "▁producing": 20811,
    "ه": 30204,
    "▁Clement": 26769,
    "▁tort": 16263,
    "▁very": 1407,
    "Cy": 29733,
    "▁альбо": 25805,
    "▁fins": 16449,
    "▁ні": 15940,
    "▁Ray": 9596,
    "ful": 1319,
    "▁Nova": 16216,
    "▁hoch": 27568,
    "▁legs": 21152,
    "▁Period": 29498,
    "▁vesc": 28293,
    "▁Barb": 21826,
    "▁Sep": 29639,
    "▁Touch": 28675,
    "▁«": 859,
    "ients": 10070,
    "▁horizontal": 14698,
    "ages": 1179,
    "▁mater": 15875,
    "만": 31826,
    "ientras": 15054,
    "▁artists": 17906,
    "▁dollars": 17208,
    "ª": 30135,
    "geo": 24756,
    ".--": 7703,
    "/>": 3779,
    "▁immer": 14761,
    "▁someone": 4856,
    "<<ST_240>>": 32240,
    "awn": 18101,
    "▁XII": 17172,
    "itor": 2105,
    "Om": 5673,
    "▁Name": 4408,
    "▁sketch": 21256,
    "▁estat": 21565,
    "rí": 19177,
    "▁Prom": 9705,
    "times": 3706,
    "kehr": 10455,
    "▁details": 4902,
    "∇": 31837,
    "▁контра": 28415,
    "матиче": 24522,
    "ady": 3714,
    "▁Off": 5947,
    "▁Apol": 28017,
    "inflate": 26512,
    "so": 578,
    "▁topology": 20159,
    "▁protocol": 9608,
    "hr": 1092,
    "▁bor": 9820,
    "▁situ": 2990,
    "▁invariant": 22619,
    "phon": 17607,
    "ights": 5861,
    "▁Rhein": 19009,
    "▁assault": 29159,
    "▁вопро": 29309,
    "illé": 23589,
    "▁wra": 11463,
    "▁kl": 9489,
    "archive": 10867,
    "tx": 7508,
    "<0xA0>": 163,
    "▁Gree": 18438,
    "▁Africa": 10557,
    "▁Ma": 3219,
    "▁Stack": 10292,
    "▁eind": 23561,
    "▁chart": 8727,
    "▁gradient": 16030,
    "▁bý": 24964,
    "etch": 3486,
    "ssh": 15269,
    "ylvan": 13431,
    "▁trad": 3534,
    "road": 9972,
    "▁Го": 7391,
    "▁wird": 4296,
    "▁este": 4404,
    "Points": 20325,
    "gry": 14793,
    "▁saves": 27401,
    "▁transparent": 17772,
    "<0xE6>": 233,
    "ym": 962,
    "真": 30848,
    "▁Had": 14302,
    "▁Carol": 8562,
    "▁▁▁": 1678,
    "▁Begin": 14893,
    "ierra": 11617,
    "бора": 23243,
    "has": 5349,
    "nie": 2786,
    "token": 6979,
    "near": 28502,
    "▁Inst": 2799,
    "ampio": 22674,
    "orph": 5676,
    "Interceptor": 24923,
    "ał": 2275,
    "etten": 25864,
    "▁Tour": 6371,
    "SHA": 23498,
    "<0x15>": 24,
    "reek": 7285,
    "▁largely": 18425,
    "tor": 7345,
    "▁slider": 23889,
    "▁adapt": 7744,
    ".).": 6250,
    "SERVER": 18603,
    "▁Heaven": 22977,
    "▁exc": 5566,
    "mic": 13076,
    "宮": 31004,
    "edy": 7584,
    "▁preview": 25267,
    "<0xFA>": 253,
    "▁bev": 21329,
    "▁illustrated": 26848,
    "<<ST_18>>": 32018,
    "<<ST_74>>": 32074,
    "▁Shin": 27948,
    "ach": 496,
    "лет": 13174,
    "▁Assembly": 13266,
    ")+\\": 20843,
    "▁Disney": 17944,
    "▁let": 1235,
    "keit": 6239,
    "вой": 11318,
    "lop": 4757,
    "▁rencontre": 26186,
    "<<ST_612>>": 32612,
    "▁duty": 13360,
    "▁Quellen": 25573,
    "insert": 7851,
    "/#": 8484,
    "▁constru": 6787,
    "▁geometric": 26224,
    "▁på": 3548,
    "aving": 5555,
    "▁ner": 26033,
    "▁ns": 17534,
    "▁Wood": 10180,
    "iae": 23395,
    "▁Cho": 14542,
    "▁mainten": 16134,
    "atar": 14873,
    "root": 4632,
    "▁allem": 11034,
    "按": 31590,
    "atge": 26775,
    "▁Нор": 28664,
    "▁década": 22685,
    "▁estable": 19692,
    "support": 5924,
    "xy": 3594,
    "Z": 29999,
    "rach": 10221,
    "▁font": 4079,
    "uden": 27336,
    "▁sier": 21258,
    "isto": 5137,
    "І": 30090,
    "▁HD": 18435,
    "ategor": 20440,
    "ják": 28843,
    "▁recording": 16867,
    "▁Due": 16809,
    "▁персона": 27485,
    "▁интер": 25827,
    "{}": 8875,
    "erde": 11776,
    "▁Minister": 7668,
    "ше": 2237,
    "uda": 6191,
    "<<ST_24>>": 32024,
    "po": 1129,
    "ད": 31344,
    "heits": 25714,
    "enc": 3977,
    "▁divine": 25616,
    "▁Ltd": 19806,
    "plugin": 8582,
    "▁Alfred": 12299,
    "▁earned": 20591,
    "q": 29939,
    "▁reward": 20751,
    "ög": 6922,
    "guard": 17728,
    "enes": 25487,
    "LOC": 16652,
    "▁capture": 10446,
    "▁Err": 25361,
    "…": 30098,
    "▁assemble": 24940,
    "▁interess": 26636,
    "▁-": 448,
    "rá": 6135,
    "▁sends": 16003,
    "attung": 24758,
    "opher": 13434,
    "▁termin": 6624,
    "▁entra": 17424,
    "▁dam": 5625,
    "▁experiments": 15729,
    "пло": 17401,
    "▁next": 2446,
    "genommen": 21096,
    "▁vio": 28008,
    "▁xx": 15473,
    "ম": 31006,
    "▁dor": 16630,
    "▁Lau": 25092,
    "▁%": 1273,
    "사": 30791,
    "ilar": 2327,
    "compos": 22410,
    "ского": 2717,
    "▁batter": 10193,
    "вши": 6687,
    "▁g": 330,
    "▁hect": 28834,
    "▁RAM": 18113,
    "är": 1215,
    "▁conject": 25466,
    "<<ST_366>>": 32366,
    "▁hill": 17306,
    "▁cla": 3711,
    "zn": 3749,
    "ppy": 23717,
    "▁records": 6475,
    "▁Mouse": 25992,
    "▁XP": 28932,
    "▁externos": 8795,
    "seg": 10199,
    "ention": 2509,
    "licated": 9169,
    "▁цент": 8410,
    "▁dal": 2959,
    "▁persist": 24379,
    "idd": 2205,
    "阿": 31227,
    "izon": 18162,
    "▁bought": 18093,
    "▁uz": 27296,
    "Donald": 28080,
    "cent": 1760,
    "▁victory": 15354,
    "▁entity": 7855,
    "querySelector": 18825,
    "▁sino": 22426,
    "▁otras": 16255,
    "ército": 18487,
    "ky": 3459,
    "わ": 31068,
    "cloud": 9274,
    "länd": 16442,
    "▁format": 3402,
    "▁степени": 27781,
    "無": 31209,
    "ruck": 10857,
    "read": 949,
    "▁syn": 5222,
    "they": 19562,
    "▁Lost": 25133,
    "werk": 9888,
    "Cre": 9832,
    "▁этот": 28029,
    "▁Een": 16883,
    "IA": 10764,
    "▁ignored": 17262,
    ")}$": 15604,
    "Forms": 12605,
    "▁seats": 22091,
    "<0x58>": 91,
    "log": 1188,
    "▁rolling": 27777,
    "▁Archiv": 5522,
    "Desktop": 17600,
    "().": 2141,
    "O": 29949,
    "김": 31102,
    "Dictionary": 11513,
    "▁lake": 19437,
    "urn": 595,
    "▁defeated": 16235,
    "foreach": 13150,
    "▁raison": 18836,
    "Я": 30096,
    "▁demsel": 19539,
    "▁Ur": 8918,
    "▁ре": 1909,
    "▁In": 512,
    "voj": 17521,
    "training": 26495,
    "▁titolo": 22147,
    "wagen": 23702,
    "▁Jahrhunderts": 17358,
    "▁poz": 14079,
    "fahr": 18693,
    "▁Hon": 7906,
    "▁recensement": 25650,
    "зов": 11337,
    "▁круп": 22089,
    "▁público": 23792,
    "omini": 26621,
    "citet": 17112,
    "▁PC": 9609,
    "lb": 27728,
    "arith": 23830,
    "▁varchar": 15236,
    "жить": 27359,
    "▁gek": 14865,
    "▁fresh": 10849,
    "alet": 9457,
    "▁Baud": 29859,
    "식": 31895,
    "rum": 5848,
    "▁Age": 16767,
    "湖": 31496,
    "▁updating": 13271,
    "гро": 25938,
    "--------": 1378,
    "▁peut": 8164,
    "WH": 25039,
    "▁ř": 19307,
    "fol": 4542,
    "▁independent": 7417,
    "следова": 12153,
    "▁Éditions": 23140,
    "Tags": 28089,
    "ع": 30218,
    "<<ST_400>>": 32400,
    "▁amaz": 21863,
    "ques": 1912,
    "lassen": 19146,
    "bernate": 7549,
    "Delay": 24996,
    "/-": 24028,
    "layer": 13148,
    "für": 18214,
    "пример": 25390,
    "▁Cro": 8764,
    "▁Bibliographie": 17994,
    "преде": 16143,
    "▁flying": 22764,
    "助": 31931,
    "acions": 17249,
    "▁gard": 17161,
    "▁ID": 3553,
    "ra": 336,
    "ови": 1928,
    "▁aligned": 26118,
    "Autres": 27932,
    "▁veget": 18655,
    "▁cried": 10680,
    "▁Praha": 25689,
    "bc": 12328,
    "кон": 6587,
    "▁Volk": 26071,
    "▁Crit": 15976,
    "<<ST_183>>": 32183,
    "Google": 14207,
    "ural": 3631,
    "▁pil": 8230,
    "▁amet": 27315,
    "TW": 16240,
    "Ang": 9928,
    "dim": 6229,
    "▁mellan": 28394,
    "▁on": 373,
    "Your": 10858,
    "▁Clar": 15183,
    "▁Part": 3455,
    "▁szerint": 26174,
    "eness": 18543,
    "▁fan": 13524,
    "radio": 13399,
    "ziale": 28351,
    "▁společ": 28346,
    "▁Herz": 12905,
    "▁dx": 15414,
    "▁Lü": 24123,
    "▁hes": 19066,
    "▁Poss": 29863,
    "ാ": 30468,
    "▁docker": 10346,
    "{\\": 741,
    "sers": 4253,
    "áct": 18343,
    "Sil": 26729,
    "▁definition": 5023,
    "ɾ": 30542,
    "<0x0A>": 13,
    "ionen": 17725,
    "stringify": 22070,
    "tick": 24667,
    "material": 15388,
    "▁corner": 11155,
    "▁mayoría": 26960,
    "▁Rolle": 24762,
    "▁dy": 13475,
    "▁Password": 25280,
    "шой": 27457,
    "▁sin": 4457,
    "▁ram": 13472,
    "▁share": 6232,
    "▁Rav": 28093,
    "▁sociale": 25881,
    "hs": 9499,
    "akt": 5867,
    "vo": 1365,
    "LEASE": 14063,
    "ésie": 29831,
    "▁immense": 29403,
    "zig": 8923,
    "PE": 4162,
    "▁welche": 19526,
    "▁mezi": 28781,
    "ère": 1908,
    "ね": 31684,
    "▁Cross": 11189,
    "aque": 19772,
    "▁novembre": 7005,
    "▁Wein": 26331,
    "ási": 23884,
    "progress": 18035,
    "ità": 3943,
    "▁versión": 18648,
    "▁once": 2748,
    "교": 31972,
    "▁geometry": 16303,
    "▁éx": 28125,
    "▁storing": 15446,
    "inos": 8226,
    "Mus": 14958,
    "▁Everything": 17296,
    "<<ST_213>>": 32213,
    "▁vague": 25160,
    "▁flows": 24536,
    "▁spectrum": 18272,
    "▁Вер": 12850,
    "J": 29967,
    "LOAD": 29428,
    "▁кан": 20247,
    "kunft": 27488,
    "çaise": 10334,
    "ates": 1078,
    "ewnętrz": 14755,
    "agit": 23121,
    "Mich": 14916,
    "▁Hills": 24128,
    "▁Между": 28064,
    "dob": 11152,
    "▁my": 590,
    "ом": 9530,
    "▁wounded": 19747,
    "▁соб": 21291,
    "▁pero": 7046,
    "<<ST_462>>": 32462,
    "ḷ": 31802,
    "Err": 19212,
    "Ă": 31468,
    "▁Comp": 3831,
    "ského": 18810,
    "▁último": 20195,
    "▁required": 3734,
    "gen": 1885,
    "▁asym": 16936,
    "▁Nar": 16080,
    "ord": 536,
    "üst": 22548,
    "▁TRUE": 15676,
    "}$,": 4429,
    "▁Sank": 28912,
    "▁diagn": 24876,
    "▁bet": 1010,
    "▁FF": 21379,
    "▁Engel": 29167,
    "[@": 17548,
    "arca": 23372,
    "IMARY": 24480,
    "▁largest": 10150,
    "▁divide": 16429,
    "alous": 20521,
    "系": 31185,
    "▁obten": 16219,
    "bec": 19385,
    "▁Од": 29770,
    "▁runat": 19728,
    "▁/**": 7762,
    "▁Size": 21179,
    "▁sc": 885,
    "schaften": 12627,
    "вар": 10912,
    "▁downloaded": 16532,
    "Pal": 18210,
    "ких": 5736,
    "▁spole": 25823,
    "▁signal": 7182,
    "▁moral": 14731,
    "provider": 18121,
    "ît": 13871,
    "Push": 27031,
    "By": 2059,
    "Tasks": 26249,
    "stre": 13045,
    "▁Ear": 5290,
    "▁бы": 2188,
    "Product": 7566,
    "JSON": 7249,
    "▁zawod": 25425,
    "ALL": 9818,
    "英": 31144,
    "ŝ": 31805,
    "фициаль": 16364,
    "icon": 4144,
    "бран": 25567,
    "▁tit": 4329,
    "design": 13892,
    "boy": 19415,
    "ﬁ": 31017,
    "orr": 25891,
    "widget": 8030,
    "▁jump": 12500,
    "rola": 18789,
    "▁Świ": 29283,
    "1": 29896,
    "Austral": 22537,
    "angu": 2375,
    "ingers": 19936,
    "yo": 9029,
    "▁tout": 5646,
    "ходить": 23368,
    "gmail": 21980,
    "ków": 15396,
    "▁oh": 9360,
    "和": 30503,
    "▁medic": 13589,
    "▁ggplot": 25662,
    "▁віці": 28791,
    "▁уз": 26008,
    "▁review": 9076,
    "▁indust": 6397,
    "ommun": 7386,
    "▁paused": 28454,
    "▁zweite": 27454,
    ">{": 26208,
    "▁exemple": 17488,
    "ums": 6762,
    "ë": 30083,
    "▁recogn": 5936,
    "öh": 19213,
    "engen": 26955,
    "тор": 2374,
    "▁elementary": 22470,
    "▁remov": 4030,
    "▁česk": 21270,
    "▁Articles": 12952,
    "结": 31320,
    "▁gross": 22683,
    "▁prot": 17512,
    "tel": 28497,
    "tail": 18237,
    "──": 8539,
    "iques": 3783,
    "érez": 25138,
    "▁traverse": 29370,
    "▁rum": 16558,
    "▁hun": 9074,
    "endorf": 21466,
    "▁Italien": 23977,
    "Å": 30129,
    "▁keys": 6611,
    "<<ST_579>>": 32579,
    "▁територ": 25336,
    "▁produz": 23775,
    "<<ST_613>>": 32613,
    "▁Nederlandse": 25004,
    "▁fils": 14560,
    "ක": 31865,
    "▁Ald": 18242,
    "acu": 22061,
    "jos": 14736,
    "▁Angel": 17323,
    "▁promises": 27584,
    "Watch": 24709,
    "istent": 9696,
    "▁Vue": 22518,
    "<<ST_623>>": 32623,
    "▁świat": 27713,
    "▁facts": 17099,
    "inn": 2559,
    "⊂": 31550,
    "odio": 16057,
    "▁fri": 3484,
    "она": 2953,
    "вод": 8160,
    "▁Mare": 21678,
    "GA": 12739,
    "▁Ign": 18076,
    "bm": 5838,
    "geordnet": 20557,
    "силання": 13043,
    "Receiver": 22068,
    "wär": 20253,
    "leveland": 26326,
    "▁russ": 17626,
    "▁pros": 10791,
    "▁стан": 5151,
    "enu": 4814,
    "▁Window": 18379,
    "▁hr": 22157,
    "▁deep": 6483,
    "▁certains": 23563,
    ">": 29958,
    "<<ST_325>>": 32325,
    "▁Sü": 17110,
    "▁crime": 17268,
    "▁MO": 16999,
    "Visible": 12911,
    "▁LO": 11247,
    "▁fant": 13568,
    "<<ST_510>>": 32510,
    "▁IIS": 19093,
    "<<ST_591>>": 32591,
    "<<ST_316>>": 32316,
    "jection": 6929,
    "<<ST_421>>": 32421,
    "watch": 12344,
    "▁ik": 12380,
    "iga": 4324,
    "▁aby": 24475,
    "▁Akadem": 16989,
    "ByVal": 26918,
    "ioso": 27864,
    "threads": 28993,
    "▁environment": 5177,
    "REQUEST": 16244,
    "BB": 14388,
    "▁фо": 17767,
    "▁médec": 25974,
    "рал": 12454,
    "▁Technology": 17968,
    "ние": 1755,
    "aturing": 19021,
    "▁EXISTS": 28731,
    "ife": 1607,
    "ebook": 19273,
    "▁initial": 2847,
    "▁Background": 16585,
    "Mutable": 15211,
    "▁mi": 3737,
    "OF": 9800,
    "▁Random": 16968,
    "prob": 22795,
    "▁successor": 29433,
    "<0x05>": 8,
    "▁Via": 23306,
    "  ": 8655,
    "▁devoted": 24600,
    "лог": 15157,
    "oto": 3747,
    "ído": 27806,
    "▁Wiener": 27301,
    "▁Ri": 21710,
    "illi": 12840,
    "▁ls": 19375,
    "<<ST_467>>": 32467,
    "{{\\": 16195,
    "ells": 10071,
    "tbody": 15370,
    "<<ST_738>>": 32738,
    "▁DVD": 15191,
    "Os": 24768,
    "▁Woj": 17404,
    "▁conference": 21362,
    "▁painted": 23139,
    "▁Та": 5238,
    "ames": 1280,
    "sections": 27117,
    "<0xEA>": 237,
    "▁tard": 11364,
    "bmatrix": 14324,
    "schnitt": 19564,
    "▁spent": 10398,
    "ž": 30044,
    "phy": 11461,
    "<<ST_589>>": 32589,
    "лів": 14449,
    "▁satisfy": 15523,
    "Constraint": 21529,
    "bis": 18809,
    "▁sic": 24801,
    "Render": 10716,
    "该": 31751,
    "▁перед": 17702,
    "▁junior": 20183,
    "▁Quebec": 27605,
    "}_": 2403,
    "▁Perhaps": 11637,
    "▁Cast": 4834,
    "odor": 17606,
    "mysqli": 23727,
    "▁XIX": 10634,
    "слі": 15487,
    "\"/": 23901,
    "▁служ": 17746,
    "pine": 26215,
    "写": 31479,
    "frame": 2557,
    "▁preced": 9399,
    "osta": 16233,
    "▁северо": 28113,
    "ְ": 30590,
    "мого": 19370,
    "management": 21895,
    "▁rise": 14451,
    "Ґ": 30268,
    "ranch": 4014,
    "starts": 27382,
    "ätten": 29322,
    "onto": 10268,
    "▁convex": 18635,
    "anted": 9714,
    "▁пер": 4651,
    "▁Senator": 27623,
    "¼": 30515,
    "ponent": 3296,
    "▁proc": 9580,
    "emark": 24212,
    "▁zw": 5263,
    "▁profes": 13091,
    "▁Tree": 15472,
    "▁projection": 18246,
    "▁acc": 1035,
    "▁ves": 28999,
    "▁Википедии": 19614,
    "電": 31385,
    "ња": 10473,
    "▁kommt": 21848,
    "▁sup": 13159,
    "▁info": 5235,
    "▁^": 6228,
    "<<ST_28>>": 32028,
    "▁conf": 1970,
    "abeled": 24025,
    "▁suit": 14726,
    "<0x5D>": 96,
    "egründ": 15881,
    "▁uniqu": 20498,
    "▁projekt": 27213,
    "▁uno": 6888,
    "ül": 6001,
    "▁increasing": 10231,
    "itory": 5047,
    "▁images": 4558,
    "agna": 15713,
    "▁hier": 6128,
    "łuż": 22952,
    "▁vě": 20780,
    "equals": 10954,
    "IAL": 25758,
    "jus": 18597,
    "▁Chr": 18608,
    "long": 5426,
    "▁Jegyzetek": 24029,
    "<<ST_338>>": 32338,
    "▁Slov": 22250,
    "▁Amerika": 19597,
    "сер": 14315,
    "iously": 17365,
    "▁suffix": 25557,
    "▁Secretary": 17719,
    "complete": 8835,
    "▁mez": 18911,
    "edom": 11607,
    "▁Academy": 10355,
    "▁impl": 13374,
    "▁Lis": 15285,
    "▁Miss": 4750,
    "▁redis": 29825,
    "ལ": 31705,
    "▁forgotten": 20898,
    "▁Soviet": 15308,
    "▁Resol": 24062,
    "▁gemäß": 17922,
    "▁Sch": 1102,
    "oggle": 9804,
    "▁Howard": 17430,
    "▁trabal": 19739,
    "$)": 10931,
    "▁coordin": 6615,
    "▁Polsce": 24411,
    "▁Furthermore": 16478,
    "▁fat": 9950,
    "icole": 23249,
    "rage": 6617,
    "▁thread": 3244,
    "<<ST_586>>": 32586,
    "▁siguientes": 29673,
    "image": 3027,
    "▁balls": 26563,
    "ブ": 30582,
    "▁Millionen": 26158,
    "▁писа": 16851,
    "▁Jap": 4407,
    "▁revealed": 17845,
    "▁schw": 25184,
    "▁Federal": 14879,
    "▁різ": 24908,
    "▁regiment": 23058,
    "▁вз": 25505,
    "cers": 22543,
    "▁május": 26457,
    "ilder": 2700,
    "▁ships": 13968,
    "ouverneur": 27235,
    "▁Ott": 13476,
    "▁men": 1757,
    "▁Philadelphia": 18292,
    "theless": 16561,
    "▁russe": 28280,
    "wiąz": 19652,
    "cian": 28445,
    "Kind": 11885,
    "▁territ": 5884,
    "₇": 30284,
    "▁collect": 6314,
    "▁kr": 12920,
    "▁(„": 20391,
    "▁Bin": 27662,
    "ativ": 1926,
    "Git": 28712,
    "Compat": 14644,
    "▁anth": 24612,
    "▁Ash": 12835,
    "▁Chem": 12677,
    "nad": 28486,
    "▁seva": 11111,
    "▁rapidly": 19328,
    "ested": 2868,
    "wel": 20466,
    "social": 24911,
    "▁ass": 1223,
    "▁dynam": 4292,
    "iverse": 12193,
    "▁influence": 9949,
    "Φ": 30551,
    "▁genus": 16106,
    "Aus": 18306,
    "<<ST_573>>": 32573,
    "间": 31016,
    "▁Identity": 27486,
    "▁ecc": 16882,
    "▁Historical": 20315,
    "Upload": 17553,
    "iza": 6619,
    "roll": 1245,
    "▁onclick": 15630,
    "▁Schw": 9234,
    "▁slow": 5232,
    "▁отме": 28032,
    "▁argent": 19896,
    "vr": 13416,
    "nungen": 18839,
    "▁Bak": 23336,
    "▁convenience": 29703,
    "₂": 30124,
    "је": 1910,
    "▁trans": 1301,
    "▁Andreas": 21186,
    "пі": 7530,
    "arina": 23558,
    "rick": 9131,
    "▁thumb": 28968,
    "^{": 998,
    "ela": 3100,
    "reci": 4361,
    "▁temper": 6238,
    "imation": 7715,
    "Extension": 17657,
    "hens": 26791,
    "▁version": 1873,
    "▁checking": 8454,
    "✅": 31681,
    "▁solve": 4505,
    "liest": 20409,
    "▁'')": 27255,
    "马": 31530,
    "zak": 29114,
    "KEY": 10818,
    "▁tut": 7149,
    "ფ": 31978,
    "б": 29975,
    "slant": 17139,
    "▁palab": 27555,
    "▁salt": 15795,
    "Rem": 7301,
    "▁główn": 26787,
    "▁primeira": 20997,
    "▁base": 2967,
    "▁Michel": 12255,
    "jö": 12382,
    "▁Baby": 26835,
    "▁ancien": 26128,
    "бро": 20176,
    "▁mús": 12228,
    "parison": 20941,
    "▁Rang": 25800,
    "▁свет": 23486,
    "▁tennis": 22556,
    "▁tri": 3367,
    "ufen": 3213,
    "flags": 15764,
    "édération": 24865,
    "lika": 22605,
    "amsung": 28935,
    "▁дви": 16186,
    "Internal": 16491,
    "▁Af": 10393,
    "rie": 2546,
    "ogs": 12099,
    "▁annot": 9732,
    "VI": 18118,
    "▁numbers": 3694,
    "enty": 6478,
    "ąd": 22881,
    "▁liqu": 15617,
    "▁Auß": 17257,
    "▁Hung": 14198,
    "▁lever": 26610,
    "uten": 6935,
    "▁gaz": 12642,
    ".</": 21106,
    "▁Amsterdam": 17399,
    "md": 3487,
    "▁nuclear": 20346,
    "▁autory": 20070,
    "Lib": 14868,
    "bst": 7891,
    "çu": 24359,
    "▁returning": 7863,
    "▁Sain": 14342,
    "▁Федера": 22144,
    "enis": 16900,
    "▁Nathan": 27650,
    "Die": 16334,
    "▁Bor": 6780,
    "asket": 7896,
    "▁appearances": 21712,
    "clk": 20495,
    "▁Nazionale": 26541,
    "Multi": 15329,
    "lement": 944,
    "ქ": 31271,
    "▁Yam": 22740,
    "ES": 2890,
    "istica": 24504,
    "èse": 17449,
    "▁rounded": 28240,
    "foot": 6661,
    "▁known": 2998,
    "▁ін": 7065,
    "▁elev": 11858,
    "IONS": 27946,
    "▁slide": 20343,
    "▁död": 27653,
    "▁Kirchen": 20574,
    "ス": 30255,
    "wedge": 17864,
    "Ḥ": 30673,
    "phr": 24588,
    "▁факуль": 29806,
    "ǧ": 31518,
    "ora": 2207,
    "▁что": 4281,
    "▁calculate": 8147,
    "ática": 17781,
    "▁Province": 17325,
    "▁meg": 4508,
    "被": 31407,
    "▁tower": 19372,
    "utors": 29560,
    "▁Del": 5556,
    "▁Uk": 11951,
    "▁variant": 17305,
    "писок": 18021,
    "▁ng": 8736,
    "▁Pérez": 28098,
    "▁shame": 28503,
    "jamin": 18323,
    "▁Public": 5236,
    "ま": 30441,
    "▁Áng": 26523,
    "▁Londres": 15557,
    "▁keen": 28430,
    "▁Anti": 18473,
    "▁roots": 16778,
    "▁gestion": 26805,
    "eston": 21496,
    "May": 12703,
    "endra": 25404,
    "▁ital": 4698,
    "▁modific": 24670,
    "▁arriv": 6974,
    "▁tog": 3996,
    "▁Descri": 20355,
    "▁forma": 5954,
    "▁%>": 6580,
    "▁satisfaction": 26470,
    "sl": 2536,
    "▁versch": 8038,
    "Channel": 13599,
    "bl": 2204,
    "우": 31327,
    "▁febrero": 9091,
    "a": 29874,
    "▁нача": 7140,
    "<0x79>": 124,
    "▁Géographie": 27770,
    "ative": 1230,
    "RY": 13207,
    "ivamente": 11778,
    "▁Mail": 18623,
    "▁Hart": 12321,
    "▁bila": 27030,
    "tool": 10154,
    "▁schools": 12462,
    "▁Mundial": 16060,
    "emor": 28927,
    "ipart": 27494,
    "▁intelligence": 21082,
    "ifferent": 15622,
    "<<ST_545>>": 32545,
    "의": 30708,
    "▁teat": 28308,
    "ˠ": 31794,
    "berga": 17494,
    "▁Tax": 17847,
    "ķ": 31748,
    "W": 29956,
    "▁constraint": 7276,
    "▁Government": 10354,
    "▁ont": 4625,
    "▁pochod": 28782,
    "▁Nacional": 8468,
    "▁Juni": 7452,
    "тра": 6711,
    "▁hash": 6608,
    "▁Auf": 4322,
    "verband": 25400,
    "▁gesch": 8486,
    "ythm": 29265,
    "dating": 26747,
    "▁Od": 6715,
    "TO": 4986,
    "дні": 28115,
    "▁объ": 11779,
    "LINE": 18521,
    "▁query": 2346,
    "Ma": 21870,
    "▁Bureau": 18903,
    "▁spare": 29337,
    "unos": 12609,
    "ender": 1581,
    "ì": 30097,
    "▁derived": 10723,
    "Valid": 7211,
    "student": 18945,
    "▁search": 2740,
    "².": 11298,
    "numeric": 21574,
    "া": 30445,
    "▁Ó": 26879,
    "º": 30105,
    "AtIndex": 16686,
    "Alpha": 28630,
    "▁hardly": 15155,
    "ring": 5393,
    "▁veröffentlicht": 26295,
    "leq": 3797,
    "▁Jahrh": 8258,
    "Annotation": 21978,
    "▁Kop": 27476,
    "ulture": 12896,
    "<<ST_37>>": 32037,
    "<<ST_512>>": 32512,
    "▁dil": 21749,
    "▁Arab": 10387,
    "ují": 27906,
    "ní": 2213,
    "▁get": 679,
    "><": 5299,
    "▁start": 1369,
    "▁formal": 11595,
    "multi": 9910,
    "▁familjen": 7172,
    "▁proyecto": 28255,
    "▁outer": 11420,
    "▁rid": 8177,
    "css": 4268,
    "▁picture": 7623,
    ")](": 23192,
    "▁prosper": 25831,
    "⋅": 30394,
    "▁Studio": 7448,
    "▁download": 5142,
    "emente": 9936,
    "ď": 30223,
    "ется": 4364,
    "͡": 30443,
    "omi": 21019,
    "▁The": 450,
    "_;": 16141,
    "！": 30584,
    "▁с": 531,
    "▁phot": 6731,
    "▁reign": 20913,
    "undert": 7635,
    "aked": 12535,
    "uncia": 28027,
    "▁viv": 9364,
    "╦": 31128,
    "hit": 27342,
    "<<ST_578>>": 32578,
    "íd": 13480,
    "Assert": 14697,
    "istas": 9395,
    "Headers": 18163,
    "▁infrastr": 22035,
    "拉": 31543,
    "ть": 1413,
    "泉": 31637,
    "▁agr": 9221,
    "ANT": 13566,
    "pués": 8822,
    "▁come": 2041,
    "дах": 27920,
    "clud": 5762,
    "ett": 1803,
    "်": 30693,
    "scri": 7588,
    "ifa": 26056,
    "allery": 23365,
    "gra": 3874,
    "sible": 1687,
    "defin": 25476,
    "▁Ni": 15981,
    "fert": 19175,
    "▁polym": 24324,
    "хра": 15177,
    "▁nat": 14033,
    "}^": 2137,
    "라": 31197,
    "abled": 3606,
    "▁ou": 2123,
    "▁Enter": 9041,
    "▁Circle": 27927,
    "▁async": 7465,
    "▁transmission": 22713,
    "▁against": 2750,
    "Config": 3991,
    "---": 5634,
    "▁zu": 1729,
    "▁Kr": 7365,
    "▁colon": 8104,
    "osph": 25715,
    "Socket": 11373,
    "verb": 18248,
    "liqu": 28378,
    "<<ST_263>>": 32263,
    "▁první": 29843,
    "▁service": 2669,
    "()`.": 13595,
    "estellt": 23391,
    "▁становника": 11229,
    "를": 31517,
    "▁produce": 7738,
    "▁topics": 23820,
    "▁update": 2767,
    "pipe": 17760,
    "▁été": 4370,
    "ня": 1200,
    "CCE": 19043,
    "▁operator": 5455,
    "▁each": 1269,
    "Selection": 15097,
    "сси": 6988,
    "▁rot": 5731,
    "▁cul": 13949,
    "▁lux": 21684,
    "▁information": 2472,
    "▁expand": 7985,
    "owie": 4238,
    "▁shook": 25239,
    "▁Bir": 17853,
    "▁inclu": 13654,
    "▁Fer": 7756,
    "ondere": 18241,
    "skich": 11040,
    "лин": 8279,
    "▁OR": 6323,
    "▁помощ": 24794,
    "▁you": 366,
    "Петер": 26861,
    "▁text": 1426,
    "theta": 3416,
    "comple": 5729,
    "arning": 5699,
    "▁simultane": 16991,
    "cy": 1270,
    "่": 30543,
    "▁име": 7557,
    "▁smoke": 25158,
    "▁vote": 11719,
    "▁Beautiful": 25685,
    "marks": 22848,
    "▁b": 289,
    "▁intu": 26877,
    "▁ph": 1374,
    "▁nil": 4263,
    "▁concent": 10484,
    "▁);": 3482,
    "▁Silva": 25371,
    "▁repla": 6497,
    "▁робо": 22957,
    "ifolia": 28963,
    "▁Mult": 9683,
    "schema": 11010,
    "cji": 17624,
    "▁kunst": 27708,
    "uerdo": 25768,
    "▁large": 2919,
    "▁receiver": 19870,
    "▁Murray": 22340,
    "▁toggle": 20429,
    "▁csv": 11799,
    "▁pale": 15509,
    "ждение": 27625,
    "',": 742,
    "▁laquelle": 22025,
    "igan": 11163,
    "▁сло": 19945,
    "▁Rugby": 22647,
    "ibile": 21997,
    "Py": 19737,
    "ulaire": 25290,
    "▁bronze": 18449,
    "▁w": 281,
    "▁região": 26275,
    "<<ST_670>>": 32670,
    "▁others": 4045,
    "▁serve": 9080,
    "ccc": 26854,
    "▁decre": 9263,
    "▁peint": 16868,
    "тисти": 19851,
    "meta": 7299,
    "▁decay": 20228,
    "▁severe": 22261,
    "Helper": 10739,
    "▁distinct": 8359,
    "▁than": 1135,
    "Who": 22110,
    "▁util": 3667,
    "▁grep": 12680,
    "біль": 21057,
    "<<ST_687>>": 32687,
    "▁murm": 25234,
    "Bas": 9496,
    "▁e": 321,
    "▁managed": 8745,
    "師": 31549,
    "ateurs": 14075,
    "▁проду": 23092,
    "▁'_": 22868,
    "cur": 2764,
    "▁н": 6968,
    "▁José": 7942,
    "▁passion": 15935,
    "/'": 22208,
    "▁desired": 7429,
    "<\\": 13505,
    "DU": 14849,
    "▁ged": 15652,
    "▁two": 1023,
    "ᴇ": 31297,
    "<<ST_252>>": 32252,
    "▁register": 6036,
    "▁starts": 8665,
    "ника": 4222,
    "<<ST_432>>": 32432,
    "iego": 9383,
    "▁erh": 9369,
    "▁altres": 24593,
    "Zyg": 24433,
    "Le": 3226,
    "строй": 21237,
    "save": 7620,
    "ufact": 9765,
    "▁resolution": 10104,
    "▁baz": 12741,
    "▁traces": 26695,
    "java": 1645,
    "σ": 30164,
    "/\"": 12975,
    "▁fro": 14671,
    "Origin": 23182,
    "▁cuales": 28276,
    "▁одна": 15295,
    "▁цер": 13195,
    "тета": 25313,
    "▁assume": 5251,
    "▁lit": 11872,
    "▁augusti": 28571,
    "▁pot": 3104,
    "▁фами": 15195,
    "▁provincie": 28053,
    "▁doing": 2599,
    "▁counter": 6795,
    "worth": 12554,
    "▁voz": 25944,
    "▁views": 8386,
    "year": 6360,
    "▁convinced": 25617,
    "▁Relig": 16221,
    "▁relatively": 13774,
    "Completion": 28958,
    "══": 13648,
    "▁foreach": 6829,
    "▁Ос": 11274,
    "ił": 27233,
    "▁Ин": 11252,
    "▁Normdatei": 28331,
    "дина": 16489,
    "▁Ve": 8980,
    "▁light": 3578,
    "<<ST_313>>": 32313,
    "▁born": 6345,
    "▁af": 2511,
    "▁garden": 16423,
    "connection": 9965,
    "▁agua": 22989,
    "▁Container": 21679,
    "▁react": 7657,
    "▁especies": 28564,
    "▁value": 995,
    "▁Argentina": 13798,
    "xml": 3134,
    "TYPE": 11116,
    "▁;;": 11533,
    "▁followed": 5643,
    "Remove": 15941,
    "▁navigation": 11322,
    "łącz": 19721,
    "ünst": 12820,
    "▁Cin": 11972,
    "▁фамилией": 19895,
    "▁%).": 28719,
    "device": 10141,
    "Flags": 15675,
    "Buffer": 7701,
    "agini": 11342,
    "**": 1068,
    "▁Code": 5920,
    "▁cause": 4556,
    "▁unlikely": 25057,
    "тами": 14331,
    "▁Comment": 461,
    "<<ST_141>>": 32141,
    "▁сем": 18534,
    "<<ST_564>>": 32564,
    "AME": 25797,
    "▁Ž": 13768,
    "allowed": 24622,
    "▁lanç": 19049,
    "▁aute": 14604,
    "▁haber": 23086,
    "jdbc": 15686,
    "yw": 5693,
    "racy": 10068,
    "▁trial": 14260,
    "wire": 22376,
    "▁Phone": 24323,
    "▁mint": 20559,
    "hed": 17143,
    "田": 30395,
    "анг": 4747,
    "▁Glen": 27197,
    "shadow": 17505,
    "▁Süd": 11711,
    "cen": 10278,
    "▁Вар": 27058,
    "ographical": 19711,
    "тар": 11741,
    "\\'": 20333,
    "▁account": 3633,
    "▁organisation": 24788,
    "劉": 31792,
    "▁Very": 18064,
    "▁gradle": 28748,
    "▁ast": 8717,
    "▁ме": 2508,
    "▁nost": 20990,
    "OU": 27269,
    "ר": 30236,
    "ialize": 6646,
    "▁partial": 7687,
    "май": 27152,
    "ън": 21859,
    "▁Cob": 24991,
    "Κ": 30314,
    "we": 705,
    "集": 30893,
    "▁eng": 3033,
    "▁mode": 4464,
    "û": 30095,
    "ά": 30216,
    "Ar": 1433,
    "between": 14811,
    "送": 31545,
    "▁implementing": 16049,
    "unic": 2523,
    "▁compreh": 15171,
    "▁trig": 16222,
    "ν": 30133,
    "rho": 4650,
    "▁фран": 14558,
    "▁чер": 13392,
    "▁framework": 6890,
    "▁smiled": 25156,
    "▁shed": 28453,
    ">\"": 11903,
    "мей": 14444,
    "ory": 706,
    "ors": 943,
    "}+\\": 10869,
    "тного": 27015,
    "▁execut": 6704,
    "▁finds": 14061,
    "zech": 12357,
    "odos": 24463,
    "他": 31221,
    "▁Sever": 14621,
    "▁Icon": 26816,
    "atory": 7606,
    "▁hearts": 26490,
    "bibliothek": 24275,
    "▁risp": 22475,
    "▁Mode": 21864,
    "▁eig": 15761,
    "▁Turn": 9603,
    "ك": 30283,
    "<0xC3>": 198,
    "▁kB": 23297,
    "овий": 18944,
    "长": 31143,
    "ण": 31377,
    "▁затем": 22174,
    "wie": 7804,
    "utch": 10519,
    "▁Brook": 18737,
    "%%%%%%%%": 28198,
    "<<ST_455>>": 32455,
    "▁Biografia": 19164,
    "species": 24091,
    "▁resources": 7788,
    "kaf": 26564,
    "<<ST_131>>": 32131,
    "<<ST_599>>": 32599,
    "Summary": 26289,
    "▁чу": 22021,
    "▁Гер": 14281,
    "<<ST_708>>": 32708,
    "▁line": 1196,
    "Re": 1123,
    "▁pue": 19312,
    "increment": 25629,
    "▁октября": 16482,
    "ေ": 31228,
    "inde": 25201,
    "чных": 15086,
    "▁photo": 15373,
    "лки": 7574,
    "▁Alc": 25761,
    "Person": 7435,
    "▁године": 8061,
    "▁cor": 1034,
    "domain": 7247,
    "ham": 3391,
    "▁contest": 17793,
    "H": 29950,
    "tok": 17082,
    "▁dv": 14897,
    "▁кото": 6999,
    "▁Thank": 3374,
    "kań": 16022,
    "▁Основ": 16889,
    "parent": 3560,
    "▁profesor": 28423,
    "Associ": 29254,
    "ppets": 27421,
    "ƒ": 30703,
    "trace": 15003,
    "▁collected": 16531,
    "Client": 4032,
    "▁Should": 10575,
    "ності": 22117,
    "▁report": 3461,
    "uset": 11616,
    "▁reading": 5183,
    "itive": 3321,
    "▁fois": 10098,
    "▁trail": 26203,
    "ore": 487,
    "<<ST_96>>": 32096,
    "onneur": 25905,
    "ні": 1427,
    "aniu": 18467,
    "AR": 1718,
    "ąż": 19151,
    "спорт": 25153,
    ".,": 1696,
    "▁recognize": 18720,
    "elen": 4498,
    "ített": 28242,
    "ENT": 3919,
    "▁developed": 8906,
    "▁minister": 11050,
    "▁Final": 9550,
    "geb": 4310,
    "ts": 1372,
    "▁Schauspieler": 19002,
    "very": 1201,
    "▁Jerry": 23052,
    "ból": 26976,
    "fø": 27540,
    "inned": 27464,
    "▁degree": 7426,
    "▁új": 20786,
    "Country": 20779,
    "▁support": 2304,
    "▁frances": 10838,
    "Services": 13779,
    "ations": 800,
    "号": 30850,
    "▁side": 2625,
    "▁situation": 6434,
    "▁Пер": 8880,
    "▁gilt": 22921,
    "ulative": 28524,
    "subseteq": 11725,
    "甲": 31843,
    "Timer": 14745,
    "ttemberg": 23079,
    "****************": 7775,
    "<0x30>": 51,
    "▁sitting": 16246,
    "lip": 3466,
    "▁afraid": 13421,
    "▁квіт": 22551,
    "▁al": 394,
    "▁photograph": 17739,
    "temp": 7382,
    "▁singleton": 27130,
    "щ": 30021,
    "<<ST_414>>": 32414,
    "ғ": 31077,
    "▁обы": 27168,
    "▁dump": 16766,
    "論": 31871,
    "eli": 5037,
    "心": 30869,
    "▁були": 15984,
    "String": 1231,
    "лом": 7792,
    "ánchez": 29064,
    "odn": 22452,
    "▁supplies": 28075,
    "▁rif": 17018,
    "▁sex": 7916,
    "▁bew": 16435,
    "▁hinter": 22013,
    "war": 4495,
    "▁LOG": 25401,
    "▁дан": 11650,
    "▁Less": 27898,
    "format": 4830,
    "▁MP": 16379,
    "▁narrow": 12474,
    "ío": 9393,
    "▁då": 14673,
    "▁signals": 18470,
    "{:": 25641,
    "▁repres": 10981,
    "▁Specifically": 26321,
    "sterdam": 15372,
    "wed": 8734,
    "what": 5816,
    "ほ": 31938,
    "Repos": 10913,
    "lijk": 18022,
    "▁Bang": 14320,
    "▁tub": 23131,
    "von": 23696,
    "で": 30499,
    "▁typing": 19229,
    "▁qualified": 18698,
    "LO": 3927,
    "ussen": 12706,
    "斯": 31824,
    "▁sono": 5748,
    "ashington": 7321,
    "▁erw": 19045,
    "lect": 781,
    "ouvert": 23048,
    "▁septembre": 9355,
    "licht": 10881,
    "kil": 16757,
    "角": 31432,
    "▁аль": 12668,
    "▁had": 750,
    "Instance": 4998,
    "▁Piet": 14929,
    "▁best": 1900,
    "information": 19678,
    "пла": 18478,
    "▁Ari": 25775,
    "loader": 12657,
    "<<ST_759>>": 32759,
    "▁grow": 6548,
    "▁assumes": 15894,
    "тив": 3499,
    "▁яких": 26573,
    "ченко": 28036,
    "က": 31371,
    "▁nit": 21767,
    "coli": 25776,
    "itten": 16097,
    "▁Integr": 17100,
    "▁old": 2030,
    "▁Pir": 16937,
    "Register": 15213,
    ":\\": 3583,
    "▁Service": 6692,
    "▁vars": 24987,
    "▁Ро": 6083,
    "▁составля": 13227,
    "Cancel": 19420,
    "oire": 14119,
    "legraph": 27333,
    "▁Lyn": 18989,
    "Int": 2928,
    "▁tegen": 15212,
    "▁mujer": 17075,
    "arqu": 19862,
    "▁пси": 27210,
    "理": 30687,
    "▁expanded": 17832,
    "idget": 3690,
    "enders": 21043,
    "Exists": 24217,
    "▁video": 4863,
    "▁fill": 5445,
    "Green": 24599,
    "▁Entre": 14447,
    "▁aggi": 25586,
    "ි": 31485,
    "urrence": 26841,
    "ning": 1076,
    "▁Ма": 3507,
    "CP": 6271,
    "▁использова": 17442,
    "ление": 6195,
    "▁tutti": 16567,
    "▁пра": 4460,
    "+=": 23661,
    "▁broad": 7300,
    "▁sees": 18553,
    "},\\": 7570,
    "mit": 2415,
    "ਰ": 31604,
    "▁foi": 4732,
    "▁webpack": 28285,
    "”,": 9363,
    "₈": 30278,
    "ynt": 3903,
    "untime": 5572,
    "########": 7346,
    "<<ST_723>>": 32723,
    "▁Token": 25159,
    "imately": 15084,
    "▁think": 1348,
    "▁пес": 15536,
    "ție": 12989,
    "STR": 10810,
    "▁callback": 6939,
    "ս": 30881,
    "ди": 956,
    "유": 31533,
    "▁Verd": 19236,
    "<<ST_204>>": 32204,
    "▁mit": 1380,
    "▁ehemaligen": 28390,
    "prü": 10991,
    ".«": 29719,
    "▁Herzog": 23804,
    "utlich": 22251,
    "Pair": 20547,
    "▁sequences": 15602,
    "dan": 18386,
    "▁Oscar": 19054,
    "▁же": 5865,
    "▁prefer": 5821,
    "isie": 24453,
    "▁nú": 10442,
    "▁Russ": 4719,
    "età": 12582,
    "inta": 15073,
    "onato": 12732,
    "apor": 26191,
    "|$": 25183,
    "fect": 3647,
    "▁Cam": 5500,
    "▁Bro": 4358,
    "чу": 9797,
    "obb": 20838,
    "archiv": 24121,
    "▁команди": 19137,
    "чни": 22714,
    "cpp": 8223,
    "▁Werke": 20992,
    "▁Pract": 29124,
    "?)": 7897,
    "可": 30682,
    "好": 31076,
    "▁giov": 23241,
    "▁indicate": 12266,
    "ק": 30433,
    "▁voting": 28931,
    "▁scripts": 12078,
    "<<ST_495>>": 32495,
    "▁каче": 18432,
    "cade": 6332,
    "▁Virgin": 9167,
    "роди": 13508,
    "先": 31244,
    "goto": 27102,
    "▁waited": 25993,
    "floor": 14939,
    "onio": 14642,
    "▁Kingdom": 12626,
    "cida": 21507,
    "guez": 26057,
    "▁abitanti": 26548,
    "ново": 29525,
    "мент": 12275,
    "▁municipal": 11677,
    "隆": 31788,
    "▁threw": 18318,
    "▁deg": 3587,
    "▁expensive": 19390,
    "artifactId": 9680,
    "avid": 16093,
    "▁í": 14468,
    "▁dep": 1401,
    "▁Dro": 22938,
    "▁préc": 16784,
    "▁blank": 9654,
    "MR": 21055,
    "▁Dim": 4792,
    "ící": 12851,
    "到": 30780,
    "<<ST_706>>": 32706,
    "▁MyClass": 28603,
    "▁sense": 4060,
    "▁powershell": 25532,
    "▁inst": 832,
    "▁pom": 8280,
    "▁GND": 10453,
    "▁via": 3025,
    "nas": 22911,
    "▁plots": 24580,
    "');\r": 17822,
    "ث": 30839,
    "▁dialect": 23725,
    ")$-": 26725,
    "▁what": 825,
    "color": 2780,
    "ilers": 22058,
    "▁место": 14179,
    "endo": 2765,
    "▁Па": 5390,
    "▁wore": 26758,
    "Del": 13157,
    "oming": 28826,
    "ICATION": 28541,
    "Constructor": 23770,
    "uit": 3121,
    "sort": 6605,
    "runner": 27492,
    "▁Et": 8748,
    "表": 30746,
    "▁Daar": 26105,
    "▁Dep": 10034,
    "▁ende": 19981,
    "▁niet": 7499,
    "addClass": 20213,
    "as": 294,
    "▁bei": 2862,
    "▁simulate": 29611,
    "<<ST_20>>": 32020,
    "▁kid": 26397,
    "conne": 11958,
    "uly": 11850,
    "▁gef": 10235,
    "▁virtual": 6901,
    "▁quantum": 12101,
    "ença": 28558,
    "▁financial": 18161,
    "▁américain": 17153,
    "<?": 8169,
    "▁challenge": 18766,
    "ibt": 9268,
    "▁precise": 18378,
    "▁lu": 8092,
    "viv": 24759,
    "reason": 23147,
    "д": 29957,
    "▁Jersey": 14500,
    "ware": 2519,
    "mitt": 18344,
    "vin": 3845,
    "▁eclipse": 16517,
    "▁Francis": 5845,
    ")>": 15410,
    "╠": 30841,
    "▁executes": 24138,
    "▁ren": 4325,
    "▁conv": 7602,
    "▁blev": 8557,
    "readsheet": 27844,
    "▁этого": 16827,
    "▁Externí": 17981,
    "▁Pet": 5879,
    "▁affair": 26195,
    "▁really": 2289,
    "VA": 20449,
    "▁ili": 29040,
    "ro": 307,
    "riction": 19902,
    "▁incre": 3079,
    "▁ос": 3894,
    "reiche": 23296,
    "▁Sub": 3323,
    "izard": 17909,
    "▁according": 5034,
    "▁intel": 13856,
    "▁им": 8933,
    "▁Magic": 26494,
    "×": 30122,
    "▁Work": 5244,
    "homme": 21708,
    "▁Solo": 29687,
    "▁concerns": 21838,
    "▁seizo": 25454,
    "pply": 29400,
    "ruption": 18953,
    "▁doctrine": 22542,
    "akes": 6926,
    "del": 6144,
    "ielle": 11381,
    "▁consult": 8799,
    "ettes": 21158,
    "ễ": 30701,
    "▁Braun": 23514,
    "igua": 19970,
    "έ": 31059,
    "▁susp": 8872,
    "enç": 26686,
    "ounced": 20979,
    "before": 11083,
    "havior": 16300,
    "IME": 8890,
    "ion": 291,
    "$_": 14630,
    "▁Buddh": 28234,
    "curl": 18963,
    "▁Provin": 11127,
    "dl": 11671,
    "Str": 5015,
    "▁Мар": 9104,
    "ambiguation": 18065,
    "▁%{": 21191,
    "<0xC9>": 204,
    "sterreich": 9022,
    "ClassLoader": 20746,
    "▁sout": 13267,
    "MA": 1529,
    "▁regards": 21778,
    "▁tons": 23864,
    "cart": 13823,
    "▁Discogs": 24262,
    "▁fright": 22739,
    "▁dice": 17629,
    "▁Variable": 28736,
    "▁Sammlung": 10979,
    "▁bezeichneter": 20721,
    "▁fosse": 23198,
    "▁château": 20085,
    "▁fle": 9115,
    "asticsearch": 20291,
    "oires": 22297,
    "cera": 23322,
    "̃": 30478,
    "ellow": 4743,
    "skie": 3941,
    "▁INT": 19578,
    "äß": 10250,
    "pieler": 13262,
    "rob": 13716,
    "bra": 2634,
    "▁особи": 18347,
    "【": 31478,
    "▁VI": 5473,
    "▁Matt": 9811,
    "ound": 618,
    "▁kar": 10856,
    "steps": 24530,
    "▁стать": 11919,
    "火": 31313,
    "▁},": 2981,
    "▁agre": 8571,
    "гу": 3325,
    "лося": 21483,
    "സ": 30969,
    "▁nad": 8642,
    "ises": 4637,
    "▁línea": 23698,
    "▁subscription": 25691,
    "ends": 1975,
    "що": 4851,
    "▁насеље": 14503,
    "thern": 5063,
    "▁were": 892,
    "▁террито": 15365,
    "▁candid": 7105,
    "<<ST_12>>": 32012,
    "▁postal": 29767,
    "▁crossing": 24067,
    "▁ию": 8599,
    "▁(.": 14544,
    "白": 30868,
    "erea": 25261,
    "rès": 11789,
    "chestra": 15554,
    "▁periodic": 29591,
    "▁be": 367,
    "▁Gall": 8130,
    "▁corre": 14515,
    "▁Conf": 10811,
    "fre": 10745,
    "лище": 23054,
    "▁dér": 29057,
    "▁prohib": 21460,
    "▁Források": 24631,
    "▁információk": 26137,
    "▸": 31234,
    "mense": 27352,
    "<<ST_498>>": 32498,
    "ส": 30547,
    "▁ekonom": 28890,
    "▁советский": 25412,
    "▁Sept": 28742,
    "maps": 10339,
    "ческий": 14760,
    "ん": 30389,
    "▁req": 12428,
    "▁driving": 19500,
    "Controller": 2956,
    "<0x89>": 140,
    "xf": 24660,
    "▁folk": 19589,
    "richt": 10220,
    "▁vall": 22044,
    "Add": 2528,
    "▁Wolfgang": 19314,
    "unix": 24538,
    "носи": 22315,
    "ム": 30579,
    "▁effective": 11828,
    "luss": 13596,
    "▁Active": 10731,
    "out": 449,
    "▁project": 2060,
    "Ze": 24625,
    "Tem": 5776,
    "Ə": 31127,
    "▁nast": 11777,
    "▁тек": 23567,
    "Setting": 29020,
    "ская": 4484,
    "fd": 11512,
    "▁Track": 17026,
    "ć": 30063,
    "▁kun": 15465,
    "▁bar": 2594,
    "▁tud": 26992,
    "▁CHECK": 23557,
    "▁messages": 7191,
    "usalem": 18537,
    "▁presso": 20885,
    "▁bodies": 17873,
    "▁cheap": 28773,
    "▁discovered": 10943,
    "▁Ress": 12167,
    "ede": 2742,
    "SL": 12750,
    "▁Ortste": 25626,
    "▁Svens": 25742,
    "▁hommes": 17137,
    "université": 26759,
    "Fin": 12881,
    "isEmpty": 24326,
    "łów": 25588,
    "▁observer": 22944,
    "▁milit": 5549,
    "▁intention": 16392,
    "Resource": 6848,
    "▁greater": 7621,
    "▁Bayer": 21727,
    "ссии": 28229,
    "▁CG": 8446,
    "▁viss": 22003,
    "▁дія": 22943,
    "▁ch": 521,
    "▁mouse": 9495,
    "vol": 1555,
    "▁Jer": 5677,
    "mande": 13990,
    "▁Vict": 7229,
    "▁churches": 26014,
    "▁Sov": 12466,
    "▁quello": 18316,
    "▁incorrect": 10240,
    "MD": 5773,
    "ids": 4841,
    "▁selects": 27778,
    "▁all": 599,
    "▁periodo": 17848,
    "repo": 20095,
    "бо": 1782,
    "▁Full": 14846,
    "▁asp": 7051,
    "ushing": 21616,
    "fer": 571,
    "rama": 20556,
    "▁&&": 2607,
    "ポ": 31205,
    "▁js": 6965,
    "▁Kel": 27326,
    "▁revision": 26554,
    "▁Civil": 12886,
    "<0x4B>": 78,
    "▁medicine": 26602,
    "Qu": 2182,
    "▁Externa": 13263,
    "▁Franco": 20923,
    "ORDER": 22364,
    "ymi": 18653,
    "▁sche": 21014,
    "ammed": 28913,
    "▁optimal": 14413,
    "chunk": 29812,
    "▁Net": 12670,
    "WE": 8851,
    "▁Sa": 5701,
    "波": 31529,
    "Un": 2525,
    "▁answered": 7699,
    "▁Bret": 23132,
    "西": 30602,
    "▁Tennis": 29010,
    "èn": 8603,
    "അ": 31342,
    "▁trouv": 24889,
    "AA": 6344,
    "▁иг": 10689,
    "▁dello": 14681,
    "innerHTML": 14742,
    "▁perm": 3635,
    "張": 31504,
    "▁apparently": 13229,
    "▁reflected": 25312,
    "▁città": 12209,
    "▁granted": 16896,
    "魔": 31098,
    "▁mess": 4473,
    "кто": 18576,
    "▁li": 619,
    "▁forgot": 9640,
    "▁nombreux": 20081,
    "ubs": 23954,
    "▁avec": 2535,
    "▁című": 26773,
    "▁hur": 12166,
    "▁entities": 16212,
    "▁sett": 3604,
    "commerce": 22529,
    "ONE": 12413,
    "▁campe": 18357,
    "▁Mrs": 6285,
    "egov": 27652,
    "<<ST_363>>": 32363,
    "▁Tel": 18815,
    "ソ": 31051,
    "<<ST_436>>": 32436,
    "▁until": 2745,
    "iesz": 11250,
    "Ids": 21943,
    "esty": 14596,
    "判": 31791,
    "▁efter": 12057,
    "▁ober": 27543,
    "▁Ex": 1222,
    "▁uit": 3649,
    "▁Гор": 21164,
    "▁equipment": 21083,
    "▁Just": 3387,
    "▁ат": 29073,
    "Cert": 20455,
    "▁гра": 5532,
    "========": 4936,
    "би": 2384,
    "IGN": 17298,
    "̂": 31500,
    "▁}`": 24278,
    "▁по": 733,
    "astr": 7614,
    "▁Cy": 8045,
    "േ": 30964,
    "=(": 7607,
    "сона": 17595,
    "▁Introduction": 27576,
    "▁prend": 16067,
    "▁Wars": 9149,
    "sign": 4530,
    "▁circuit": 11369,
    "▁regular": 4943,
    "<<ST_674>>": 32674,
    "pan": 8357,
    "PS": 7024,
    "<0x53>": 86,
    "¸": 30836,
    "ologne": 13835,
    "iter": 1524,
    "avas": 2449,
    "ounding": 12449,
    "▁__": 4770,
    "▁foot": 3661,
    "terre": 21717,
    "ló": 18528,
    "▁lí": 10263,
    "gn": 5138,
    "TH": 4690,
    "lah": 8083,
    "owi": 13447,
    "▁jelent": 23962,
    "oral": 11251,
    "▁Рус": 29006,
    "▁Updated": 25723,
    "zeug": 13289,
    "▁Ка": 3397,
    "▁Method": 8108,
    "alse": 1435,
    "▁х": 4354,
    "▁nah": 12902,
    "▁Federation": 20438,
    "▁Properties": 21582,
    "profile": 10185,
    "▁nearly": 8886,
    "▁centered": 24764,
    "adores": 7447,
    "ifference": 17678,
    "▁Республики": 27322,
    "▁level": 3233,
    "▁insight": 25483,
    "▁x": 921,
    "hold": 8948,
    "▁Clay": 26234,
    "ds": 6289,
    "▁girl": 7826,
    "态": 31613,
    "▁advantages": 25486,
    ":@\"": 8593,
    "(%": 29414,
    "ляр": 13550,
    "▁invol": 5297,
    "née": 24697,
    "▁Han": 7169,
    "▁Office": 11367,
    "ido": 1941,
    "▁disabled": 12708,
    "▁modifying": 23815,
    "LA": 4375,
    "▁évol": 29378,
    "echo": 8057,
    "lack": 2364,
    "▁Gruppe": 21757,
    "apps": 13371,
    "▁kindly": 25036,
    "ske": 26050,
    "▁pad": 17132,
    "▁branch": 5443,
    "▁oldest": 23947,
    "▁Western": 10504,
    "òria": 21276,
    "▁meaning": 6593,
    "selector": 14357,
    "Vol": 13072,
    "väst": 28583,
    "schrift": 13827,
    "OS": 3267,
    "xty": 29312,
    "▁pobla": 9236,
    "▁Meter": 19333,
    "▁invoked": 22336,
    "<<ST_551>>": 32551,
    "▁Eug": 20891,
    "▁Terry": 27571,
    "▁gg": 20775,
    "altung": 27740,
    "ían": 8202,
    "▁dynamically": 11200,
    "▁без": 10642,
    "▁созда": 14507,
    "<<ST_566>>": 32566,
    "▁would": 723,
    "▁Blan": 26267,
    "▁achter": 26096,
    "ić": 13643,
    "▁Four": 12458,
    "кур": 23893,
    "▁regularly": 25704,
    " ": 30118,
    "▁Margaret": 18364,
    "çois": 11072,
    "mix": 28084,
    "▁plant": 8024,
    "你": 30919,
    "▁utiliz": 11824,
    "▁Prize": 20604,
    "▁monuments": 22586,
    "еру": 19241,
    "▁imag": 6382,
    "▁días": 24167,
    "▁Росси": 7676,
    "≥": 30386,
    "')->": 22423,
    "▁United": 3303,
    "▁enqu": 22085,
    "▁SUB": 27092,
    "diff": 12765,
    "▁Chan": 22433,
    "▁грудня": 24852,
    "▁keywords": 29361,
    "▁assigning": 23188,
    "▁pages": 6515,
    "月": 30534,
    "▁Lev": 20708,
    "▁Collection": 14348,
    "▁Leonard": 26921,
    "들": 31804,
    "▁news": 9763,
    "▁Men": 7567,
    "▁rs": 20371,
    "<0xD8>": 219,
    "▁demol": 27745,
    "▁character": 2931,
    "▁institutions": 21561,
    "▁definit": 8422,
    "Files": 10547,
    "▁implicit": 12235,
    "▁Meyer": 26581,
    "▁Internet": 4685,
    "%=": 12222,
    "afé": 28059,
    "▁defin": 7403,
    "sock": 21852,
    "▁running": 2734,
    "нг": 10232,
    "▁motor": 10992,
    "▁Alt": 10790,
    "▁replacing": 15270,
    "▁sept": 4843,
    "pport": 3016,
    "▁Development": 14650,
    "uls": 7273,
    "▁};": 3980,
    "connected": 18045,
    "▁morph": 18131,
    "▁sounds": 10083,
    "▁Georg": 6158,
    "atos": 4507,
    "bd": 6448,
    "▁Dictionary": 13343,
    "wordpress": 23424,
    "▁beauty": 15409,
    "▁час": 12978,
    "▁quotes": 11839,
    "nitt": 9898,
    "keyword": 26766,
    "▁conjug": 25482,
    "▁Sea": 14070,
    "<<ST_472>>": 32472,
    "▁NBA": 21517,
    "▁majority": 13638,
    "dialog": 15901,
    "▁concluded": 22834,
    "▁Rum": 20852,
    "})$.": 23462,
    "▁трав": 17736,
    "approx": 14850,
    "▁unto": 20550,
    "▁changing": 6480,
    "cep": 13300,
    "Ì": 30729,
    "agas": 26712,
    "▁Training": 26101,
    "▁priority": 20136,
    "▁управ": 14548,
    "!\"": 3850,
    "▁education": 9793,
    "ѐ": 31777,
    "▁indicated": 18694,
    "ச": 31384,
    "▁Nether": 22528,
    "VAR": 26865,
    "▁vij": 24897,
    "▁block": 2908,
    "я": 29970,
    "▁arithmetic": 23342,
    "ils": 2719,
    "amerikan": 11596,
    "▁Febru": 4232,
    "▁жен": 14244,
    "ння": 14504,
    "▁$|": 11892,
    "berta": 19954,
    "▁thé": 13219,
    "issen": 13119,
    "▁wsz": 23206,
    "符": 31277,
    "umph": 19149,
    "▁minds": 27656,
    "▁zone": 10640,
    "▁then": 769,
    "NF": 22498,
    "▁они": 16642,
    "▁Natural": 18385,
    "erb": 23936,
    "▁Memory": 18914,
    "▁mer": 2778,
    "▁market": 9999,
    "▁Uri": 21670,
    "▁couldn": 8496,
    "jär": 12282,
    "▁ami": 18926,
    "▁nouveau": 13164,
    "ah": 801,
    "▁Pr": 1588,
    "▁suppose": 7755,
    "datab": 29503,
    "<0xCD>": 208,
    "irtschaft": 9786,
    "▁fragment": 9376,
    "acing": 9390,
    "ᾶ": 31778,
    "rások": 22636,
    "sak": 27909,
    "▁Stand": 6679,
    "lichen": 4057,
    "publique": 18739,
    "▁мо": 2569,
    "uerte": 18174,
    "ые": 11489,
    "수": 30970,
    "▁papa": 23872,
    "▁landscape": 24400,
    "daten": 10207,
    "*\"": 20605,
    "PM": 13427,
    "▁CON": 8707,
    "ève": 15792,
    "▁robust": 16424,
    "▁Studios": 23268,
    "▁установ": 21656,
    "▁husband": 10216,
    "RAM": 25058,
    "▁decided": 8459,
    "▁returns": 3639,
    "cza": 28849,
    "oben": 29217,
    "▁proceeded": 24825,
    "▁bo": 1045,
    "▁thro": 20961,
    "xture": 15546,
    "▁Не": 8616,
    "sheets": 19360,
    "▁fueron": 12004,
    "wort": 17572,
    "▁Grad": 19295,
    "◄": 30322,
    "ध": 31437,
    "▁cars": 18647,
    "▁мно": 16071,
    "▁Wayne": 25843,
    "▁|": 891,
    "actér": 16027,
    "▁груп": 10841,
    "▁flags": 13449,
    "eau": 14531,
    "trad": 29576,
    "پ": 30585,
    "▁estad": 12386,
    "Values": 9065,
    "dex": 1390,
    "▁Derby": 29520,
    "ellschaft": 10806,
    "▁App": 2401,
    "▁alcuni": 19344,
    "ént": 29463,
    "▁VS": 12221,
    "▁política": 18504,
    "<<ST_390>>": 32390,
    "пере": 18207,
    "▁Dy": 24526,
    "▁\"#": 12305,
    "▁Sem": 9444,
    "▁Unfortunately": 11511,
    "<0xF7>": 250,
    "▁successful": 9150,
    "▁rendered": 13751,
    "▁Zeitschrift": 29386,
    "▁acquaint": 19395,
    "erman": 3504,
    "fter": 906,
    "Component": 5308,
    "▁Count": 3917,
    "▁il": 980,
    "▁cole": 27181,
    "ведения": 25321,
    "achusetts": 15404,
    "▁IL": 17674,
    "iene": 3530,
    "▁andere": 9900,
    "▁prix": 19590,
    "▁року": 4577,
    "unas": 17496,
    "す": 30427,
    "nsylvan": 14912,
    "▁originale": 12934,
    "agua": 29296,
    "<<ST_123>>": 32123,
    "widehat": 12259,
    "issement": 11537,
    "▁seen": 3595,
    "▁features": 5680,
    "▁Fly": 28738,
    "▁SP": 10937,
    "рез": 10485,
    "Hozzáférés": 9462,
    "On": 2951,
    "▁fá": 29712,
    "▁Films": 21470,
    "SQL": 4176,
    "▁Rés": 20513,
    "äng": 4762,
    "market": 28549,
    "▁modified": 9120,
    "▁concepts": 22001,
    "错": 31745,
    "letin": 27106,
    "▁Ern": 9317,
    "▁also": 884,
    "Spec": 10299,
    "▁ris": 5161,
    "▁sido": 11336,
    "⁰": 30524,
    "F": 29943,
    "ften": 15535,
    "ὸ": 30734,
    "а": 29910,
    "▁empir": 29190,
    "▁Glad": 19319,
    "youtube": 19567,
    "Collections": 19466,
    "▁fe": 1238,
    "ems": 1567,
    "য": 31218,
    "azu": 13581,
    "bon": 6718,
    "лист": 19394,
    "+$": 24035,
    "▁squadra": 22546,
    "▁for": 363,
    "<0x9B>": 158,
    "▁fünf": 17054,
    "zös": 10795,
    "▁років": 12149,
    "▁Og": 20807,
    "ḫ": 30996,
    "types": 8768,
    "ulen": 26261,
    "▁recon": 8265,
    "▁split": 6219,
    "▁более": 13388,
    "▁fam": 5216,
    "▁triggers": 23660,
    "▁estate": 19989,
    "hmen": 28822,
    "▁neither": 9561,
    "▁GROUP": 15345,
    "XXXX": 19165,
    "▁Sommer": 22820,
    "▁King": 4088,
    "bach": 6740,
    "wehr": 21866,
    "▁nep": 23446,
    "Hello": 10994,
    "▁Hibernate": 27772,
    "▁ainsi": 8288,
    "üller": 17552,
    "<<ST_616>>": 32616,
    "▁alignment": 22239,
    "彦": 31898,
    "Now": 10454,
    "lies": 3687,
    "ongo": 7443,
    "▁require": 1996,
    "▁context": 3030,
    "mc": 14047,
    "ase": 559,
    "▁фев": 14262,
    "_\"": 27508,
    "▁experien": 10623,
    "▁Stef": 25292,
    "cess": 985,
    "▁распо": 13124,
    "esis": 6656,
    "нцикло": 18222,
    "кре": 10179,
    "ф": 30011,
    "сы": 5551,
    "▁Cheers": 29534,
    "exec": 4258,
    "▁assertion": 28306,
    "iu": 5871,
    "▁Bass": 17328,
    "apped": 17280,
    "ues": 1041,
    "ор": 1419,
    "dist": 5721,
    "戸": 31627,
    "ithmet": 17258,
    "unt": 1657,
    "▁ruolo": 24158,
    "▁areas": 10161,
    "军": 31867,
    "Op": 11746,
    "▁Tow": 22578,
    "▁Avec": 26383,
    "▁arbeit": 17782,
    "liche": 4545,
    "▁Hij": 10538,
    "▁Bek": 23461,
    "thm": 12743,
    "▁articles": 7456,
    "umbnail": 21145,
    "IZ": 26664,
    "Character": 20755,
    "▁pending": 28235,
    "ational": 1288,
    "▁código": 20280,
    "▁Canad": 9145,
    "▁Mexico": 12568,
    "hausen": 15608,
    "бере": 22996,
    "lak": 18170,
    "ushed": 15392,
    "▁Ál": 26678,
    "▁LIMIT": 27848,
    "ół": 8166,
    "▁folg": 10627,
    "▁Sydney": 16198,
    "▁Its": 8011,
    ")`,": 20362,
    "▁appar": 7132,
    "▁belong": 6852,
    "▁dim": 3964,
    "Face": 23360,
    "uniform": 29590,
    "▁IMDb": 11769,
    "▁jel": 12736,
    "▁кіль": 22254,
    "▁серед": 17560,
    "˚": 31878,
    "▁jack": 28015,
    "장": 31299,
    "▁fitting": 28221,
    "▁coun": 2613,
    "▁ob": 704,
    "aient": 10978,
    "▁Straßen": 24787,
    "className": 27542,
    "<<ST_743>>": 32743,
    "PATH": 10145,
    "ann": 812,
    "ә": 30558,
    "▁französ": 14221,
    "回": 30742,
    "▁dispon": 14458,
    "▁camb": 10625,
    "ヴ": 31270,
    "▁oft": 18941,
    "▁Thom": 4609,
    "▁configuration": 5285,
    "と": 30364,
    "▁arab": 25352,
    "ہ": 30958,
    "ździer": 23280,
    "nonumber": 13621,
    "▁UIView": 25909,
    "yrus": 29646,
    "))]": 28166,
    "Pred": 23084,
    "▁Left": 19941,
    "▁Gro": 6070,
    "к": 29951,
    "▁уче": 18107,
    "▁st": 380,
    "▁sierpnia": 27124,
    "▁szer": 12081,
    "▁regul": 24378,
    "▁university": 16372,
    "refresh": 22379,
    "usepackage": 9096,
    "▁Dezember": 7860,
    "Download": 22954,
    "▁symbol": 5829,
    "▁osób": 28275,
    "ена": 28196,
    "onie": 9599,
    "▁Campeonato": 17660,
    "▁titles": 17735,
    "Price": 13026,
    "ך": 31339,
    "▁pla": 2174,
    "White": 21823,
    "bió": 18706,
    "шего": 16771,
    "ivari": 27432,
    "▁Germ": 7287,
    "▁finit": 25921,
    "▁капи": 28850,
    "far": 15641,
    "▁Alban": 21805,
    "beta": 3571,
    "▁Would": 10878,
    "▁Catalunya": 28215,
    "consum": 25978,
    "рит": 28717,
    "ytics": 22026,
    "sdk": 15348,
    "lime": 28046,
    "▁róż": 28801,
    "object": 3318,
    "▁rien": 21181,
    "town": 27734,
    "<0xA5>": 168,
    "eters": 2699,
    "▁}}": 9156,
    "lês": 21042,
    "▁init": 2069,
    "▁Friend": 20702,
    "column": 4914,
    "▁lang": 6361,
    "▁claimed": 17049,
    "Feed": 29737,
    "▁erschien": 25316,
    "AtIndexPath": 29809,
    "zas": 16095,
    "<<ST_530>>": 32530,
    "dst": 22992,
    "▁caching": 22488,
    "▁communication": 12084,
    "▁mes": 4883,
    "▁book": 3143,
    "zerw": 15900,
    "ị": 30740,
    "érique": 20600,
    "<0xE3>": 230,
    "тов": 4820,
    "▁arrested": 24383,
    "▁lequel": 27612,
    "писан": 25736,
    "▁Seb": 13280,
    "▁Ry": 15586,
    "▁Ben": 4111,
    "▁output": 1962,
    "▁Description": 12953,
    "▁совет": 11999,
    "▁defence": 28399,
    "▁bedeut": 23477,
    "Ro": 9588,
    "task": 7662,
    "▁important": 4100,
    "affen": 19593,
    "▁toss": 28189,
    "▁hade": 18876,
    "folder": 12083,
    "▁Pick": 23868,
    "▁equip": 7462,
    "▁popol": 25272,
    "лле": 9997,
    "▁concerning": 19813,
    "▁held": 4934,
    "нина": 23508,
    "istr": 2132,
    "▁Example": 8741,
    "▁donde": 8334,
    "▁suddenly": 11584,
    ".\r": 22993,
    "▁conhe": 19028,
    "fly": 17652,
    "ator": 1061,
    "mess": 12062,
    "▁find": 1284,
    "▁Victor": 12684,
    "▁himself": 3654,
    "blockquote": 1443,
    "▁Pres": 4360,
    "udes": 8192,
    "▁wars": 29129,
    "hibernate": 12575,
    "▁ho": 5089,
    "xls": 20267,
    "▁чи": 5787,
    "own": 776,
    "ӏ": 31806,
    "▁восто": 26170,
    "<<ST_228>>": 32228,
    "érieure": 22673,
    "itas": 16628,
    "か": 30412,
    "岡": 31446,
    "ills": 6090,
    "Ant": 13448,
    "▁hace": 20470,
    "tagon": 14103,
    "▁drivers": 18563,
    "▁Mount": 8040,
    "โ": 31364,
    "Michael": 24083,
    "▁musique": 15188,
    "linewidth": 16292,
    "▁américaine": 28763,
    "INTER": 23845,
    "oteca": 19011,
    "iour": 8975,
    "▁obec": 26055,
    "alloc": 15956,
    "▁sor": 7319,
    "▁Hoch": 10955,
    "▁mant": 13694,
    "▁makes": 3732,
    "anguages": 8737,
    "▁Bird": 17777,
    "▁Town": 8421,
    "▁administ": 28777,
    "ymbol": 2789,
    "▁caracter": 15215,
    "▁оби": 27699,
    "▁прав": 16901,
    "water": 13405,
    "▁Core": 10239,
    "麻": 31846,
    "▁suggesting": 26233,
    "ńskim": 29752,
    "▁cos": 6776,
    "▁Client": 12477,
    "▁Ré": 5027,
    "▁cable": 21387,
    "▁misma": 22575,
    "fas": 13629,
    "shape": 12181,
    "Where": 11921,
    "▁før": 27462,
    "▁július": 27646,
    "Off": 6880,
    "▁switch": 4607,
    "▁Ба": 6049,
    "▁wind": 8805,
    "▁esper": 17451,
    "▁`[": 10338,
    "=\\\"": 14672,
    "池": 31853,
    "sko": 10386,
    "jpeg": 26568,
    "▁atom": 12301,
    "之": 30577,
    "aign": 8729,
    "icle": 2512,
    "Children": 19334,
    "topic": 13010,
    "▁neben": 20104,
    "▁improvements": 28473,
    "жения": 11268,
    "BASE": 25416,
    ".<": 19423,
    "▁recommendation": 29303,
    "job": 9057,
    "manual": 11288,
    "▁Gold": 6650,
    "▁augment": 18765,
    "Standard": 15449,
    "HOST": 20832,
    "://": 597,
    "ミ": 30627,
    "ging": 3460,
    "nel": 9139,
    "▁Rak": 29350,
    "▁pubblic": 10915,
    "▁Style": 22135,
    "▁Layout": 20259,
    "Lou": 20555,
    "ق": 30265,
    "▁Las": 7413,
    "riage": 9081,
    "▁divid": 25227,
    "▁lies": 12185,
    "▁Santo": 21377,
    "Gest": 22539,
    "换": 31640,
    "apping": 20304,
    "fire": 8696,
    "▁left": 2175,
    "}}^": 24251,
    "aine": 9874,
    "▁Allen": 16092,
    "▁Si": 6101,
    "▁shapes": 25834,
    "▁favor": 7853,
    "▁last": 1833,
    "ended": 2760,
    "▁anc": 10359,
    "ugel": 23756,
    "фри": 22190,
    "iot": 24414,
    "▁tweede": 27460,
    "▁Belg": 9923,
    "ция": 5274,
    "look": 6914,
    "▁issued": 16610,
    "cius": 16102,
    "▁фор": 9116,
    "▁chef": 14547,
    "бой": 18595,
    "otrop": 28467,
    "▁Bitmap": 19779,
    "chain": 14153,
    "▁Mitglied": 12704,
    "кло": 10065,
    "жение": 11567,
    "▁Види": 17384,
    "Executor": 13366,
    "dam": 16846,
    "чан": 22083,
    "▁Elis": 21279,
    "тно": 13050,
    "uso": 10648,
    "ometric": 14066,
    "quis": 7680,
    "▁vitt": 19761,
    "tree": 8336,
    "▁hyper": 11266,
    "ec": 687,
    "тай": 21821,
    "<<ST_253>>": 32253,
    "тек": 16821,
    "▁ocean": 23474,
    "▁exposed": 19884,
    "▁Jon": 9937,
    "CG": 11135,
    "▁Help": 22305,
    "▁atmos": 15489,
    "CLA": 13875,
    "无": 31352,
    "eu": 12932,
    "ozzáférés": 9147,
    "▁wonderful": 20695,
    "▁мини": 20826,
    "erna": 10989,
    "azar": 28690,
    "Ú": 30161,
    "ancing": 19985,
    "▁Past": 19793,
    "▁telep": 18846,
    "arono": 14408,
    "пера": 7682,
    ",%": 24163,
    "irs": 12935,
    "▁squ": 10674,
    "▁ve": 2453,
    "▁Коро": 24752,
    "▁consp": 21588,
    "▁Nancy": 24190,
    "▁>>>": 8653,
    "▁API": 3450,
    "json": 3126,
    "filename": 9507,
    "▁dispose": 27905,
    "тт": 27369,
    "Br": 12432,
    "liv": 17843,
    "!!": 6824,
    "▁só": 19615,
    "▁anderen": 11756,
    "▁ton": 15243,
    "▁prices": 26094,
    "Edge": 23894,
    "NB": 23189,
    "▁second": 1473,
    "▁mét": 11510,
    "bot": 7451,
    "▁Journal": 8237,
    "▁Carlo": 15021,
    "ńskiego": 22199,
    "\">": 1013,
    "▁buffer": 6835,
    "▁hit": 7124,
    "HS": 14851,
    "\\\":": 16203,
    "Upper": 26214,
    "▁tít": 12946,
    "▁Billboard": 15615,
    "global": 10945,
    "প": 31386,
    "K": 29968,
    "왕": 31996,
    "glass": 29050,
    "▁besonders": 28441,
    "ativas": 26126,
    "baum": 29602,
    "tion": 12757,
    "▁little": 2217,
    "Cons": 13696,
    "ff": 600,
    "▁amor": 24550,
    "▁iterate": 13649,
    "▁farther": 26645,
    "▁Де": 8043,
    "rar": 13678,
    "▁Masters": 27863,
    "incie": 25597,
    "<<ST_41>>": 32041,
    "InputStream": 13828,
    "ninger": 22705,
    "▁CD": 7307,
    "kte": 8190,
    "▁encuentra": 14647,
    "/*": 5515,
    ":\"": 6160,
    "+(": 17108,
    "▁reporting": 23415,
    "ового": 11913,
    "▁HE": 17714,
    "示": 30858,
    "▁arrangement": 24628,
    "▁Dit": 18978,
    "▁till": 3428,
    "ński": 10587,
    "▁structure": 3829,
    "enix": 23534,
    "▁establish": 10127,
    "▁edition": 12203,
    "▁півден": 27513,
    "▁\"\",": 12633,
    "▁Side": 19160,
    "▁saison": 12320,
    "⊥": 31316,
    "▁опреде": 20658,
    "ulations": 8250,
    "▁Kö": 9879,
    "▁led": 5331,
    "ical": 936,
    "▁\"+": 15691,
    "ält": 10905,
    "▁населения": 18670,
    "▁canción": 24174,
    "sto": 7864,
    "▁spread": 9677,
    "▁Ни": 7059,
    "oked": 12504,
    "<<ST_537>>": 32537,
    "▁Akademie": 27405,
    "▁jam": 14322,
    "њу": 23742,
    "zing": 19583,
    "▁gray": 16749,
    "▁Tsch": 27023,
    "direction": 20845,
    "kotlin": 29165,
    "ifen": 26651,
    "entlich": 11280,
    "üll": 10962,
    "▁volume": 7977,
    "rating": 29741,
    "▁primarily": 19434,
    "▁занима": 18812,
    "▁cadre": 25915,
    "-.": 28753,
    "▁Renaissance": 27263,
    "rais": 23469,
    "\");\r": 18584,
    "idents": 16719,
    "▁contradiction": 23949,
    "icans": 16708,
    "▁RewriteCond": 24935,
    "▁med": 1612,
    "<<ST_643>>": 32643,
    "hew": 13636,
    "▁incor": 6178,
    "ouvel": 9095,
    "▁offering": 27032,
    "Christ": 18687,
    "SSL": 18641,
    "À": 30113,
    "outer": 5561,
    "SOUR": 27839,
    "▁Москов": 20208,
    "анта": 28375,
    "ComboBox": 26628,
    "▁Governor": 15431,
    "▁lb": 27981,
    "piel": 6384,
    "Coll": 28377,
    "wall": 11358,
    "▁affairs": 19469,
    "▁den": 972,
    "▁CLI": 24492,
    "▁dém": 16158,
    "▁ante": 15053,
    "Layer": 14420,
    "atholic": 10047,
    "▁exclude": 19060,
    "▁lord": 18120,
    "▁ць": 19940,
    "▁SUM": 22753,
    "▁tijd": 14007,
    "amment": 10460,
    "MS": 4345,
    "初": 31120,
    "prop": 7728,
    "▁editing": 16278,
    "▁Geschichte": 7376,
    "▁minist": 9668,
    "raise": 22692,
    "ogether": 12966,
    "erca": 24340,
    "▁cela": 18729,
    "opsis": 15368,
    "join": 7122,
    "rg": 11007,
    "Con": 1168,
    "▁About": 13611,
    "▁rus": 13005,
    "▁ell": 12302,
    "avascript": 2516,
    "▁pueblo": 24742,
    "▁Rog": 9272,
    "▁+\\": 17501,
    "▁ann": 2889,
    "▁его": 5686,
    "▁subsets": 27639,
    "UTE": 26027,
    "щение": 24849,
    "associ": 21264,
    "▁synd": 22898,
    "ousel": 21299,
    "▁trunc": 21022,
    "▁commut": 26418,
    "single": 14369,
    "▁latin": 25677,
    "▁familiar": 9985,
    "▁mid": 7145,
    "ern": 824,
    "▁Moz": 18129,
    "èque": 5949,
    "▁\\)": 21811,
    "▁секре": 26198,
    "▁dub": 15416,
    "multicolumn": 14392,
    "▁largo": 21793,
    "▁fix": 2329,
    "▁parsing": 13755,
    "▁rule": 5751,
    "▁tenía": 19987,
    "▁typeof": 20086,
    "');": 2157,
    "▁closed": 5764,
    "▁bonus": 28920,
    "сок": 15689,
    "Liter": 24938,
    "▁Desp": 17214,
    "maste": 19535,
    "▁ev": 3415,
    "▁Emer": 27718,
    "▁сезо": 20366,
    "拳": 31848,
    "▁departure": 25619,
    "▁ему": 22785,
    "pace": 3535,
    "▁са": 2489,
    "⚭": 30345,
    "екси": 9896,
    "▁crypt": 24941,
    "▁crim": 15116,
    "▁aggregate": 20431,
    "▁Jr": 13843,
    "HD": 26124,
    "▁Scanner": 23412,
    "▁programmer": 27922,
    "☆": 31048,
    "Cart": 25233,
    "nę": 13256,
    "▁pseud": 19923,
    "▁unh": 28859,
    "),\\": 20481,
    "bul": 8645,
    "char": 3090,
    "▁único": 27794,
    "▁Ban": 10765,
    "level": 5563,
    "▁Rechts": 21165,
    "<<ST_65>>": 32065,
    "▁vig": 14877,
    "imore": 24325,
    "▁latach": 12525,
    "antic": 7716,
    "<0xFB>": 254,
    "▁Nie": 19166,
    "atum": 21048,
    "quired": 5958,
    "raf": 1929,
    "▁Serge": 19068,
    "▁professional": 10257,
    "}}$.": 26253,
    "▁outras": 29119,
    "zahl": 17301,
    "▁Stuart": 24710,
    "▁real": 1855,
    "<<ST_307>>": 32307,
    "▁Vic": 13423,
    "▁тре": 8847,
    "▁...": 2023,
    "▁Amer": 2163,
    "issance": 9948,
    "cs": 2395,
    "▁Such": 10506,
    "▁scal": 8716,
    "▁Can": 1815,
    "▁травня": 25726,
    "egos": 21024,
    "ب": 30177,
    "▁research": 5925,
    "<<ST_78>>": 32078,
    "emetery": 22875,
    "▁Zobacz": 28361,
    "ši": 29625,
    "▁Населення": 19837,
    "▁pt": 19592,
    "▁Ren": 7493,
    "Array": 2588,
    "SM": 17061,
    "▁Walk": 12878,
    "▁students": 8041,
    "bound": 9917,
    "umer": 4680,
    "▁new": 716,
    "What": 5618,
    "▁duties": 22204,
    "ORT": 8476,
    "Processor": 18689,
    "▁eredet": 21243,
    "▁proper": 1571,
    "jev": 18889,
    "allenge": 11768,
    "▁працю": 23595,
    "认": 31439,
    "nick": 19254,
    "IES": 29059,
    "ást": 9617,
    "▁Хронологи": 26964,
    "▁lab": 9775,
    "▁costru": 18979,
    "▁Crown": 25306,
    "▁sendo": 21324,
    "Ste": 7789,
    "uen": 3837,
    "morrow": 26122,
    "▁immediate": 16800,
    "esses": 15322,
    "▁following": 1494,
    "чник": 27944,
    "▁cloth": 13950,
    "mai": 24402,
    "ző": 9357,
    "asure": 3745,
    "lean": 14044,
    "emb": 1590,
    "▁Http": 9056,
    "▁position": 2602,
    "▁Ж": 7007,
    "stell": 6236,
    "看": 31811,
    "▁группы": 22616,
    "urope": 3214,
    "▁email": 4876,
    "__(": 12035,
    "onom": 4917,
    "原": 30667,
    "▁variety": 12875,
    "▁hundred": 6893,
    "lius": 19646,
    "▁места": 27596,
    "цю": 15692,
    "▁certificate": 12289,
    "▁chemical": 22233,
    "period": 19145,
    "zeum": 27919,
    "знача": 19894,
    "▁coding": 14137,
    "CASE": 23487,
    "став": 3843,
    "เ": 30401,
    "vano": 13288,
    "annot": 6735,
    "жан": 23211,
    "才": 31979,
    "▁période": 18108,
    "GV": 22928,
    "▁[];": 13769,
    "▁più": 5187,
    "nats": 27479,
    "llaços": 26335,
    "▁terror": 15115,
    "Allow": 15930,
    "▁portion": 11910,
    "▁успе": 19823,
    "qu": 339,
    "▁ус": 10053,
    "orno": 16378,
    "▁inference": 27262,
    "útbol": 19498,
    "sce": 22774,
    "▁prize": 26836,
    "▁Disk": 20579,
    "(\\": 1194,
    "()),": 25739,
    "▁markers": 29320,
    "▁Sprache": 29634,
    "ֹ": 30947,
    "шу": 10360,
    "cu": 4979,
    "八": 31044,
    "▁association": 15477,
    "}\\,\\": 27559,
    "▁Rect": 22914,
    "gio": 5346,
    "▁estas": 22388,
    "▁\"\";": 12942,
    "tn": 6277,
    "null": 4304,
    "▁живе": 18086,
    "▁Edwards": 29174,
    "sky": 7912,
    "bek": 16863,
    "Sender": 29615,
    "<<ST_755>>": 32755,
    "▁quartier": 29553,
    "▁Odkazy": 28263,
    "osis": 19263,
    "<<ST_678>>": 32678,
    "on": 265,
    "▁POST": 11971,
    "▁Forsch": 18611,
    "▁submission": 29240,
    "▁administration": 17517,
    "▁Е": 3337,
    "▁Dort": 19845,
    "▁EL": 14845,
    "▁reconna": 25238,
    "]=": 13192,
    "▁gates": 29341,
    "▁ore": 28074,
    "▁Alfonso": 29651,
    "▁rose": 11492,
    "Modal": 19751,
    "amente": 2503,
    "▁Ult": 18514,
    "▁Govern": 6769,
    "лев": 18226,
    "▁investig": 7405,
    "▁birds": 17952,
    "nię": 28784,
    "cc": 617,
    "ben": 1785,
    "行": 30448,
    "▁falls": 20074,
    "▁casa": 10245,
    "heim": 6391,
    "yz": 12339,
    "<0xB6>": 185,
    "▁spiritual": 20954,
    "▁филь": 13320,
    "brid": 19515,
    "都": 30769,
    "ają": 8480,
    "length": 2848,
    "▁riv": 9050,
    "нима": 7949,
    "ee": 3905,
    "▁rarely": 23703,
    "Interface": 10448,
    "Unis": 11604,
    ">/": 20690,
    "▁etwa": 10218,
    "պ": 31790,
    "Und": 25263,
    "CO": 3217,
    "н": 29921,
    "gu": 2543,
    "Iter": 13463,
    "▁Hudson": 25850,
    "uffer": 3043,
    "▁efect": 19208,
    "fail": 14057,
    "Sort": 13685,
    "▁Zusammen": 18640,
    "▁amplit": 22252,
    "uted": 3860,
    "library": 5258,
    "Rob": 21860,
    "▁Koch": 25911,
    "schap": 24010,
    "Sam": 22966,
    "bird": 18513,
    "հ": 31488,
    "▁racc": 25533,
    "▁Sche": 24478,
    "'}": 10827,
    "Nov": 25363,
    "▁жовтня": 25460,
    "▁nave": 21102,
    "Fetch": 20927,
    "oter": 17084,
    "<<ST_409>>": 32409,
    "▁pint": 16483,
    "▁Архив": 23069,
    "zyst": 25759,
    "Order": 7514,
    "AND": 9468,
    "blogs": 25762,
    "region": 12803,
    "▁impact": 10879,
    "ровой": 26537,
    "▁~[": 18173,
    "germeister": 25382,
    "▁society": 12459,
    "refer": 20275,
    "Score": 20097,
    "▁close": 3802,
    "overn": 6170,
    "▁desert": 18197,
    "▁esterni": 7683,
    "File": 2283,
    "▁catalog": 16653,
    "▁twenty": 10081,
    "про": 5945,
    "lation": 18411,
    "∪": 30862,
    "▁families": 13175,
    "▁maintenance": 25413,
    "ror": 729,
    "▁пло": 11366,
    "▁ingår": 6723,
    "ży": 7558,
    "▁которые": 15261,
    "▁margin": 5906,
    "lau": 25855,
    "▁fee": 27684,
    "learning": 21891,
    "▁onto": 11480,
    "<<ST_624>>": 32624,
    "Draw": 8537,
    "zs": 22381,
    "̍": 31891,
    "▁words": 3838,
    "▁awarded": 15074,
    "▁struggling": 20042,
    "▁Fland": 29666,
    "▁них": 15904,
    "▁RewriteRule": 23582,
    "<<ST_36>>": 32036,
    "ة": 30242,
    "assador": 28760,
    "▁factors": 13879,
    "OC": 20166,
    "ilda": 25949,
    "vari": 5927,
    "च": 31132,
    "дія": 22749,
    "ン": 30203,
    "<<ST_280>>": 32280,
    "▁East": 6932,
    "▁puzz": 20285,
    "▁Air": 5593,
    "indent": 12860,
    "bytes": 13193,
    "स": 30489,
    "жной": 25385,
    "▁superficie": 20866,
    "тие": 18380,
    "▁információ": 24814,
    "üt": 6621,
    "▁Award": 7526,
    "mathchar": 22823,
    "▁equally": 18018,
    "յ": 30657,
    "▁Pero": 28608,
    "ético": 23284,
    "ibe": 18673,
    "ṇ": 30565,
    "▁Verm": 17589,
    "▁secre": 22183,
    "▁interpretation": 19854,
    "▁NGC": 13928,
    "▁front": 4565,
    "ників": 18985,
    "▁gen": 2531,
    "Drawable": 26945,
    "▁clean": 5941,
    "▁restriction": 24345,
    "이": 30393,
    "itul": 14193,
    "▁puts": 15223,
    "▁appreciate": 11188,
    "ctic": 20009,
    "RU": 28283,
    "▁Real": 8195,
    "env": 6272,
    "站": 31433,
    "Ha": 24704,
    "OH": 23170,
    "▁dedicated": 16955,
    "▁Queens": 18909,
    "aza": 19924,
    "▁République": 21919,
    "▁выше": 27252,
    "▁Johnson": 11717,
    "▁Dist": 6652,
    "uola": 29568,
    "rm": 1758,
    "па": 1843,
    "▁Алек": 23225,
    ";": 29936,
    "▁möglich": 25959,
    "▁sched": 28598,
    "스": 30784,
    "▁demon": 8033,
    "eggi": 28137,
    "Prom": 18571,
    "Member": 13404,
    "ación": 2709,
    "äischen": 27334,
    "▁Rudolf": 19027,
    "▁Aud": 8612,
    "ÿ": 30370,
    "ence": 663,
    "ヒ": 31251,
    "conde": 15973,
    "▁embedded": 15685,
    "nit": 26129,
    "▁północ": 28158,
    "kern": 22178,
    "▁it": 372,
    "clean": 14941,
    "hé": 19880,
    "▁подацима": 24401,
    "oda": 8887,
    "una": 4347,
    "▁год": 10477,
    "▁interpreted": 21551,
    "▁solemn": 26384,
    "jm": 21231,
    "San": 22509,
    "▁vulner": 23180,
    "while": 8000,
    "Mount": 27648,
    "▁Scient": 23753,
    "America": 29048,
    "<0x84>": 135,
    "▁trem": 14586,
    "▁secondary": 16723,
    "<0x81>": 132,
    "annte": 16383,
    "▁terrible": 16403,
    "▁batch": 9853,
    "`}": 26357,
    "▁Maria": 6217,
    "▁Co": 3189,
    "▁cx": 28232,
    "▁unix": 28167,
    "schluss": 19791,
    "▁paper": 5650,
    "▁persistent": 28152,
    "▁которой": 20935,
    "▁automatic": 18428,
    "тии": 18258,
    "命": 31237,
    "么": 31882,
    "dropdown": 19305,
    "iedz": 16426,
    "▁Mitglieder": 29864,
    "▁matplotlib": 22889,
    "▁kein": 23943,
    "▁Usually": 26991,
    "%).": 28003,
    "helm": 9421,
    "ltal": 26674,
    "Infl": 15403,
    "▁reform": 11736,
    "▁послед": 17235,
    "Mail": 14925,
    "▁pygame": 22028,
    "Pixel": 29637,
    "xs": 10351,
    "header": 6672,
    "▁seem": 2833,
    "▁siège": 27678,
    "▁historia": 14768,
    "▁Zug": 24698,
    "asta": 5427,
    "bres": 16105,
    "▁This": 910,
    "pid": 5935,
    "<<ST_132>>": 32132,
    "▁=\\": 17313,
    "▁pat": 2373,
    "竹": 31709,
    "▁карь": 25560,
    " ": 30262,
    "▁platforms": 21796,
    "▁först": 18073,
    "ferrer": 3735,
    "esto": 4778,
    "itted": 4430,
    "▁Adam": 11783,
    "▁zo": 8534,
    "▁accessing": 17378,
    "▁subt": 12059,
    "edia": 1381,
    "▁marker": 17456,
    "▁libraries": 9562,
    "▁territorio": 19808,
    "▁papers": 15055,
    "▁aller": 16454,
    "▁ain": 7216,
    "▁Hus": 24287,
    "▁R": 390,
    "hover": 13194,
    "▁Ich": 15158,
    "▁golden": 22843,
    "irc": 2076,
    "okal": 14599,
    "▁Israel": 11996,
    "▁manner": 8214,
    "kr": 12748,
    "軍": 31363,
    "▁terminal": 8638,
    "▁travel": 9850,
    "▁versus": 23797,
    "▁Message": 7777,
    "oemd": 26852,
    "▁población": 13172,
    "▁Hamburg": 14847,
    "▁evident": 13602,
    "▁également": 8648,
    "▁trailing": 25053,
    "▁Occ": 16117,
    "sal": 19585,
    "▁Chi": 18168,
    "mobile": 16769,
    "lament": 12598,
    "FALSE": 25717,
    "▁allen": 15832,
    "și": 3809,
    "Č": 30108,
    "▁вер": 8060,
    "wich": 16416,
    "Limit": 24445,
    "▁tak": 1850,
    "▁neighb": 22092,
    "зи": 1916,
    "▁cutting": 28967,
    "рода": 24283,
    "▁northern": 14622,
    "vice": 1087,
    "▁keeping": 12515,
    "pisode": 12907,
    "into": 8941,
    "▁tip": 6872,
    "▁rare": 10812,
    "<<ST_411>>": 32411,
    "Kar": 24115,
    "▁targets": 22525,
    "working": 22899,
    "arguments": 25699,
    "▁Param": 12662,
    "ो": 30799,
    "▁Совет": 19023,
    "setopt": 28393,
    "▁stating": 23659,
    "▁Black": 6054,
    "▁livre": 20207,
    "Items": 6913,
    "gens": 17397,
    "▁alk": 29827,
    "achine": 2945,
    "GROUP": 26284,
    "ény": 7125,
    "Ptr": 12058,
    "▁class": 770,
    "EQ": 28879,
    "▁porta": 23344,
    "▁моря": 28922,
    "▁occur": 6403,
    "▁Bahn": 15131,
    "getElementsBy": 22266,
    "град": 15760,
    "▁consume": 29151,
    "从": 31594,
    "▁людей": 25787,
    "œuv": 13753,
    "lex": 2506,
    "▁'',": 15516,
    "▁Conserv": 15312,
    "▁Greece": 25549,
    "Region": 18457,
    "▁ps": 6529,
    "sqlite": 22793,
    "▁Wrest": 18722,
    "▁DJ": 23366,
    "▁fool": 17928,
    "YES": 21143,
    "▁tm": 27702,
    "<<ST_617>>": 32617,
    "▁être": 7848,
    "则": 31403,
    "▁Z": 796,
    "ա": 30251,
    "▁functionality": 9863,
    "▁behaviour": 10468,
    "▁fast": 5172,
    "▁weiteren": 24632,
    "▁Bl": 3164,
    "ひ": 31287,
    "▁super": 2428,
    "Gu": 9485,
    "admin": 6406,
    "Hy": 26322,
    "▁Antonio": 9630,
    "▁destac": 18583,
    "▁W": 399,
    "brary": 2456,
    "▁str": 851,
    "\\%": 8958,
    "essions": 10964,
    "▁suic": 23921,
    "▁aged": 26552,
    "ças": 19846,
    "▁Notices": 16709,
    "ako": 4614,
    "▁eredetiből": 27900,
    "▁fixing": 27826,
    "(.*": 28104,
    "▁Sloven": 24917,
    ",\r": 11167,
    "Anchor": 24458,
    "<<ST_345>>": 32345,
    "late": 9632,
    "−": 30120,
    "▁сто": 7349,
    "▁Fed": 17972,
    "recht": 15320,
    "▁PRIMARY": 29778,
    "äs": 6373,
    "▁apo": 16798,
    "Ś": 30127,
    "▁több": 22654,
    "し": 30326,
    "sqrt": 3676,
    "▁ere": 14737,
    "рой": 6318,
    "▁author": 4148,
    "Pack": 16638,
    "enum": 18605,
    "▁praw": 20467,
    "qual": 15380,
    "▁arrive": 18331,
    "▁lib": 4303,
    "▁clock": 12006,
    "ар": 1515,
    "▁май": 18063,
    "fade": 21675,
    "SG": 26016,
    "esar": 26892,
    "間": 31069,
    "生": 30486,
    "▁dels": 7195,
    "<<ST_229>>": 32229,
    "▁equipo": 15434,
    "êm": 19553,
    "oding": 3689,
    "est": 342,
    "<<ST_27>>": 32027,
    "▁Pakistan": 21215,
    "ätt": 11204,
    "ikal": 23587,
    "allas": 15892,
    "▁including": 3704,
    "▁lookup": 16280,
    "stylesheet": 13558,
    "▁hon": 4207,
    "asp": 4692,
    "<0x11>": 20,
    "amentos": 26376,
    "сня": 20703,
    "iver": 2147,
    "Create": 4391,
    "▁podczas": 25684,
    "▁Company": 6938,
    "▁locate": 26694,
    "▁Bol": 8922,
    "▁either": 2845,
    "боль": 22451,
    "ả": 30643,
    "ROOT": 21289,
    "▁Rail": 9620,
    "▁тако": 8826,
    "▁Reserve": 27811,
    "▁unders": 23400,
    "▁sacred": 26546,
    "▁stem": 20805,
    "▁mart": 14436,
    "ей": 3215,
    "▁extra": 4805,
    "▁conditions": 5855,
    "fic": 9639,
    "ibrary": 6357,
    "▁Lista": 13701,
    "▁die": 762,
    "ň": 30146,
    "▁Йо": 28568,
    "ése": 10237,
    "utes": 2667,
    "▁strict": 9406,
    "▁nuevo": 15671,
    "보": 31199,
    "raste": 27364,
    "▁archiválva": 27914,
    "omen": 2770,
    "▁nagy": 18338,
    "rock": 20821,
    "▁получил": 21250,
    "pre": 1457,
    "kirche": 22132,
    "▁Bridge": 16230,
    "uzione": 14285,
    "í": 29983,
    "▁Once": 9038,
    "▁usually": 5491,
    "./": 6904,
    "建": 30886,
    "commons": 22382,
    "▁▁▁▁▁▁▁▁▁": 3986,
    "sg": 5311,
    "дия": 18000,
    "▁minute": 11015,
    "▁seulement": 23422,
    "▁Stevens": 26287,
    "▁jeune": 17222,
    "icul": 12906,
    "▁mut": 5478,
    "<0x70>": 115,
    "▁GC": 19983,
    "kb": 21066,
    "nederbörd": 28633,
    "▁gior": 17030,
    "Single": 15771,
    "unci": 11173,
    "ulla": 21797,
    "▁label": 3858,
    "▁militaire": 20177,
    "itis": 23448,
    "∞": 30306,
    "▁eq": 11594,
    "聖": 31581,
    ")=\\": 7950,
    "events": 13604,
    "...]": 17361,
    "▁lose": 14074,
    "hem": 8008,
    "lade": 23373,
    "▁Battalion": 27841,
    "bos": 27737,
    "▁Є": 14277,
    "бли": 5116,
    "▁[\\": 12452,
    "Self": 24313,
    "백": 31989,
    "ья": 14252,
    "▁Much": 18927,
    "▁исполь": 11628,
    "<0x48>": 75,
    "▁september": 18251,
    "té": 6772,
    "annten": 27109,
    "▁hundreds": 21006,
    "Media": 10572,
    "▁проис": 23061,
    "▁plate": 15284,
    "ns": 1983,
    "▁referencing": 29371,
    "<<ST_410>>": 32410,
    "ital": 2410,
    "▁Zent": 16607,
    "府": 31260,
    "▁neigh": 7152,
    "thread": 7097,
    "ক": 30995,
    "▁Tul": 27415,
    "▁slice": 22780,
    "transition": 20543,
    "eri": 13613,
    "ově": 27519,
    "lings": 18964,
    "зь": 8904,
    "gz": 18828,
    "▁dip": 28191,
    "▁dinner": 17803,
    "▁John": 2259,
    "ario": 2628,
    "▁televis": 11784,
    "▁Pseud": 21286,
    "▁quien": 14310,
    "ument": 942,
    "Ț": 30384,
    "пени": 25958,
    "⊙": 30738,
    "ért": 15491,
    "▁фамили": 18147,
    "▁Nederland": 13652,
    "▁briefly": 23359,
    "rom": 456,
    "ppel": 17344,
    "▁informed": 23388,
    "ennessee": 21539,
    "▁sens": 4771,
    "<<ST_629>>": 32629,
    "ardin": 21473,
    "▁FK": 28682,
    "▁tres": 9941,
    "∈": 30264,
    "▁const": 1040,
    "hind": 16887,
    "ouest": 20013,
    "▁Schutz": 27651,
    "▁achieved": 14363,
    "ред": 4715,
    "▁Camera": 24321,
    "▁approach": 2948,
    "▁Rol": 8731,
    "▁diretto": 28856,
    "uses": 6394,
    "tain": 2408,
    "▁Ис": 23695,
    "▁miembros": 29406,
    "<0x7D>": 128,
    "wick": 6669,
    "){\\": 21964,
    "Lab": 28632,
    "amer": 4183,
    "▁fur": 3261,
    "enn": 2108,
    "▁stad": 10728,
    "ims": 9893,
    "▁Tamb": 11893,
    "}).": 7690,
    "▁¿": 18613,
    "only": 6194,
    "ус": 22375,
    "▁toda": 20223,
    "▁Lage": 24531,
    "py": 2272,
    "▁specification": 21992,
    "▁Dob": 21451,
    "чий": 28140,
    "▁estimate": 12678,
    "uli": 14549,
    "▁тру": 17902,
    "шо": 10093,
    "▁Müller": 22226,
    "omorph": 7886,
    "кол": 28168,
    "▁REST": 16759,
    "een": 27294,
    "iem": 3768,
    "duct": 2199,
    "aires": 7147,
    "▁Console": 9405,
    "▁decide": 11097,
    "ственно": 22934,
    "▁stopping": 25480,
    "▁реда": 16537,
    "pta": 28363,
    "▁Википеди": 19330,
    "▁Fernando": 17993,
    "<<ST_756>>": 32756,
    "BA": 5688,
    "▁Android": 5669,
    "▁Резу": 22443,
    "afen": 24088,
    ">>": 6778,
    "▁fall": 6416,
    "▁Will": 2811,
    "▁се": 1586,
    "▁samen": 22596,
    "▁Фе": 19477,
    "DD": 7858,
    "mem": 6954,
    "▁(?": 22308,
    "▁AN": 13764,
    "면": 31747,
    "aged": 4063,
    "▁Rec": 3599,
    "яви": 13060,
    "▁woll": 27007,
    "▁Mont": 4526,
    "ieving": 15387,
    "▁rich": 8261,
    "▁scenes": 20407,
    "▁Bruno": 20975,
    "▁Kreis": 17254,
    "$\\": 4535,
    "Demo": 23444,
    "▁explains": 18568,
    "▁бро": 12441,
    "ettings": 7409,
    "▁Six": 18372,
    "▁estadounidense": 18995,
    "▁infinitely": 29047,
    "▁open": 1722,
    "Doc": 14526,
    "ску": 6903,
    "▁кон": 3920,
    "▁agreement": 17327,
    "▁Application": 8427,
    "methods": 23515,
    "developers": 17426,
    "argent": 23641,
    "▁chang": 1874,
    "▁Нов": 27527,
    "many": 13011,
    "▁indirect": 26377,
    "🌍": 31494,
    "enen": 6537,
    "▁botan": 24662,
    "illo": 9093,
    "ansas": 13353,
    "éon": 25403,
    "het": 9188,
    "▁curios": 20301,
    "(*": 10456,
    "▁poi": 11899,
    "ArrayList": 20165,
    "▁pole": 22775,
    "reen": 2733,
    "™": 30536,
    "▁beat": 16646,
    "aris": 12260,
    "community": 23834,
    "WID": 19292,
    "Institut": 24985,
    "▁wisdom": 29714,
    "▁remember": 6456,
    "▁Steve": 13981,
    "▁repo": 13761,
    "▁occasion": 10039,
    "▁years": 2440,
    "げ": 31991,
    "owed": 20937,
    "Մ": 31575,
    "ര": 30623,
    "▁Championship": 8972,
    "▁category": 7663,
    "▁tir": 19493,
    "▁Inga": 7819,
    "(...": 19327,
    "follow": 23031,
    "▁CO": 4810,
    "reference": 5679,
    "▁Пре": 7127,
    "people": 25719,
    "▁часть": 17265,
    "▁Shakespe": 22476,
    "会": 30437,
    "report": 12276,
    "▁++": 8445,
    "erte": 24983,
    "▁nazw": 28092,
    "ifecycle": 22532,
    "学": 30415,
    "<<ST_522>>": 32522,
    "▁prevent": 5557,
    "sm": 3844,
    "▁numeric": 16985,
    "▁keeps": 14874,
    "▁Mission": 18971,
    "box": 1884,
    "plot": 5317,
    "estone": 27744,
    "▁Room": 25114,
    "▁Ме": 7074,
    "ARN": 15249,
    "qué": 17851,
    "▁Ehren": 26728,
    "<<ST_93>>": 32093,
    "▁Bool": 18912,
    "рии": 5887,
    "<<ST_167>>": 32167,
    "Fail": 16243,
    "▁Three": 12753,
    "▁empres": 24653,
    "▁unos": 22660,
    "▁Mix": 23478,
    "▁begin": 3380,
    "⁻": 30760,
    "<<ST_677>>": 32677,
    "▁introduction": 18707,
    "▁Mold": 27140,
    "▁pray": 12475,
    "▁lyr": 26627,
    "ী": 31595,
    "сте": 4267,
    "▁giving": 6820,
    "▁Wis": 15756,
    "▁death": 4892,
    "htaccess": 21294,
    "▁Mechan": 27439,
    "▁packet": 18203,
    "▁cin": 4670,
    "Driver": 12376,
    "▁<-": 3705,
    "▁conjunto": 26949,
    "▁gy": 10966,
    "▁propor": 24719,
    "首": 31688,
    "▁Captain": 10842,
    "▁Ét": 9769,
    "bib": 18508,
    "under": 5062,
    "pressed": 13120,
    "▁rang": 19120,
    "ności": 11997,
    "▁durch": 3494,
    "Y": 29979,
    "Ἰ": 31726,
    "zeit": 6665,
    "<<ST_548>>": 32548,
    "ath": 493,
    "ï": 30085,
    "nell": 18437,
    "Level": 10108,
    "▁quindi": 19671,
    "▁Rewrite": 11598,
    "icator": 20485,
    "多": 30923,
    "▁То": 7624,
    "Der": 15383,
    "laravel": 29787,
    "▁dispute": 28447,
    "▁tuple": 18761,
    "<<ST_662>>": 32662,
    "▁rest": 1791,
    "icio": 11088,
    "fff": 18725,
    "⁷": 30749,
    "비": 31487,
    "Wikimedia": 7626,
    "▁Buc": 22987,
    "▁кам": 28689,
    "▁altogether": 19148,
    "▁govern": 4095,
    "▁Emb": 28735,
    "▁Warsza": 12999,
    "Position": 8003,
    "▁Publications": 22865,
    "Loading": 23456,
    "▁tanto": 12264,
    "enst": 25059,
    "▁shift": 9500,
    "клад": 18191,
    "▁Production": 19561,
    "▁zespo": 29679,
    "▁Fire": 6438,
    "tabular": 9456,
    "▁conna": 17043,
    "ignon": 29582,
    "ype": 668,
    "Search": 7974,
    "acs": 16815,
    "scheidung": 16606,
    "<<ST_297>>": 32297,
    "iven": 5428,
    "▁finger": 19917,
    "zm": 14018,
    "▁Play": 7412,
    "▁Academia": 26336,
    "▁gradually": 22020,
    "▁хозяй": 29232,
    "▁Kon": 5250,
    "langle": 6990,
    "▁Exper": 28224,
    "City": 16885,
    "▁lady": 11379,
    "▁Module": 15591,
    "vity": 17037,
    "▁fi": 5713,
    "▁guard": 8372,
    "Ét": 22353,
    "Management": 27107,
    "eff": 12352,
    "▁Null": 19014,
    "▁estado": 12082,
    "▁й": 7269,
    "▁Dra": 16322,
    "<<ST_722>>": 32722,
    "Touch": 15852,
    "▁Brad": 15862,
    "стей": 25854,
    "ช": 30913,
    "▁ground": 5962,
    "VICE": 19059,
    "▁efficient": 8543,
    "▁product": 3234,
    "▁castle": 20610,
    "intro": 23333,
    "▁Estados": 9702,
    "▁'": 525,
    "зви": 22246,
    "mund": 15282,
    "ível": 24747,
    "ig": 335,
    "▁ges": 6300,
    "évrier": 10064,
    "▁sensible": 25182,
    "pling": 10335,
    "wirtschaft": 20402,
    "▁Epis": 20981,
    "▁ke": 1589,
    "▁Ste": 2443,
    "网": 31222,
    "||": 8876,
    "▁\"\\<": 20770,
    "ára": 14684,
    "norm": 12324,
    "▁.=": 16295,
    "rt": 2273,
    "Cell": 4617,
    "upper": 21064,
    "▁profess": 25718,
    "anim": 11576,
    "sz": 3616,
    "▁antes": 12971,
    "▁города": 13867,
    "▁Arbeits": 24966,
    "▁Jess": 23010,
    "▁propriet": 24440,
    "▁math": 5844,
    "laps": 14128,
    "voy": 18644,
    "‍": 30722,
    "▁exem": 11875,
    "any": 1384,
    "ൾ": 31625,
    "skog": 24686,
    "▁anger": 27343,
    "▁Ä": 11585,
    "▁Gene": 15350,
    "ION": 2725,
    "bundle": 16718,
    "▁чолові": 21316,
    "▁ры": 25853,
    "▁Palace": 24537,
    "////////////////": 19511,
    "▁ни": 7380,
    "▁informations": 19313,
    "iday": 22394,
    ">::": 21347,
    "▁erfolgte": 23982,
    "▁miejscowo": 23046,
    "▁distribution": 4978,
    "znam": 17706,
    "бур": 9845,
    "ɪ": 30312,
    "uel": 2491,
    "：": 30383,
    "▁trib": 9434,
    "▁sans": 7209,
    "▁approaching": 28702,
    "▁CBS": 29589,
    "▁mir": 10078,
    "ross": 2124,
    "ened": 6419,
    "Comm": 5261,
    "iedenis": 28440,
    "▁december": 13034,
    "▁universal": 15968,
    "▁Spr": 14314,
    "ños": 15701,
    "▁Anna": 11230,
    "ès": 2093,
    "▁zde": 24711,
    "нение": 16990,
    "▁D": 360,
    "cole": 10936,
    "▁externas": 18083,
    "Host": 8514,
    "gru": 7108,
    "yn": 948,
    "▁serv": 3348,
    "ющи": 6443,
    "▁persones": 22994,
    "ánt": 25258,
    "cció": 19103,
    "▁fitted": 25890,
    "ulating": 18099,
    "windows": 10499,
    "compatible": 23712,
    "▁США": 11378,
    "▁transformed": 27615,
    "телей": 11572,
    "▁года": 2336,
    "▁off": 1283,
    "▁dann": 7885,
    "▁där": 17032,
    "▁поли": 10595,
    "▁Denkmal": 23790,
    "▁remained": 9488,
    "♭": 30771,
    "▁hasta": 8012,
    "handle": 8411,
    "▁windows": 5417,
    "warn": 25442,
    "▁å": 9174,
    "▁Mark": 4485,
    "▁Kreuz": 24393,
    "▁interact": 16254,
    "▁Mih": 29281,
    "▁Tal": 10288,
    "改": 31264,
    "<<ST_324>>": 32324,
    "<<ST_218>>": 32218,
    "▁mon": 1601,
    "▁customer": 11962,
    "ativa": 8657,
    "▁just": 925,
    "▁viene": 10755,
    "have": 17532,
    "▁weg": 20669,
    "▁области": 9308,
    "▁Bür": 15455,
    "▁rozp": 22852,
    "Router": 23971,
    "<<ST_438>>": 32438,
    "월": 31950,
    "зм": 21346,
    "ictionary": 4334,
    "▁États": 12503,
    "<<ST_493>>": 32493,
    "▁Young": 10443,
    "subst": 22492,
    "▁Gen": 5739,
    "atro": 7816,
    "rien": 19112,
    "▁auc": 20480,
    "▁Driver": 26391,
    "▁Alexand": 13878,
    "rep": 3445,
    "commit": 15060,
    "▁partition": 8877,
    "scripts": 16713,
    "mapping": 20698,
    "▁Entertain": 17465,
    "Widget": 8801,
    ".\");": 18327,
    "▁ATP": 27884,
    "▁Stein": 14808,
    "frak": 7016,
    "▁строи": 22493,
    "ě": 30036,
    "welt": 20581,
    "getMessage": 28983,
    "ience": 5597,
    "共": 31611,
    "orted": 18054,
    "azionale": 24916,
    "Profile": 13909,
    "▁octubre": 8644,
    "vir": 2405,
    "▁▁": 259,
    "▁рас": 7421,
    "ulus": 14999,
    "码": 31183,
    "opf": 15818,
[...]
