{
  "vocab": {
    "iges": 13541,
    "logger": 21707,
    "aden": 4858,
    "▁stays": 27111,
    "▁your": 596,
    "lą": 28835,
    "entials": 9409,
    "▁downloading": 28536,
    "▁elim": 29007,
    "▁development": 5849,
    "角": 31432,
    "arden": 7879,
    "▁heute": 12843,
    "▁insect": 17564,
    "quest": 1119,
    "▁commune": 7096,
    "▁так": 4553,
    "irth": 7515,
    "▁manifold": 25941,
    "▁Who": 11644,
    "Trace": 11591,
    "▁vere": 24269,
    "jboss": 22788,
    "erv": 6972,
    "flow": 1731,
    "▁répond": 25497,
    "scribe": 13086,
    "▁lower": 5224,
    "тся": 7489,
    "ɵ": 31890,
    "ubuntu": 8767,
    "▁груп": 10841,
    "icha": 24227,
    "▁anno": 12327,
    "▁jeu": 18308,
    "schaft": 2809,
    "ängen": 21644,
    "▁Orient": 29650,
    "▁Come": 16760,
    "<<ST_193>>": 32193,
    "▁carrière": 20428,
    "▁genus": 16106,
    "▁tim": 5335,
    "▁simplified": 20875,
    "▁atac": 26730,
    "▁муниципа": 26574,
    "<<ST_468>>": 32468,
    "▁Edward": 9300,
    "dart": 11353,
    "слен": 21335,
    "▁сы": 14295,
    "▁настоя": 25737,
    "▁discipline": 29822,
    "der": 672,
    "▁trivial": 12604,
    "Push": 27031,
    "XXXX": 19165,
    "ask": 1278,
    "▁doors": 24189,
    "▁Result": 7867,
    "▁—": 813,
    "▁destroyed": 14416,
    "órico": 26013,
    ",(": 22657,
    "drag": 20515,
    "▁distrito": 21418,
    "▁]": 4514,
    "еде": 10543,
    "št": 8925,
    "СР": 7350,
    "▁Bas": 4886,
    "isseur": 25490,
    "ablo": 17877,
    "▁среди": 19927,
    "<<ST_275>>": 32275,
    "elf": 761,
    "rich": 4018,
    "Pol": 7713,
    "▁date": 2635,
    "▁Bruce": 18885,
    "IND": 22255,
    "支": 31541,
    "▁representing": 15783,
    "▁бе": 9648,
    "MC": 12513,
    "łod": 25073,
    "▁seeing": 8790,
    "ienst": 11271,
    "picker": 13908,
    "▁appreciated": 7556,
    "Col": 1625,
    "cent": 1760,
    "update": 5504,
    "Cmd": 23651,
    "▁percent": 10151,
    "▁schwer": 27173,
    "▁whitespace": 24358,
    "▁eerst": 9720,
    "▁whites": 18960,
    "▁respons": 5544,
    "antic": 7716,
    "가": 30903,
    "▁parameters": 4128,
    "▁Véase": 17866,
    "▁einer": 3422,
    "eme": 2004,
    "▁Ass": 4007,
    "vo": 1365,
    "/*": 5515,
    "волю": 19654,
    "TRUE": 20652,
    "text": 726,
    "нії": 21902,
    "▁regnigaste": 28653,
    "▁econ": 20490,
    "ת": 30286,
    "▁hell": 23927,
    "▁Kö": 9879,
    "allowed": 24622,
    "陈": 31862,
    "▁mental": 19119,
    "underline": 15614,
    "it": 277,
    "▁мы": 26907,
    "Other": 16107,
    "▁Giorg": 25906,
    "▁equivalence": 24796,
    "änd": 3140,
    "cipl": 13326,
    "I": 29902,
    "▁rear": 18983,
    "▁hex": 15090,
    "▁scores": 19435,
    "▁Gaz": 15853,
    "▁ву": 18270,
    "views": 7406,
    "aro": 8854,
    "▁време": 26958,
    "▁eller": 12834,
    "western": 22741,
    "▁Borg": 20918,
    "▁referred": 12992,
    "▁IO": 10663,
    "<<ST_756>>": 32756,
    "ぶ": 31782,
    "▁cit": 7537,
    "apper": 23239,
    "tat": 8101,
    "▁yesterday": 22600,
    "▁proportional": 29839,
    "у": 29960,
    "ig": 335,
    "λ": 30142,
    "▁presented": 9132,
    "iego": 9383,
    "Wrapper": 15646,
    "OB": 14824,
    "▁apolog": 27746,
    "soap": 21993,
    "UserName": 28129,
    "▁proof": 5296,
    "▁weeks": 11405,
    "▁inheritance": 20328,
    "omas": 18902,
    "▁projet": 15744,
    "▁Water": 13062,
    "▁recent": 7786,
    "▁redirect": 6684,
    "▁credentials": 16140,
    "lecht": 28941,
    "▁deput": 20723,
    "Update": 6422,
    "urm": 17095,
    "Mal": 22995,
    "▁reduce": 10032,
    "è": 30000,
    "PC": 9026,
    "▁reliable": 23279,
    "▁apo": 16798,
    "XXX": 22791,
    "▁Depuis": 28266,
    "▁Arbeits": 24966,
    "▁includ": 2171,
    "esk": 8488,
    "▁Effect": 26475,
    "ijst": 28793,
    "题": 31596,
    "▁ow": 8152,
    "▁König": 9731,
    "序": 31463,
    "▁raggi": 21359,
    "thm": 12743,
    "▁Power": 9206,
    "▁relacion": 19727,
    "▁HMS": 23273,
    "Constructor": 23770,
    "▁Nicol": 13488,
    "▁Found": 7460,
    "roduction": 13210,
    "▁\"(": 18227,
    "ords": 4339,
    "▁loro": 9905,
    "▁có": 28810,
    "arod": 11160,
    "▁latter": 7480,
    "▁bo": 1045,
    "ru": 582,
    "ąd": 22881,
    "mk": 11256,
    "▁Wille": 26173,
    "guer": 26880,
    "▁squadra": 22546,
    "▁Define": 22402,
    "oto": 3747,
    "ASC": 28599,
    "▁quanto": 18600,
    "▁Patrick": 14875,
    "ôt": 9373,
    ">\\": 14247,
    "ifts": 17741,
    "▁appears": 5692,
    "▁northern": 14622,
    "▁Korea": 19109,
    "▁improvements": 28473,
    "spot": 17500,
    "opt": 3670,
    "leans": 25210,
    "▁represent": 2755,
    "substring": 20363,
    "hen": 3169,
    "<<ST_144>>": 32144,
    "▁change": 1735,
    "▁Kill": 29021,
    "▁тер": 10539,
    "olg": 22991,
    "▁accus": 26142,
    "rup": 17827,
    "schluss": 19791,
    "▁exports": 29586,
    "▁stagione": 15876,
    "▁horses": 15100,
    "▁INSERT": 14482,
    "sil": 25590,
    "▁bei": 2862,
    "Z": 29999,
    "dom": 3129,
    "skiej": 8779,
    "▁versch": 8038,
    "ión": 3175,
    "lection": 1464,
    "urer": 9945,
    "▁Zealand": 13450,
    "▁Federal": 14879,
    "▁conv": 7602,
    "▁particles": 17105,
    "▁linker": 29060,
    "▁prominent": 19555,
    "Save": 11371,
    "▁flesh": 28610,
    "▁livre": 20207,
    "imation": 7715,
    "vt": 21908,
    "▁fewer": 28145,
    "}/": 6822,
    "▁into": 964,
    "▁Graphics": 29247,
    "▁becomes": 7415,
    "messages": 19158,
    "▁huvudstaden": 24097,
    "ActivityThread": 15746,
    "▁poison": 27908,
    "alling": 27855,
    "▁factory": 12529,
    "place": 6689,
    "▁dump": 16766,
    "mx": 16838,
    "▁judgment": 24284,
    "гласно": 23405,
    "ny": 1460,
    "EE": 17896,
    "▁Gust": 12512,
    "bold": 8934,
    "<<ST_421>>": 32421,
    "onna": 11586,
    "▁categoría": 16512,
    "▁lib": 4303,
    "persistence": 28249,
    "▁populate": 19450,
    "▁calcul": 3408,
    "▁Fir": 14152,
    "iens": 11689,
    "hadoop": 22075,
    "▁xx": 15473,
    "%=": 12222,
    "neur": 16115,
    "▁differ": 1163,
    "Mar": 7083,
    "▁является": 14367,
    "▁act": 1044,
    "▁viz": 25294,
    "▁surpr": 11468,
    "=\"${": 19070,
    "proxy": 14701,
    "▁неза": 18972,
    "ola": 2963,
    "city": 12690,
    "писан": 25736,
    "▁като": 12041,
    "▁recursive": 16732,
    "water": 13405,
    "▁González": 25862,
    "viders": 29454,
    "▁Musical": 28554,
    "▁Forest": 17300,
    "▁Norwegian": 27990,
    "▁progetti": 7188,
    "cl": 695,
    "iness": 3335,
    "ftware": 14093,
    "▁heutigen": 29509,
    "richtung": 27022,
    "▁tym": 13110,
    ".<": 19423,
    "▁ring": 9228,
    "▁rendered": 13751,
    "ginx": 16237,
    "‖": 31523,
    "▁бан": 24391,
    "▁polit": 2832,
    "<<ST_617>>": 32617,
    "▁servir": 28644,
    "▁hinaus": 28545,
    "<0x7A>": 125,
    "≫": 31089,
    "zas": 16095,
    "fram": 22328,
    "nil": 8834,
    "ција": 18388,
    "▁gave": 4846,
    "▁logo": 20194,
    "▁Evangel": 21827,
    "▁headers": 9066,
    "▁`\\": 6714,
    "▁läng": 25514,
    "▁Kunst": 9529,
    "ὺ": 31866,
    "(\"/": 11974,
    "tables": 24051,
    "<<ST_360>>": 32360,
    "<0x63>": 102,
    "▁Make": 8561,
    "▁З": 2419,
    "▁diagonal": 19640,
    "ek": 1416,
    "agem": 13904,
    "ahlen": 17165,
    "...]": 17361,
    "▁outputs": 14391,
    "presentation": 26081,
    "()}": 28296,
    "structure": 23905,
    "▁defin": 7403,
    "▁öst": 24734,
    "▁став": 20345,
    "▁листо": 24621,
    "▁returned": 4133,
    "▁europe": 14721,
    "▁mère": 21428,
    "▁addr": 28915,
    "▁Time": 5974,
    "业": 31729,
    "▁Que": 5462,
    "ière": 5289,
    "emi": 14208,
    "<<ST_187>>": 32187,
    "lik": 5081,
    "zess": 28790,
    "ism": 1608,
    "Un": 2525,
    "▁Wirtschaft": 19037,
    "ak": 557,
    "Tag": 8176,
    "▁kör": 18710,
    "▁inputs": 10970,
    "hlen": 29785,
    "логи": 8089,
    "▁Mo": 4546,
    "eduled": 14989,
    "Groups": 24020,
    "▁Gill": 28047,
    "hang": 11895,
    "ствова": 10666,
    "цер": 17267,
    "едера": 18797,
    "▁stycz": 21209,
    "▁Mouse": 25992,
    "Seg": 17669,
    "oo": 3634,
    "▁поча": 17155,
    "arm": 2817,
    "▁рік": 24696,
    "[:": 7503,
    "▁mentre": 11552,
    "´": 30165,
    "ńskim": 29752,
    "▁Juni": 7452,
    "▁Italy": 12730,
    "David": 19504,
    "▁Got": 15992,
    "ништво": 17398,
    "god": 17083,
    "dot": 6333,
    "Cannot": 29089,
    "<<ST_115>>": 32115,
    "▁initialization": 17865,
    "header": 6672,
    "subscribe": 19496,
    "▁cov": 18838,
    "▁Dublin": 24533,
    "▁название": 24143,
    "▁Sitz": 23628,
    "▁blind": 16842,
    "евич": 13177,
    "▁techni": 7304,
    "▁Hoch": 10955,
    "гла": 8438,
    "▁вико": 13570,
    "▁princip": 3420,
    "▁Г": 1618,
    "ulating": 18099,
    "▁Body": 24928,
    "▁полі": 19991,
    "▁Pse": 17646,
    "▁zij": 11805,
    "wehr": 21866,
    "äß": 10250,
    "estra": 8505,
    "▁security": 6993,
    "▁Ré": 5027,
    "eval": 14513,
    "ilia": 11836,
    "zeichnet": 8549,
    "<<ST_10>>": 32010,
    "▁K": 476,
    "midt": 19720,
    "▁Hollywood": 19180,
    ");": 416,
    "▁Military": 20080,
    "ف": 30241,
    "Exit": 24365,
    "ского": 2717,
    "▁tart": 13914,
    "pecies": 18458,
    "▁Melbourne": 22103,
    "▁Vol": 3684,
    "帝": 31456,
    "▁killed": 9445,
    "▁concentr": 14953,
    "▁Об": 12501,
    "▁Чем": 23214,
    "▁Robinson": 22265,
    "▁Duch": 23568,
    "▁failure": 10672,
    "▁био": 21840,
    "ween": 1452,
    "very": 1201,
    "输": 31573,
    "▁guerre": 12573,
    "▁republic": 23925,
    "unnel": 16163,
    "System": 3924,
    "ﬁ": 31017,
    "▁write": 2436,
    "Models": 23785,
    "▁Catherine": 21688,
    "▁sollte": 20099,
    "黄": 31491,
    "▁mixed": 12849,
    "▁Dokument": 28521,
    "written": 17625,
    "▁compr": 7199,
    "chsel": 13664,
    "▁Broadcast": 25484,
    "▁szere": 19742,
    "▁bapt": 27257,
    "<0xA2>": 165,
    "▁Round": 21595,
    "▁Außer": 25780,
    "▁przeci": 29572,
    "▁(@": 20164,
    "▁Senior": 24260,
    "<0x08>": 11,
    "ct": 312,
    "istre": 22715,
    "▁Sud": 8383,
    "▁gobierno": 19368,
    "ren": 1267,
    "édération": 24865,
    "ът": 15541,
    "▁length": 3309,
    "oving": 21081,
    "▁filters": 18094,
    "стве": 9374,
    "▁voir": 8689,
    "▁\");": 14796,
    "▁Миха": 13277,
    "skip": 11014,
    "usted": 16656,
    "<<ST_725>>": 32725,
    "ه": 30204,
    "cia": 1512,
    "ც": 31828,
    "<0x7C>": 127,
    "▁Day": 8373,
    "<0x66>": 105,
    "bash": 13067,
    "ил": 17883,
    "}</": 16040,
    "aje": 8339,
    "ativo": 11692,
    "▁Om": 13352,
    "▁rm": 20241,
    "Impl": 6647,
    "kaz": 8637,
    "expect": 17854,
    "▁career": 6413,
    "▁agents": 19518,
    "▁Ist": 11066,
    "▁von": 1005,
    "▁driven": 18225,
    "▁existed": 22856,
    "▁played": 5318,
    "▁discuss": 5353,
    "▁develop": 2693,
    "лся": 4633,
    "xp": 26330,
    "aten": 2579,
    "cie": 5295,
    "parallel": 23482,
    "uellement": 27751,
    "кси": 11153,
    "parameter": 15501,
    "Defaults": 24863,
    "фика": 19944,
    "▁mess": 4473,
    "▁Autor": 15811,
    "Browser": 21537,
    "▁tin": 27773,
    "<<ST_695>>": 32695,
    "Bl": 10358,
    "FO": 5800,
    "▁abund": 18666,
    "▁Tang": 27378,
    "кри": 12102,
    "▁pie": 5036,
    "▁ice": 14890,
    "ruguay": 21876,
    "ческих": 17349,
    "▁Bedeut": 21490,
    "udi": 4749,
    "▁notify": 26051,
    "BR": 15176,
    "▁accord": 15017,
    "例": 31507,
    "ifik": 14759,
    "oor": 16946,
    "ú": 30030,
    "▁år": 13179,
    "▁часть": 17265,
    "True": 5574,
    "≥": 30386,
    "▁gg": 20775,
    "▁cousin": 22618,
    "▁`{": 23230,
    "▁producer": 14297,
    "▁preferred": 16389,
    ":=": 9361,
    "<<ST_671>>": 32671,
    "▁devil": 29754,
    "reek": 7285,
    "▁decor": 10200,
    "の": 30199,
    "ety": 3305,
    "ĉ": 31431,
    "раз": 6117,
    "phase": 21646,
    "▁Uniti": 24699,
    "MS": 4345,
    "igu": 5526,
    "▁CSS": 6783,
    "▁supported": 6969,
    "ktur": 13688,
    "cija": 26575,
    "▁adult": 16157,
    "▁tiny": 21577,
    "каз": 16602,
    "xpath": 23635,
    "▁Napoleon": 24265,
    "\":{\"": 28819,
    "▁animation": 9612,
    "help": 8477,
    "▁Seven": 26647,
    "▁tested": 9528,
    "单": 31166,
    "▁Meanwhile": 25065,
    "▁protect": 12566,
    "▁och": 1895,
    "zyk": 20973,
    "▁purely": 24837,
    "<<ST_470>>": 32470,
    "ńst": 14782,
    "▁<!--": 10341,
    "WF": 29686,
    "does": 13221,
    "▁charg": 9151,
    "__": 1649,
    "issen": 13119,
    "▁Бра": 17175,
    "Exists": 24217,
    "▁encourag": 18443,
    "▁Manh": 29093,
    "▁hosp": 29418,
    "▁:)": 4248,
    "мей": 14444,
    "▁opinions": 26971,
    "▁Current": 9626,
    "encias": 6187,
    "▁relev": 29527,
    "▁rose": 11492,
    "void": 5405,
    "Storage": 10486,
    "elect": 15436,
    "▁accounts": 15303,
    "▁ha": 447,
    "ction": 428,
    "▁données": 21880,
    "чный": 19705,
    "▁retain": 11551,
    "开": 31026,
    "Proxy": 14048,
    "▁imagine": 14034,
    "<0x17>": 26,
    "}}_{\\": 29261,
    "▁pairs": 11000,
    "▁Billboard": 15615,
    "amsung": 28935,
    "Net": 6779,
    "schema": 11010,
    "▁Dow": 26028,
    "vertical": 18575,
    "▁wing": 21612,
    "~": 30022,
    "▁critique": 29709,
    "ге": 5035,
    "orer": 9386,
    "▁són": 19121,
    "▁supre": 22747,
    "▁arrested": 24383,
    "▁{'": 11117,
    "▁cycle": 11412,
    "▁националь": 21524,
    "▁Ian": 22291,
    "▁scri": 27438,
    "Manager": 3260,
    "ribute": 2666,
    "ick": 860,
    "LOG": 14480,
    "▁Optional": 28379,
    "▁січня": 24708,
    "▁Garc": 19734,
    "▁Fernando": 17993,
    "hui": 15669,
    "▁deutschen": 13806,
    "▁natural": 5613,
    "^\\": 3823,
    "stand": 1689,
    "▁Pac": 9790,
    "▁Jas": 28725,
    "<<ST_221>>": 32221,
    "▁nod": 18778,
    "▁focused": 21309,
    "▁modify": 6623,
    "ῶ": 30737,
    "Full": 13658,
    "ligt": 18053,
    "answer": 12011,
    "ніципалі": 20422,
    "▁disco": 17021,
    "nisse": 18628,
    "▁commence": 24108,
    "ho": 1251,
    "▁scratch": 22728,
    "▁reun": 23038,
    "▁Emp": 7361,
    "enen": 6537,
    "poque": 15635,
    "▁Morgan": 20549,
    "ứ": 31318,
    "▁Register": 12577,
    "ვ": 30678,
    "SP": 5550,
    "▁Distribution": 17740,
    "urz": 28035,
    "▁CH": 5868,
    "zig": 8923,
    "▁\",": 9162,
    "▁generating": 14655,
    "▁Mah": 10082,
    "Company": 21410,
    "car": 4287,
    "▁bre": 2078,
    "<0x22>": 37,
    "▁technology": 15483,
    "FILES": 24483,
    "Russ": 23002,
    "зах": 23017,
    "▁Río": 25286,
    "▁Judge": 26817,
    "▁implement": 2334,
    "ears": 15451,
    "errors": 12523,
    "data": 1272,
    "okal": 14599,
    "▁Leipzig": 14575,
    "horn": 25031,
    "▁touch": 6023,
    "Hrsg": 10196,
    "▁contemporary": 24952,
    "seen": 28026,
    "▁tal": 5969,
    "platz": 16739,
    "▁Case": 11733,
    "▁autor": 8478,
    "oria": 4108,
    "пі": 7530,
    "▁Col": 1530,
    "▁belong": 6852,
    "math": 755,
    "▁langue": 25407,
    "po": 1129,
    "Internet": 26341,
    "津": 31365,
    "Axis": 16070,
    "▁hip": 21464,
    "▁Ster": 28588,
    "цо": 18807,
    "▁County": 5127,
    "lo": 417,
    "high": 9812,
    "▁darkness": 23490,
    "Tu": 23215,
    "▁north": 6641,
    "▁Fig": 5104,
    "rile": 13816,
    "al": 284,
    "▁сти": 14539,
    "▁Lista": 13701,
    "cm": 4912,
    "▁Cov": 25669,
    "▁medio": 19301,
    "▁Lok": 26469,
    "▁Sed": 20951,
    "▁роди": 14887,
    "▁induced": 20974,
    "▁ж": 5571,
    "bres": 16105,
    "achen": 18762,
    "fox": 8944,
    "▁тек": 23567,
    "Cal": 7856,
    "RES": 15989,
    "₄": 30194,
    "▁wiel": 17788,
    "▁Notices": 16709,
    "▁Shakespeare": 23688,
    "▁introduction": 18707,
    "▁allen": 15832,
    "▁Selection": 27930,
    "lop": 4757,
    "▁инте": 26133,
    "Config": 3991,
    "▁Center": 7817,
    "▁repla": 6497,
    "▁desert": 18197,
    "▁fond": 6299,
    "utors": 29560,
    "t": 29873,
    "fers": 25534,
    "ύ": 30308,
    "▁Error": 4829,
    "ovan": 10471,
    "▁formatting": 15998,
    "▁Professor": 11386,
    "ʀ": 31167,
    "▁Гра": 20697,
    "uv": 4090,
    "▁reset": 10092,
    "▁Stop": 22303,
    "▁birds": 17952,
    "▁Lake": 9459,
    "▁Eug": 20891,
    "клю": 8776,
    "▁ö": 3963,
    "aal": 16113,
    "▁hect": 28834,
    "ем": 3098,
    "▁bald": 29023,
    "▁Wal": 5260,
    "liter": 20889,
    "grep": 22385,
    "ingt": 19680,
    "Weight": 22676,
    "▁Small": 18285,
    "▁geht": 25440,
    "▁Egy": 9028,
    "▁Domain": 28460,
    "poss": 28802,
    "pt": 415,
    "ϕ": 30821,
    "語": 30968,
    "<<ST_149>>": 32149,
    "without": 14037,
    "▁wherever": 29693,
    "enburg": 22284,
    "▁anx": 14919,
    "▁Population": 24810,
    "▁true": 1565,
    "made": 26350,
    "nes": 4515,
    "▁cors": 27672,
    "▁ups": 24081,
    "▁Va": 12549,
    "▁confl": 18669,
    "E": 29923,
    "▁кра": 6697,
    "▁gard": 17161,
    "isher": 22154,
    "ългар": 29713,
    "сть": 2321,
    "<<ST_188>>": 32188,
    "rgb": 23973,
    "ober": 4950,
    "ibr": 4626,
    "▁UITableView": 20197,
    "<<ST_506>>": 32506,
    "▁local": 1887,
    "▁println": 22088,
    "▁Not": 2216,
    "HER": 4448,
    "图": 30861,
    "▁artificial": 23116,
    "チ": 30656,
    "▁Рас": 29355,
    "▁пара": 19714,
    "ror": 729,
    "▁renov": 25615,
    "▁zeit": 29402,
    "assa": 24573,
    "▁Liens": 7318,
    "▁день": 22763,
    "▁Ir": 6600,
    "▁looping": 26113,
    "ites": 3246,
    "▁significant": 7282,
    "flash": 28041,
    "▁unknown": 9815,
    "єдна": 26715,
    "Year": 12883,
    "▁Store": 14491,
    "▁Californ": 7599,
    "▁rounded": 28240,
    "▁maxim": 5256,
    "destroy": 20524,
    "RESS": 26785,
    "integer": 16031,
    "<<ST_605>>": 32605,
    "▁систем": 20573,
    "Optional": 27636,
    "▁Mitglieder": 29864,
    "nahm": 22143,
    "▁accessed": 20592,
    "fw": 25051,
    "▁Denkmal": 23790,
    "▁confidence": 16420,
    "Pred": 23084,
    "pa": 3274,
    "Calcul": 27065,
    "▁Similarly": 20175,
    "二": 30685,
    "▁anglais": 16464,
    "icas": 5070,
    "▁osob": 27949,
    "change": 3167,
    "Exp": 9544,
    "▁\\[\\": 18024,
    "|^": 15333,
    "chor": 8420,
    "▁је": 2773,
    "▁Hus": 24287,
    "Pod": 27345,
    "▁companion": 18708,
    "▁condado": 25450,
    "▁développement": 24305,
    "pan": 8357,
    "стр": 25819,
    "▁originally": 10437,
    "']))": 25901,
    "▁strateg": 16650,
    "▁spec": 1580,
    "plus": 11242,
    "▁Мос": 9439,
    "bij": 19352,
    "roit": 15164,
    "▁ah": 21023,
    "▁Winter": 12267,
    "▁insight": 25483,
    "\".": 1642,
    "addy": 25644,
    "▁Log": 4522,
    "exists": 9933,
    "▁Catholic": 11865,
    "▁Article": 21746,
    "▁пу": 8430,
    "abling": 17961,
    "▁Kirk": 26424,
    "тель": 2584,
    "▁raw": 10650,
    "logo": 14569,
    "nie": 2786,
    "фо": 20079,
    "▁Pet": 5879,
    "G": 29954,
    "jest": 29618,
    "パ": 30715,
    "▁deprecated": 18164,
    "▁constitution": 16772,
    "▁Fußball": 13739,
    "uras": 10939,
    "れ": 30553,
    "ody": 1486,
    "хода": 26352,
    "']['": 16215,
    "▁catalog": 16653,
    "▁phrase": 16549,
    "▁kil": 4679,
    "Lin": 11667,
    "▁Alle": 20615,
    "`](": 7072,
    "▁Familien": 19921,
    "⁴": 30379,
    "TW": 16240,
    "▁experiment": 7639,
    "();\r": 14078,
    "▁industri": 21136,
    "day": 3250,
    "IP": 5690,
    "legal": 12018,
    "Callback": 10717,
    "▁Weg": 17412,
    "lant": 27493,
    "../../": 21546,
    "andal": 24258,
    "orie": 7661,
    "▁z": 503,
    "▁That": 2193,
    "▁Circle": 27927,
    "▁cord": 13793,
    "▁trem": 14586,
    "▁pom": 8280,
    "▁испо": 8629,
    "lagen": 11541,
    "▁Gött": 28703,
    "▁Vin": 12540,
    "▁store": 3787,
    "▁Radio": 9204,
    "▁Att": 6212,
    "▁Max": 5918,
    "▁ash": 23723,
    "]]": 5262,
    "▁Butler": 29384,
    "▁Hann": 13889,
    "▁É": 3067,
    "ising": 5921,
    "▁LO": 11247,
    "▁ISSN": 15781,
    "ti": 2034,
    "▁коло": 20427,
    "▁especie": 22656,
    "▁sharing": 19383,
    "▁seg": 2377,
    "<<ST_104>>": 32104,
    "burgh": 13903,
    "ára": 14684,
    "▁volont": 24792,
    "]\\": 10725,
    "NULL": 10074,
    "го": 588,
    "▁identific": 25907,
    "▁Seattle": 27689,
    "έ": 30273,
    "▁lake": 19437,
    "▁SP": 10937,
    "▁Request": 10729,
    "▁dr": 4192,
    "▁Bil": 20347,
    "▁processor": 21433,
    "ansen": 29401,
    "<<ST_378>>": 32378,
    "▁Marvel": 25791,
    "ayout": 1534,
    "standing": 11235,
    "слі": 15487,
    "php": 1961,
    "LOW": 27998,
    "css": 4268,
    "▁siendo": 18200,
    "▁honest": 15993,
    "movie": 27362,
    "iti": 4812,
    "bon": 6718,
    "üt": 6621,
    "▁end": 1095,
    "ince": 1239,
    "▁Bre": 5826,
    "▁image": 1967,
    "ITION": 22122,
    "▁health": 9045,
    "ум": 20984,
    "▁webpage": 24499,
    "imar": 20232,
    "pected": 6021,
    "({\\": 13670,
    "▁Weltkrieg": 25686,
    "▁Brigade": 23896,
    "▁Less": 27898,
    "omo": 10730,
    "GROUP": 26284,
    "IABot": 24291,
    "▁%": 1273,
    "▁eigenen": 26986,
    "▁arose": 28811,
    "router": 15140,
    "bund": 16293,
    "erving": 29530,
    "▁HD": 18435,
    "▁faut": 21668,
    "▁Sum": 6991,
    "Title": 7030,
    "▁Ken": 10015,
    "▁пора": 28227,
    "▁Éditions": 23140,
    "▁secondary": 16723,
    "▁Ep": 14055,
    "▁Regiment": 17982,
    "Esp": 15784,
    "▁clust": 16993,
    "▁donde": 8334,
    "▁кафе": 29071,
    "etto": 8563,
    "ens": 575,
    "▁Landes": 10089,
    "m": 29885,
    "▁perturb": 22786,
    "<<ST_713>>": 32713,
    "From": 4591,
    "™": 30536,
    "Att": 4165,
    "~~": 7377,
    "ra": 336,
    "se": 344,
    "rees": 11003,
    "▁implementation": 5314,
    "▁vb": 16822,
    "layer": 13148,
    "▁худож": 17341,
    "5": 29945,
    "AX": 6604,
    "▁Refer": 4118,
    "▁upgrade": 14955,
    "▁í": 14468,
    "▁storia": 19097,
    "Pointer": 14516,
    "homme": 21708,
    "▁grateful": 28656,
    "▁реки": 18536,
    "▁DB": 6535,
    "▁(!": 5384,
    "idge": 5525,
    "▁suiv": 10252,
    "createElement": 22662,
    "which": 4716,
    "фри": 22190,
    "▁vac": 11757,
    "стори": 25084,
    "▁Australia": 8314,
    "▁Bour": 12340,
    "äh": 7538,
    "▁uso": 17448,
    "although": 26492,
    "▁Representatives": 28757,
    "▁hans": 22374,
    "<<ST_499>>": 32499,
    "▁consequ": 14161,
    "Hub": 16046,
    "ѝ": 30349,
    "Lambda": 9099,
    "▁Revol": 26882,
    "äche": 19483,
    "▁cad": 13840,
    "▁Rhein": 19009,
    "▁pros": 10791,
    "ред": 4715,
    "▁prendre": 23532,
    "▁plant": 8024,
    "▁Naz": 11409,
    "dim": 6229,
    "▁keeping": 12515,
    "<<ST_306>>": 32306,
    "}\")": 27195,
    "Timestamp": 27939,
    "aría": 18429,
    "▁tener": 22975,
    "ugin": 3851,
    "ijn": 3263,
    "}))": 20073,
    "▁causa": 13485,
    "▁interpretation": 19854,
    "(\",": 28165,
    "sex": 14167,
    "paragraph": 26956,
    "background": 7042,
    "ron": 1617,
    "nja": 26398,
    "▁Mat": 5345,
    "▁eastern": 18632,
    "▁menu": 6143,
    "ченко": 28036,
    "▁delta": 19471,
    "▁Gil": 11788,
    "шка": 13785,
    "equals": 10954,
    "brit": 26549,
    "'-": 28560,
    "▁BY": 6770,
    "hl": 4415,
    "▁Rück": 15582,
    "▁leak": 24993,
    "▁Jahr": 3866,
    "▁Vid": 18895,
    "зидент": 27027,
    "▁ek": 14921,
    "▁OP": 6418,
    "context": 4703,
    "▁obvious": 6924,
    "▁Notable": 24844,
    "▁Syd": 13923,
    "▁mar": 1766,
    "▁gel": 9127,
    "▁На": 2372,
    "▁room": 5716,
    "++,": 10024,
    "▁authorization": 28733,
    "▁hand": 1361,
    "ith": 389,
    "Car": 8179,
    "emph": 7278,
    "ο": 30123,
    "▁consec": 11888,
    "legte": 29838,
    "▁Special": 12630,
    "printStackTrace": 16654,
    "следова": 12153,
    "ule": 1297,
    "城": 30626,
    "▁longest": 27217,
    "▁surrounded": 22047,
    "▁Democr": 14189,
    "▁VIII": 15682,
    "▁lead": 3275,
    "▁Резултати": 27061,
    "zerw": 15900,
    "▁europ": 12793,
    "failed": 26061,
    "▁desktop": 14616,
    "▁half": 4203,
    "▁merely": 13586,
    "BE": 15349,
    "▁trou": 12111,
    "pta": 28363,
    "bytes": 13193,
    "atar": 14873,
    "▁High": 5057,
    "▁sale": 14686,
    "▁Genomsnittlig": 28650,
    "engono": 23677,
    "▁Хронологија": 27918,
    "▁že": 15304,
    "▁jej": 11215,
    "▁op": 1015,
    "gamma": 4283,
    "HA": 15715,
    "▁publish": 9805,
    "aron": 5022,
    "pport": 3016,
    "vat": 9046,
    "illes": 7545,
    "▁tf": 15886,
    "SSL": 18641,
    "<<ST_580>>": 32580,
    "▁exhib": 10371,
    "▁tenía": 19987,
    "▁IM": 22313,
    "decl": 27787,
    "?\"": 3026,
    "aga": 7781,
    "sklär": 18894,
    "▁Та": 5238,
    "ink": 682,
    "ницы": 25213,
    "▁Writ": 16849,
    "▁américaine": 28763,
    "ClassName": 23607,
    "counter": 11808,
    "▁exc": 5566,
    "gré": 20792,
    "<<ST_757>>": 32757,
    "there": 12711,
    "▁że": 13527,
    "超": 31480,
    "▁FC": 7992,
    "▁Adams": 20359,
    "▁старо": 25177,
    "▁soldier": 20767,
    "слу": 12394,
    "▁issu": 17759,
    "▁Inside": 22804,
    "▁Sang": 26932,
    "▁`%": 22570,
    "▁Rose": 14008,
    "▁település": 22744,
    "▁hom": 3632,
    "izers": 19427,
    "▁темпера": 25596,
    "▁train": 7945,
    "▁Galerie": 28496,
    "ℕ": 30347,
    "phere": 9085,
    "▁-(": 19691,
    "YY": 14995,
    "ƒ": 30703,
    "├": 30188,
    "ள": 31715,
    "▁atmos": 15489,
    "Mac": 15735,
    "▁folg": 10627,
    "item": 667,
    "昭": 31912,
    "▁algunas": 27228,
    "▁journal": 8955,
    "▁feeling": 11223,
    "Good": 18420,
    "atuur": 24997,
    "▁membres": 18490,
    "лага": 15813,
    "▁plata": 28687,
    "weak": 25129,
    "vex": 13809,
    "▁Dire": 14818,
    "zung": 16857,
    "▁request": 2009,
    "ponder": 27582,
    "öst": 15095,
    "▁Roll": 21809,
    "ér": 1064,
    "<0x9B>": 158,
    "▁Sultan": 27874,
    "extract": 21111,
    "▁Гу": 15180,
    "▁Mode": 21864,
    "▁Summer": 13329,
    "▁sich": 2160,
    "чний": 14220,
    "irable": 27797,
    "▁gra": 2646,
    "▁Ritter": 27917,
    "зне": 22651,
    "▁Bank": 10253,
    "▁шта": 13619,
    "Choice": 29620,
    "▁simultane": 16991,
    "▁июня": 16819,
    "▁feels": 23880,
    "▁Captain": 10842,
    "▁response": 2933,
    "ifié": 29792,
    "▁production": 5802,
    "цима": 20896,
    "▁testim": 28523,
    "abe": 4302,
    "▁reading": 5183,
    "bian": 22863,
    "▁transformations": 29304,
    "▁False": 7700,
    "acker": 28940,
    "▁cleaner": 27372,
    "reducible": 29622,
    "icación": 29009,
    "▁Jes": 8524,
    "cle": 2841,
    "ieri": 13972,
    "▁slot": 21497,
    "▁swo": 16768,
    "▁flask": 29784,
    "<0xAA>": 173,
    "<0xC2>": 197,
    "vod": 14091,
    "ències": 27609,
    "▁О": 1651,
    "▁Universal": 21536,
    "▁nuevo": 15671,
    "▁housing": 27261,
    "cedure": 26600,
    "дія": 22749,
    "▁east": 9755,
    "▁$,": 29313,
    "▁know": 1073,
    "▁steady": 27357,
    "▁Mock": 26297,
    "essage": 1448,
    "▁symbols": 15072,
    "▁>": 1405,
    "富": 31730,
    "Integr": 23573,
    "▁destru": 26468,
    "ersion": 4455,
    "▁Es": 3423,
    "▁claims": 16726,
    "▁tm": 27702,
    "▁identical": 13557,
    "▁Ä": 11585,
    "results": 9902,
    "osci": 23039,
    "▁Ar": 826,
    "▁Rome": 9184,
    "Table": 3562,
    "▁Савезне": 28090,
    "▁blocked": 24370,
    "▁dropped": 13700,
    "hood": 6614,
    "ield": 969,
    "<0xA1>": 164,
    "ual": 950,
    "Generator": 21575,
    "▁died": 6423,
    "▁remarks": 29360,
    "Endpoint": 25602,
    "▁doubt": 7404,
    "▁Reb": 12936,
    "enta": 6381,
    "▁Гри": 20264,
    "ი": 30277,
    "▁denomin": 14267,
    "▁goog": 27304,
    "chos": 18688,
    "▁Folge": 18587,
    "▁pseud": 19923,
    "▁label": 3858,
    "▁kommun": 10433,
    "hum": 16063,
    "ől": 8054,
    "▁coverage": 23746,
    "writer": 13236,
    "Names": 8659,
    "▁nagy": 18338,
    "云": 31784,
    "▁actors": 29701,
    "▁Trans": 4103,
    "ashi": 18321,
    "lookup": 20401,
    "Dir": 9170,
    "▁converges": 24144,
    "▁innoc": 21458,
    "ében": 14790,
    "▁appreci": 5108,
    ".=": 25019,
    "▁mat": 1775,
    "np": 9302,
    "▁finns": 6784,
    "更": 31100,
    "ental": 13703,
    "▁led": 5331,
    "▁ELSE": 26446,
    "object": 3318,
    "▁easiest": 19075,
    "台": 31037,
    "▁наук": 20111,
    "CB": 21685,
    "▁Maybe": 7198,
    "▁If": 960,
    "цький": 26145,
    "▁Kas": 19157,
    "пер": 7043,
    "unächst": 15417,
    "ович": 5605,
    "inek": 27868,
    "▁fee": 27684,
    "▁jap": 10215,
    "▁partition": 8877,
    "▁trained": 16370,
    "оз": 29495,
    "hon": 27305,
    "▁aa": 29099,
    "▁fi": 5713,
    "▁zal": 21421,
    "▁Santiago": 18135,
    "herit": 27069,
    "sdk": 15348,
    "▁Header": 19345,
    "Autom": 28451,
    "ског": 20214,
    "omorphic": 16898,
    "▁improv": 13153,
    "outh": 2438,
    "ח": 30428,
    "▁Fail": 29098,
    "▁nature": 5469,
    "ño": 8266,
    "̣": 31214,
    "▁Ger": 5681,
    "麻": 31846,
    "▁known": 2998,
    "Û": 31210,
    "▁effic": 6366,
    "anna": 9713,
    "▁Entry": 28236,
    "lack": 2364,
    "Green": 24599,
    "ur": 332,
    "bindung": 25988,
    "▁rain": 17251,
    "Art": 9986,
    "ета": 21366,
    "<0xB2>": 181,
    "တ": 31560,
    "▁invoked": 22336,
    "▁DM": 27692,
    "▁chef": 14547,
    "frak": 7016,
    "▁drums": 28987,
    "prod": 10633,
    "esian": 18970,
    "attend": 27601,
    "wend": 14555,
    "▁Polsce": 24411,
    "▁Bomb": 24347,
    "weise": 4506,
    "LC": 12182,
    "▁week": 4723,
    "▁fost": 9926,
    "come": 2763,
    "史": 30911,
    "▁осо": 9253,
    "▁pride": 24967,
    "▁weights": 18177,
    "ibile": 21997,
    "Al": 2499,
    "▁procedure": 8792,
    "▁Africa": 10557,
    "▁lif": 11747,
    "!\\": 9903,
    "▁Territ": 19833,
    "flutter": 20126,
    "case": 4878,
    "inder": 4995,
    "Enc": 8566,
    "▁entertain": 22684,
    "▁são": 12777,
    "ming": 4056,
    "▁Frederick": 19769,
    "iennes": 27033,
    "▁concrete": 18387,
    "▁viele": 22390,
    "'\"": 11838,
    "<<ST_409>>": 32409,
    "國": 30915,
    "дя": 5640,
    "▁let": 1235,
    "▁crypt": 24941,
    "▁Avenue": 18874,
    "roz": 16997,
    "▁amet": 27315,
    "▁Prince": 10787,
    "чество": 22339,
    "PHP": 17130,
    "▁charset": 17425,
    "ning": 1076,
    "hält": 17495,
    "gabe": 14454,
    "▁raison": 18836,
    "▁Sa": 5701,
    "Sync": 21077,
    "▁Medien": 25837,
    "{$": 8290,
    "▁disturb": 29543,
    "TO": 4986,
    "▁рів": 27676,
    "▁Esta": 14192,
    "wand": 18622,
    "就": 31238,
    "erne": 11795,
    "▁Gal": 5208,
    "▁свет": 23486,
    "▁bra": 4105,
    "▁Ки": 6746,
    "lauf": 14844,
    "▁fourth": 11582,
    "▁befindet": 16960,
    "stock": 17712,
    "▁accused": 28886,
    "▁Nicola": 28432,
    "ambiguation": 18065,
    "eria": 8749,
    "▁Arte": 25668,
    "Ha": 24704,
    "▁власти": 28614,
    "IE": 8673,
    "▁added": 2715,
    "▁parallel": 8943,
    "▁stage": 7408,
    "star": 8508,
    "▁Rés": 20513,
    "▁equipo": 15434,
    "ر": 30156,
    "ebru": 3205,
    "bach": 6740,
    "▁político": 24934,
    ":/": 8419,
    "▁solem": 25070,
    "sv": 4501,
    "▁argue": 27754,
    "ributes": 5026,
    "<<ST_663>>": 32663,
    "inois": 12387,
    "who": 15970,
    "▁Initialize": 25455,
    "▁quan": 29195,
    "▁sacred": 26546,
    "▁Like": 8502,
    "▁rid": 8177,
    "âce": 20032,
    "avia": 12751,
    "▁cinemat": 25955,
    "▁Este": 12723,
    "▁Bird": 17777,
    "Ap": 17396,
    "heast": 15879,
    "~$": 16643,
    "▁ble": 10767,
    "itas": 16628,
    "▁Record": 14164,
    "<<ST_626>>": 32626,
    "▁dawn": 27470,
    "vee": 27202,
    "▁зай": 26929,
    "щий": 23113,
    "▁Storage": 26162,
    "estions": 2297,
    "De": 2772,
    "▁nei": 12106,
    "osis": 19263,
    "staat": 25654,
    "usr": 4855,
    "▁projection": 18246,
    "ami": 4479,
    "▁Support": 18601,
    "<<ST_672>>": 32672,
    "▁grows": 25088,
    "UIImage": 26200,
    "arina": 23558,
    "bes": 5707,
    "▁apr": 21783,
    "UG": 23338,
    "▁Could": 6527,
    "▁aos": 21405,
    "▁Finale": 29518,
    "▁fmt": 19200,
    "▁divid": 25227,
    "▁tied": 21351,
    "<<ST_94>>": 32094,
    "▁simpl": 5466,
    "▁routing": 21398,
    "une": 1540,
    "▁/>": 2900,
    "▁augment": 18765,
    "ilder": 2700,
    "<<ST_325>>": 32325,
    "▁water": 4094,
    "▁doc": 1574,
    "▁#[": 14330,
    "▁radio": 7155,
    "▁golden": 22843,
    "$(": 12330,
    "Under": 29177,
    "amba": 20027,
    "NI": 12916,
    "▁without": 1728,
    "▁сп": 16085,
    "conda": 18050,
    "▁la": 425,
    "ête": 9061,
    "▁Red": 4367,
    "wid": 9163,
    "lem": 2409,
    "▁flight": 16286,
    "part": 1595,
    "<<ST_125>>": 32125,
    "け": 30807,
    "―": 30217,
    "ті": 5042,
    "schutz": 18377,
    "kk": 6859,
    "▁forget": 9566,
    "▁another": 1790,
    "▁UNION": 25919,
    "▁Executive": 28841,
    "▁луч": 23321,
    "▁were": 892,
    "▁pén": 26520,
    "▁ép": 7930,
    "vere": 9359,
    "▁rooms": 19600,
    "▁child": 2278,
    "▁UIView": 25909,
    "oped": 28605,
    "▁między": 29815,
    "色": 31085,
    "▁că": 13294,
    "sl": 2536,
    "▁América": 19537,
    "▁DNA": 25348,
    "▁font": 4079,
    "reference": 5679,
    "струк": 20361,
    "ero": 1489,
    "iente": 6759,
    "rások": 22636,
    "▁многи": 23571,
    "ienie": 23898,
    "▁dign": 18085,
    "▁cuando": 10284,
    "nder": 5740,
    "▁Brown": 9817,
    "▁вместе": 23414,
    "mes": 4467,
    "▁Baud": 29859,
    "▁Help": 22305,
    "▁CLI": 24492,
    "数": 30354,
    "氏": 31052,
    "pkg": 15865,
    "endet": 16877,
    "'.": 4286,
    "zil": 13170,
    "fin": 4951,
    "▁sang": 13625,
    "▁tiene": 10258,
    "▁Neg": 12610,
    "<<ST_556>>": 32556,
    "▁Cat": 10459,
    "Re": 1123,
    "Many": 14804,
    "▁тако": 8826,
    "Interface": 10448,
    "▁save": 4078,
    "▁\",\"": 28796,
    "akes": 6926,
    "▁mond": 7398,
    "rho": 4650,
    "▁salv": 24754,
    "▁illustr": 8632,
    "ど": 31250,
    "▁Html": 24726,
    "▁decl": 4845,
    "▁baby": 24354,
    "▁alive": 18758,
    "▁earned": 20591,
    "▁dieser": 8039,
    "ptember": 3266,
    "ście": 18391,
    "▁Yeah": 15011,
    "agr": 10312,
    "▁hopefully": 27581,
    "▁concept": 6964,
    "cep": 13300,
    "▁Александр": 18084,
    "▁ubuntu": 16338,
    "▁demon": 8033,
    "agli": 27273,
    "▁repeat": 12312,
    "▁Scient": 23753,
    "▁calculus": 24282,
    "Off": 6880,
    "▁корпу": 24276,
    "▁пере": 2942,
    "supported": 23765,
    "▁gar": 7171,
    "▁alleg": 16831,
    "▁fuer": 8470,
    "動": 31124,
    "▁kind": 2924,
    "▁deprec": 16460,
    "üller": 17552,
    "<0x06>": 9,
    "wohl": 29300,
    "iclopedia": 21715,
    "▁első": 19251,
    "↑": 30213,
    "▁Zel": 27997,
    "▁packages": 9741,
    "▁probabil": 23950,
    "▁recht": 21131,
    "Tables": 24924,
    "▁Comp": 3831,
    "ox": 2251,
    "ང": 31401,
    "▁splendid": 29528,
    "adv": 17263,
    "collapse": 27756,
    "Socket": 11373,
    "▁ma": 611,
    "▁hyp": 10163,
    "آ": 30726,
    "ügel": 25146,
    "▁trees": 10697,
    "empor": 9059,
    "▁consultato": 17798,
    "Њ": 30300,
    "▁Johann": 6828,
    "jes": 10246,
    "HC": 19127,
    "▁difer": 12186,
    "TR": 5659,
    "null": 4304,
    "▁wishes": 28688,
    "▁Lied": 29382,
    "▁__": 4770,
    "готов": 19300,
    "プ": 30605,
    "Alex": 17406,
    "▁фе": 20250,
    "ates": 1078,
    "raste": 27364,
    "Fr": 14438,
    "de": 311,
    "▁plate": 15284,
    "ffic": 2416,
    "▁реги": 16487,
    "▁Bob": 7991,
    "▁ihm": 9771,
    "iami": 18612,
    "▁container": 5639,
    "▁currently": 5279,
    "aggio": 10044,
    "▁написа": 25043,
    "Vol": 13072,
    "▁Pred": 21099,
    "Document": 6268,
    "▁indic": 4221,
    "max": 3317,
    "ACT": 17923,
    "ellow": 4743,
    "gen": 1885,
    "reso": 28857,
    "▁Further": 8725,
    "▁gruppo": 18081,
    "▁фон": 15779,
    "▁dabei": 17857,
    "seed": 26776,
    "▁atmosphere": 25005,
    "Completed": 26010,
    "▁Zweiten": 24149,
    ")=": 3892,
    "▁▁▁▁▁▁▁▁": 308,
    "quia": 22455,
    "▁{}": 6571,
    "ends": 1975,
    "▁Naval": 21590,
    "▁конце": 20776,
    "▁жовтня": 25460,
    "▁cheval": 25042,
    "schule": 15361,
    "âr": 28726,
    "riel": 12836,
    "wart": 10305,
    "Module": 7355,
    "▁стала": 20406,
    "<<ST_492>>": 32492,
    "Picker": 13954,
    "reib": 12207,
    "änner": 22120,
    "▁hab": 2299,
    "▁Bridge": 16230,
    "▁stepped": 28996,
    "▁tod": 7379,
    "▁multi": 2473,
    "RGB": 28212,
    "haft": 22023,
    "▁zich": 9834,
    "<<ST_315>>": 32315,
    "Position": 8003,
    "▁quadratic": 25904,
    "▁expand": 7985,
    "unted": 28000,
    "▁platform": 7481,
    "system": 5205,
    "▁Mes": 16457,
    "▁been": 1063,
    "▁mission": 10655,
    "ased": 1463,
    "DIR": 9464,
    "ić": 13643,
    "тета": 25313,
    "▁industrial": 18408,
    "▁Stan": 7813,
    "Transform": 13372,
    "▁kw": 9049,
    "▁af": 2511,
    "ポ": 31205,
    "ografie": 9052,
    "esség": 27732,
    "С": 30008,
    "算": 31565,
    "▁early": 4688,
    "▁system": 1788,
    "lets": 10376,
    "▁CD": 7307,
    "▁draw": 4216,
    "▁Always": 29849,
    "▁loi": 24228,
    "▁Factory": 27561,
    "▁verified": 26834,
    "ysz": 18369,
    "▁Road": 9321,
    "学": 30415,
    "inden": 10060,
    "obre": 7630,
    "issement": 11537,
    "▁Node": 9071,
    "▁binary": 7581,
    "▁underlying": 14407,
    "▁audi": 16147,
    "<0x1B>": 30,
    "▁Tob": 22354,
    "▁stories": 15874,
    "▁cig": 29507,
    "▁papers": 15055,
    "legraph": 27333,
    "▁Squadron": 26070,
    "]}": 12258,
    "html": 1420,
    "▁gepubliceerd": 10711,
    "right": 1266,
    "▁Peters": 15990,
    "▁Rib": 27461,
    "ug": 688,
    "▁petit": 17887,
    "Attributes": 15801,
    "▁neglect": 22851,
    "▁eigh": 29319,
    "zeum": 27919,
    "lands": 5252,
    "pios": 22432,
    "▁simult": 15030,
    "learn": 19668,
    "▁Weltkrie": 17849,
    "olu": 20424,
    "▁yards": 17454,
    "尔": 31814,
    "uch": 987,
    "student": 18945,
    "▁gesam": 28343,
    "taire": 19073,
    "▁dead": 7123,
    "▁Jugend": 19472,
    "generic": 19206,
    "▁designs": 25517,
    "ropri": 6649,
    "▁watch": 6505,
    "▁saves": 27401,
    "▁don": 1016,
    "▁capt": 4332,
    "世": 30793,
    "iber": 12347,
    "▁stad": 10728,
    "cock": 24956,
    "Am": 6833,
    "▁Arc": 22711,
    "macro": 25254,
    "ouwen": 21630,
    "leted": 22742,
    "cout": 13147,
    "▁RUN": 27694,
    "▁efficient": 8543,
    "pio": 16168,
    "Admin": 12754,
    "▁gegen": 6927,
    "▁Eth": 13772,
    "▁Host": 16956,
    "▁Today": 20628,
    "ute": 1082,
    "▁відбу": 28372,
    "hav": 8708,
    "▁aver": 4759,
    "弘": 31998,
    "▁prof": 2600,
    "▁method": 1158,
    "▁chrome": 16735,
    "▁Las": 7413,
    "`": 29952,
    "▁reaches": 22170,
    "▁gén": 6094,
    "▁Bell": 10914,
    "▁восто": 26170,
    "▁foot": 3661,
    "<<ST_670>>": 32670,
    "▁Neben": 19332,
    "▁process": 1889,
    "▁implements": 10703,
    "<0x33>": 54,
    "▁partici": 21933,
    "▁increases": 16415,
    "ightarrow": 28142,
    "portal": 25089,
    "▁Seine": 16104,
    "ὐ": 30831,
    "▁orden": 16075,
    "▁Download": 25553,
    "apping": 20304,
    "Common": 18877,
    "▁но": 4228,
    "▁советский": 25412,
    "то": 702,
    "葉": 31602,
    "BF": 28062,
    "ла": 684,
    "imas": 25268,
    "つ": 30773,
    "DOCTYPE": 21300,
    "▁putting": 10594,
    "▁teat": 28308,
    "▁vol": 1700,
    "▁commonly": 15574,
    "hnen": 26291,
    "assembly": 26936,
    "<<ST_273>>": 32273,
    "]).": 14664,
    "azy": 24683,
    "▁interactive": 28923,
    "▁inside": 2768,
    "тра": 6711,
    "▁пов": 5885,
    "rom": 456,
    "▁W": 399,
    "▁seven": 9881,
    "larg": 27489,
    "▁pré": 7175,
    "▁tell": 2649,
    "▁ly": 21261,
    "于": 30909,
    "▁Exper": 28224,
    "▁searches": 29645,
    "▁spent": 10398,
    ";</": 14814,
    "▁проду": 23092,
    "▁spraw": 26183,
    "▁empres": 24653,
    "▁XX": 6193,
    "▁mog": 13160,
    "atem": 17533,
    "店": 31758,
    "\"],": 12436,
    "▁Pos": 10321,
    "oden": 13183,
    "Flags": 15675,
    "val": 791,
    "Local": 7717,
    "orth": 2072,
    "iffe": 11540,
    "면": 31747,
    "ане": 13800,
    "▁Резу": 22443,
    "Character": 20755,
    "rown": 4708,
    "▁toutes": 14984,
    "bell": 12562,
    "Win": 17734,
    "▁extremely": 14154,
    "▁Alban": 21805,
    "▁subsets": 27639,
    "handler": 13789,
    "▁Ry": 15586,
    "▁Stars": 25435,
    "▁gep": 9164,
    "▁divent": 28356,
    "▁coffee": 26935,
    "▁rat": 7548,
    "▁Johannes": 15265,
    "▁истории": 20765,
    "▁deren": 15286,
    "Changes": 21459,
    "<0x6F>": 114,
    "<<ST_602>>": 32602,
    "▁Edge": 21086,
    "▁war": 1370,
    "▁gold": 7684,
    "expl": 24516,
    "шло": 26866,
    "▁Mitte": 23115,
    "▁blah": 29268,
    "▁секре": 26198,
    "▁Street": 7103,
    "▁adapt": 7744,
    "awa": 10011,
    "▁Junior": 15897,
    "endif": 15224,
    "=$(": 19758,
    "▁Pref": 27611,
    "▁persons": 12407,
    "▁вер": 8060,
    "ament": 1166,
    "▁entrance": 19546,
    "ṇ": 30565,
    "▁abol": 25198,
    "▁repet": 21159,
    "▁Theorem": 10244,
    "▁instanceof": 28919,
    "ption": 683,
    "▁imm": 5198,
    "ilo": 7820,
    "▁wanted": 5131,
    "▁Bol": 8922,
    "▁desired": 7429,
    "iko": 10349,
    "][": 3816,
    "▁fier": 21334,
    "▁fish": 9427,
    "▁boats": 25462,
    "ading": 9382,
    "▁kyr": 28164,
    "▁fix": 2329,
    "resize": 21476,
    "▁&\\": 8682,
    "оні": 29031,
    "<<ST_265>>": 32265,
    "uid": 5416,
    "fon": 18753,
    "ните": 12897,
    "▁są": 14435,
    "alog": 27330,
    "▁nat": 14033,
    "^{": 998,
    "oom": 29667,
    "▁intitul": 17198,
    "▁drug": 15721,
    "▁Units": 28386,
    "▁Gast": 18406,
    "▁Mul": 21193,
    "alom": 17419,
    "uchar": 24059,
    "ść": 6598,
    "<<ST_97>>": 32097,
    "▁despite": 15020,
    "▁brit": 6791,
    "tensor": 20158,
    "▁Wall": 14406,
    "\\'": 20333,
    "▁clar": 7542,
    "use": 1509,
    "int": 524,
    "▁You": 887,
    "autom": 17405,
    "aser": 29440,
    "▁Up": 5020,
    "▁Most": 7849,
    "<<ST_61>>": 32061,
    "▁defense": 26406,
    "▁customers": 20330,
    "<<ST_377>>": 32377,
    "▁unusual": 22910,
    "▁Hall": 6573,
    "▁removes": 25388,
    "ounce": 21543,
    "ade": 1943,
    "ician": 8910,
    "▁modelo": 29472,
    "▁Vincent": 19748,
    "mense": 27352,
    "▁липня": 25283,
    "<<ST_32>>": 32032,
    "▁observations": 13917,
    "▁dinner": 17803,
    "augh": 6334,
    "van": 3703,
    "▁das": 1697,
    "▁fútbol": 29345,
    "point": 3149,
    "▁kur": 12802,
    "▁~": 3695,
    "▁majority": 13638,
    "▁declare": 9607,
    "▁estudios": 29061,
    "▁Бе": 8056,
    "▁deployed": 21168,
    "न": 30424,
    "...": 856,
    "▁klass": 22902,
    "▁dub": 15416,
    "<<ST_191>>": 32191,
    "[-": 14352,
    "▁svg": 25773,
    "idades": 7305,
    "▁documented": 23531,
    "}^{\\": 6292,
    "▁bean": 17796,
    "urent": 24811,
    "▁introduce": 14944,
    "▁trail": 26203,
    "<<ST_437>>": 32437,
    "▁configurations": 22920,
    "▁Carol": 8562,
    "დ": 30894,
    "▁uninstall": 27608,
    "phr": 24588,
    "黒": 31553,
    "anz": 4096,
    "esa": 8625,
    "▁exterior": 25591,
    "<<ST_739>>": 32739,
    "LED": 20566,
    "グ": 30521,
    "▁coin": 19480,
    "bau": 9738,
    "Lower": 19357,
    "стю": 19834,
    "Holder": 11439,
    "<<ST_415>>": 32415,
    "mut": 6149,
    "<0xEC>": 239,
    "cow": 20587,
    "▁utwor": 28085,
    "when": 8256,
    "аль": 4393,
    "ells": 10071,
    "▁if": 565,
    "riction": 19902,
    "université": 26759,
    "▁ciudad": 9866,
    "zte": 8832,
    "▁“": 1346,
    "tera": 10120,
    "вня": 11752,
    "▁suc": 8630,
    "▁Daniel": 8432,
    "▁Safari": 24544,
    "▁utility": 19725,
    "▁EDIT": 11488,
    "▁geometry": 16303,
    "reiche": 23296,
    "ris": 3780,
    "▁\\<": 3551,
    "ep": 1022,
    "GridView": 16584,
    "atrice": 17417,
    "▁descri": 2342,
    "mans": 21555,
    "igkeit": 9918,
    "ờ": 30997,
    "зи": 1916,
    "ogo": 10482,
    "อ": 30351,
    "sq": 3044,
    "cluded": 13347,
    "▁brothers": 21383,
    "▁Other": 5901,
    "')[": 29861,
    "再": 31733,
    "Policy": 15644,
    "pom": 29533,
    "▁fonts": 23849,
    "inners": 16697,
    "rupt": 6685,
    "`;": 21966,
    "▁firewall": 25570,
    "▁Congrès": 20274,
    "napshot": 14551,
    "▁CHECK": 23557,
    "won": 12620,
    "след": 6481,
    "▁instruction": 15278,
    "uck": 2707,
    "▁necess": 3520,
    "▁components": 7117,
    "á": 29976,
    "<<ST_630>>": 32630,
    "▁suffix": 25557,
    "zenie": 18638,
    "▁utilisé": 28643,
    "samples": 27736,
    "▁originale": 12934,
    "йм": 27987,
    "temp": 7382,
    "▁sym": 5016,
    "▁confident": 24332,
    "react": 8423,
    "ała": 13565,
    "▁работал": 27814,
    "über": 12465,
    "我": 30672,
    "invoke": 9772,
    "▁Short": 13899,
    "▁navigation": 11322,
    "ję": 10274,
    "#,": 6552,
    "reb": 15203,
    "umar": 24540,
    "▁monaster": 23937,
    "})^": 28813,
    "atch": 905,
    "}}$.": 26253,
    "▁alternative": 8671,
    "▁Lane": 23841,
    "▁Edit": 7641,
    "Τ": 30414,
    "ǫ": 31490,
    "▁ње": 24493,
    "▁hot": 7375,
    "▁]]": 29588,
    "▁ez": 20803,
    "Dictionary": 11513,
    "▁allocation": 24082,
    "<<ST_520>>": 32520,
    "▁children": 4344,
    "≤": 30248,
    "▁zast": 21893,
    "▁Попис": 27645,
    "▁Rey": 27147,
    "▁torneo": 23300,
    "▁Tak": 14619,
    "▁januari": 15288,
    "▁Поль": 21559,
    "▁Sn": 22639,
    "▁frequency": 10868,
    "▁Die": 1640,
    "<<ST_476>>": 32476,
    "<<ST_245>>": 32245,
    "▁radiation": 27310,
    "Mr": 20335,
    "▁delimiter": 28552,
    "▁marque": 29452,
    "▁Cés": 27627,
    "AM": 5194,
    "▁sendo": 21324,
    "▁bzw": 16591,
    "ities": 1907,
    "▁Business": 15197,
    "▁Ukrain": 29417,
    "▁remembered": 21832,
    "▁declar": 7669,
    "イ": 30260,
    "message": 4906,
    "▁seizo": 25454,
    "▁Cred": 24596,
    "för": 9255,
    "<<ST_366>>": 32366,
    "weet": 16668,
    "<<ST_762>>": 32762,
    "▁exem": 11875,
    "▁purposes": 11976,
    "▁}\\": 17704,
    "ított": 22811,
    "tableView": 18125,
    "▁historique": 23396,
    "▁cron": 18863,
    "DAY": 28658,
    "<<ST_28>>": 32028,
    "▁міста": 25191,
    "▁painting": 20413,
    "▁syn": 5222,
    "Brain": 22097,
    ")(": 5033,
    "network": 11618,
    "▁entities": 16212,
    "dec": 7099,
    "achusetts": 15404,
    "Static": 17046,
    "ensen": 14762,
    "Redirect": 24735,
    "<<ST_512>>": 32512,
    "▁coun": 2613,
    "ários": 26047,
    "kg": 9415,
    "İ": 30243,
    "gericht": 20665,
    "lijk": 18022,
    "▁Jean": 4581,
    "▁command": 1899,
    "ixed": 11925,
    "liga": 10381,
    "▁Bad": 9178,
    "zin": 23374,
    "▁По": 2195,
    "си": 1325,
    "结": 31320,
    "зу": 3923,
    "▁conditions": 5855,
    "▁Child": 10517,
    "öff": 8850,
    "▁compon": 2964,
    "▁hol": 8753,
    "茶": 31954,
    "etc": 7070,
    "your": 8066,
    "кор": 16848,
    "enant": 27153,
    "▁answer": 1234,
    "▁allocate": 23632,
    "雄": 31322,
    "▁exit": 6876,
    "▁llam": 11829,
    "ymnasium": 27384,
    "▁particul": 16530,
    "▁Otherwise": 13466,
    "ijk": 13535,
    "ic": 293,
    "BA": 5688,
    "▁Beach": 17594,
    "▁hr": 22157,
    "High": 16382,
    "ansion": 9454,
    "ὶ": 30593,
    "ес": 4449,
    "utf": 9420,
    "ut": 329,
    "лин": 8279,
    "ской": 2641,
    "結": 31711,
    "tbody": 15370,
    "▁január": 22945,
    "<<ST_102>>": 32102,
    "ken": 1717,
    "<<ST_747>>": 32747,
    "▁Opt": 20693,
    "▁truth": 8760,
    "▁future": 5434,
    "GP": 19903,
    "▁accept": 3544,
    "▁-": 448,
    "▁difficulty": 14656,
    "▁Station": 12039,
    "ROW": 25180,
    "gemeinde": 25474,
    "▁DOM": 12369,
    "▁authority": 14329,
    "▁Pitt": 18727,
    "izard": 17909,
    "▁annot": 9732,
    "▁successor": 29433,
    "ків": 6104,
    "▁террито": 15365,
    "▁_{": 7722,
    "▁Survey": 23218,
    "Helper": 10739,
    "kret": 22751,
    "▁широ": 24069,
    "ց": 31554,
    "▁federal": 17097,
    "ipped": 16242,
    "、": 30330,
    "▁pieces": 12785,
    ")^": 4887,
    "navbar": 21890,
    "▁CHAPTER": 12689,
    "HERE": 5006,
    "▁кор": 13511,
    "egung": 28345,
    "alleng": 16047,
    "tre": 2484,
    "▁Louis": 5899,
    "▁gering": 29166,
    "▁назна": 21680,
    "pher": 8096,
    "branch": 17519,
    "▁Jews": 22057,
    "▁protocol": 9608,
    "<0xF9>": 252,
    "▁Company": 6938,
    "ilian": 20548,
    "▁yeux": 26809,
    "▁WHEN": 17980,
    "ী": 31595,
    "▁Ло": 15636,
    "▁carri": 19638,
    "▁Lars": 28620,
    "品": 31399,
    "▁Eur": 26360,
    "гово": 18763,
    "▁João": 26117,
    "лки": 7574,
    "removeClass": 25636,
    "aglia": 17474,
    "ној": 13717,
    "rl": 2096,
    "▁searched": 17371,
    "Library": 12284,
    "▁applied": 7436,
    "irl": 5168,
    "---------+": 28490,
    "▁sculpt": 17039,
    "oni": 5271,
    "ä": 29986,
    "▁erg": 23682,
    "store": 8899,
    "▁Riv": 21505,
    "▁Atlantic": 19948,
    "▁procedures": 28648,
    "дель": 13538,
    "▁jamais": 18413,
    "▁grep": 12680,
    "ктив": 8888,
    "শ": 31686,
    "어": 31129,
    "▁subsequ": 9602,
    "动": 30846,
    "▁assass": 20105,
    "Fl": 8754,
    "ése": 10237,
    "▁passage": 13382,
    "antin": 13027,
    "ViewController": 6917,
    "спе": 16966,
    "▁User": 4911,
    "▁commanded": 26540,
    "▁Север": 23070,
    "▁Wisconsin": 22581,
    "We": 4806,
    "▁tut": 7149,
    "▁FILE": 24080,
    "▁paramet": 25011,
    "au": 585,
    "▁llev": 21657,
    "▁regarded": 17878,
    "▁Reg": 2169,
    "▁Sommer": 22820,
    "▁meas": 7540,
    "▁публи": 26147,
    "▁pian": 16782,
    "ettes": 21158,
    "icing": 18499,
    "нию": 7506,
    "ynomial": 9222,
    "седа": 20915,
    "DataSet": 28449,
    "▁▁▁▁▁▁▁": 4706,
    "už": 25555,
    "်": 30693,
    "вей": 24659,
    "▁kter": 8134,
    "ás": 1569,
    "▁Probably": 21606,
    "unt": 1657,
    "▁Геор": 24644,
    "▁Geographic": 26304,
    "aren": 8326,
    "our": 473,
    "▁directed": 10624,
    "recht": 15320,
    "read": 949,
    "近": 31830,
    "UL": 13309,
    "),\\": 20481,
    "▁две": 20880,
    "&\\": 11035,
    "▁Forum": 29474,
    "▁scen": 5763,
    "ұ": 31212,
    "▁Населення": 19837,
    "ariat": 29294,
    "eil": 23270,
    "Set": 2697,
    "▁mate": 15358,
    "▁pelos": 29678,
    "▁combatt": 28640,
    "wikipedia": 6011,
    "▁EP": 16502,
    "▁Trib": 16855,
    "рая": 18171,
    "che": 1173,
    "▁Glad": 19319,
    "▁macro": 11758,
    "Cookie": 24914,
    "▁appropriate": 8210,
    "▁mentioned": 5276,
    "▁Alexand": 13878,
    "ního": 15346,
    "beck": 19645,
    "AW": 29376,
    "▁Linear": 22985,
    "▁evangel": 23077,
    "hö": 13238,
    "ro": 307,
    "adamente": 22536,
    "ん": 30389,
    "▁familiar": 9985,
    "▁fully": 8072,
    "▁genu": 29120,
    "igte": 15085,
    "▁Prior": 22096,
    "ivel": 13255,
    "▁fork": 27350,
    "▁Санкт": 28380,
    "▁контра": 28415,
    "umm": 23824,
    "▁Great": 7027,
    "▁heavy": 9416,
    "▁tradu": 27219,
    "<<ST_24>>": 32024,
    "▁statement": 3229,
    "cation": 9252,
    "Obj": 9930,
    "rodu": 3518,
    "▁rejected": 22225,
    "nym": 9574,
    "▁natur": 4033,
    "lymp": 4960,
    "▁département": 13202,
    "▁Gut": 24032,
    "▁notation": 12640,
    "▁exist": 1863,
    "▁dying": 27116,
    "▁noticed": 10548,
    "▁angle": 10696,
    "▁fő": 16793,
    "为": 30573,
    "ографи": 8755,
    "▁b": 289,
    "abol": 19388,
    "び": 31298,
    "中": 30275,
    "▁Research": 10550,
    "▁Council": 8831,
    "▁spect": 6683,
    "┤": 31289,
    "▁Bishop": 16880,
    "Φ": 30551,
    "►": 30318,
    "alles": 26493,
    "▁oldest": 23947,
    "▁Appro": 28268,
    "Desktop": 17600,
    "▁witness": 16277,
    "位": 30956,
    "anti": 3656,
    "тре": 11414,
    "▁extract": 6597,
    "▁Widget": 27080,
    "▁surfaces": 28001,
    "▁Rick": 24218,
    "Rel": 9662,
    "Radio": 21818,
    "պ": 31790,
    "gia": 13723,
    "дели": 23890,
    "▁municip": 5536,
    "stringify": 22070,
    "agu": 10617,
    "持": 31695,
    "▁hatten": 19459,
    "▁note": 4443,
    "asy": 8995,
    "▁debugging": 13490,
    "<<ST_436>>": 32436,
    "▁prima": 7233,
    "▁pul": 9505,
    "avigation": 5437,
    "▁techn": 5722,
    "нення": 22189,
    "▁corresponds": 16161,
    "ி": 30781,
    "▁Ver": 1798,
    "canvas": 15257,
    "▁independence": 21820,
    "▁Нау": 25420,
    "▁joined": 8772,
    "Sl": 16973,
    "▁Zwischen": 24527,
    "()`.": 13595,
    "Contains": 21409,
    "ani": 3270,
    "▁NA": 8598,
    "◄": 30322,
    "Rout": 24254,
    "▁númer": 12158,
    "itors": 17259,
    "\"/>": 4681,
    "無": 31209,
    "▁nicht": 3072,
    "▁Dup": 18733,
    "()": 580,
    "жении": 26362,
    "foo": 5431,
    "通": 30768,
    "лав": 5206,
    "PART": 26092,
    "month": 10874,
    "green": 12692,
    "ńska": 27123,
    "eus": 21477,
    "▁gang": 20676,
    "że": 6301,
    "али": 12172,
    "▁Zo": 17421,
    "ō": 30099,
    "▁tk": 18883,
    "▁voit": 24722,
    "▁founded": 11091,
    "▁advantage": 10631,
    "тем": 12933,
    "▁смер": 18047,
    "rics": 10817,
    "Stage": 27276,
    "▁may": 1122,
    "▁Historia": 11094,
    "▁Orig": 29766,
    "▁window": 3474,
    "▁Und": 14211,
    "▁pels": 29549,
    "▁####": 3191,
    "HT": 3912,
    "▁Cer": 10580,
    "ppe": 4798,
    "▁establish": 10127,
    "▁obviously": 12879,
    "Anim": 21645,
    "<0xFF>": 258,
    "▁LCCN": 13056,
    "▁lookup": 16280,
    "▁turno": 24562,
    "沢": 31740,
    "▁pos": 926,
    "Ћ": 30879,
    "▁circular": 19308,
    "Angle": 19582,
    "▁escri": 21415,
    "▁svensk": 29249,
    "▁conducted": 18043,
    "care": 18020,
    "▁mist": 5862,
    "oster": 15664,
    "▁началь": 22485,
    "Agent": 19661,
    "▁nodes": 7573,
    "▁yours": 15850,
    "Cloud": 20442,
    "▁record": 2407,
    "▁Lat": 7053,
    "▁user": 1404,
    "▁stdout": 27591,
    "▁admit": 20000,
    "anterie": 27166,
    "good": 16773,
    "常": 31190,
    "ı": 30130,
    "▁rec": 1162,
    "▁días": 24167,
    "▁pivot": 24438,
    "▁State": 4306,
    "Drawable": 26945,
    "онов": 26119,
    "▁plane": 10694,
    "▁freedom": 16082,
    "╔": 31351,
    "<<ST_37>>": 32037,
    "named": 17514,
    "ague": 3437,
    "w": 29893,
    "yj": 17472,
    "eland": 14045,
    "outs": 17718,
    "▁фор": 9116,
    "�": 30140,
    "рё": 18535,
    "artifactId": 9680,
    "kes": 10794,
    "▁Dj": 27467,
    "▁Don": 3872,
    "▁shift": 9500,
    "<<ST_507>>": 32507,
    "▁годов": 23566,
    "▁gem": 7055,
    "▁streets": 19756,
    "Primary": 26666,
    "▁Isa": 19899,
    "Outlet": 29377,
    "▁війни": 28531,
    "ors": 943,
    "lict": 29176,
    "вого": 16801,
    "▁Norway": 27440,
    "▁меся": 29706,
    "Ρ": 30896,
    "▁¡": 28534,
    "▁paint": 10675,
    "▁NK": 28998,
    "▁Laura": 21671,
    "goto": 27102,
    "▁оборо": 25033,
    "▁ч": 2493,
    "isted": 12652,
    "▁complicated": 12092,
    "▁Luxemb": 23812,
    "▁enjoyed": 27849,
    "rob": 13716,
    "▁truly": 19781,
    "▁kde": 26109,
    "▁kallaste": 26675,
    "igen": 2101,
    "aty": 11156,
    "▁chemin": 26786,
    "nen": 4566,
    "▁lord": 18120,
    "shared": 12366,
    "▁f": 285,
    "▁jeune": 17222,
    "▁Cependant": 27816,
    "▁ssh": 13927,
    "▁naam": 8483,
    "▸": 31234,
    "iano": 3328,
    "ос": 3264,
    "▁Professional": 20031,
    "▁Москов": 20208,
    "▁cloth": 13950,
    "dropdown": 19305,
    "▁zv": 15486,
    "▁Harr": 12303,
    "▁bronze": 18449,
    "Ё": 30555,
    "▁licz": 23022,
    "▁hundreds": 21006,
    "▁pace": 27725,
    "▁axes": 27815,
    "<<ST_444>>": 32444,
    "fahrt": 29182,
    "▁listing": 18028,
    "últ": 28961,
    "▁Rub": 14985,
    "▁Liga": 9180,
    "▁Jud": 8660,
    "▁of": 310,
    "<0x91>": 148,
    "▁begun": 23580,
    "▁Flora": 23267,
    "▁театра": 26967,
    "▁orch": 22624,
    "Val": 1440,
    "▁fé": 19431,
    "cond": 1116,
    "rij": 4927,
    "▁образ": 11998,
    "elte": 14248,
    "▁zw": 5263,
    "▁wyd": 18756,
    "ique": 1387,
    "ія": 5420,
    "▁fright": 22739,
    "field": 2671,
    "▁första": 23564,
    "▁Tony": 15293,
    "▁cookie": 15327,
    "▁Spe": 5013,
    "▁seu": 5078,
    "cido": 13321,
    "▁generalized": 28803,
    "dir": 3972,
    "zyma": 27425,
    "▁ville": 8441,
    "quote": 1396,
    "▁literal": 16333,
    "▁intens": 12838,
    "▁occurred": 10761,
    "YPE": 6959,
    "!”": 8530,
    "▁profiles": 28723,
    "act": 627,
    "▁Meta": 20553,
    "म": 30485,
    "▁Within": 23732,
    "▁Hier": 12433,
    "infty": 3411,
    "▁piece": 8424,
    "▁Mean": 16316,
    "cker": 4937,
    "₉": 30301,
    "▁produces": 13880,
    "<<ST_119>>": 32119,
    "▁monitoring": 29652,
    "行": 30448,
    "▁AL": 14445,
    "ualmente": 14162,
    "reland": 11209,
    "▁recensement": 25650,
    "},": 1118,
    "▁Schwar": 17617,
    "JB": 29674,
    "▁Local": 9959,
    "▁твор": 26878,
    "▁soup": 22300,
    "Anchor": 24458,
    "▁danger": 9703,
    "тери": 8747,
    "▁исто": 7874,
    "ം": 30812,
    "key": 1989,
    "▁cookies": 21046,
    "▁incorrectly": 29676,
    "nic": 7823,
    "▁country": 4234,
    "▁центр": 23835,
    "leben": 25434,
    "布": 31454,
    "ility": 1793,
    "atan": 23402,
    "termin": 18821,
    "▁fur": 3261,
    "移": 31618,
    "aur": 6698,
    "erman": 3504,
    "▁appro": 2134,
    "wod": 27309,
    "▁nommé": 21624,
    "This": 4013,
    "plates": 9884,
    "▁schw": 25184,
    "▁Len": 16206,
    "WRITE": 16365,
    "']": 2033,
    "a": 29874,
    "▁generates": 16785,
    "bul": 8645,
    "▁execut": 6704,
    "定": 30495,
    "rel": 2674,
    "▁Home": 8778,
    "archiv": 24121,
    "▁сайте": 16752,
    "▁prest": 18619,
    "wissenschaft": 17556,
    "▁miejs": 8786,
    "▁menor": 26764,
    "▁typedef": 21787,
    "▁scene": 9088,
    "acon": 23074,
    "imo": 4200,
    "ז": 30776,
    "versary": 27547,
    "verify": 27902,
    "▁eleven": 28121,
    "▁bekend": 24955,
    "mp": 1526,
    "▁cet": 15093,
    "▁bout": 25927,
    "concat": 17685,
    "antly": 10835,
    "▁pueden": 19796,
    "▁services": 5786,
    "▁més": 8051,
    "▁Hog": 27675,
    "▁струк": 22675,
    "bp": 25288,
    "▁полови": 28072,
    "▁Ord": 16557,
    "type": 1853,
    "Jan": 26626,
    "▁opacity": 17012,
    "ission": 2333,
    "amo": 10178,
    "▁живело": 23996,
    "kende": 28878,
    "▁awards": 24441,
    "神": 30648,
    "](": 850,
    "▁appel": 16794,
    "▁Ya": 25887,
    "▁games": 8090,
    "Austral": 22537,
    "Element": 2642,
    "rais": 23469,
    "▁current": 1857,
    "finite": 18925,
    "▁jun": 4707,
    "▁deutsch": 4795,
    "일": 31153,
    "▁T": 323,
    "▁tuple": 18761,
    "PG": 16903,
    "backgroundColor": 29605,
    "▁TCP": 19374,
    "▁Nick": 13853,
    "▁intersection": 17686,
    "▁borders": 28199,
    ")|": 10531,
    "▁они": 16642,
    "idea": 11729,
    "▁Bernard": 13337,
    "▁optim": 5994,
    "DEFAULT": 23397,
    "▁Wayne": 25843,
    "▁eredet": 21243,
    "▁día": 17355,
    "erna": 10989,
    "▁Га": 8544,
    "▁Vere": 9380,
    "龙": 31300,
    "łoż": 20156,
    "▁LIKE": 22962,
    "binom": 16183,
    "adr": 7887,
    "▁cool": 12528,
    "▁SSL": 17122,
    "▁premi": 5730,
    "ggi": 11832,
    "anned": 11310,
    "▁makes": 3732,
    "Cert": 20455,
    "▁Text": 3992,
    "▁apparten": 27119,
    "väst": 28583,
    "Data": 1469,
    "dk": 8181,
    "▁silent": 17436,
    "ivalent": 27445,
    "▁jazz": 21230,
    "▁dtype": 26688,
    "▁performances": 21637,
    "▁Cette": 10793,
    "▁großen": 19877,
    "pk": 20571,
    "AU": 25951,
    "пара": 20691,
    "ategy": 8963,
    "▁го": 1084,
    "▁engines": 24000,
    "素": 31605,
    "sed": 8485,
    "kten": 9553,
    "älle": 23637,
    "▁DateTime": 12315,
    "}_{\\": 6353,
    "▁typing": 19229,
    "‐": 30304,
    "chester": 10530,
    "öll": 22232,
    "inking": 18159,
    "▁doi": 13102,
    "generator": 27959,
    "▁’": 16156,
    "▁относи": 25754,
    "▁improve": 11157,
    "▁longitude": 28745,
    "description": 8216,
    "backend": 27852,
    "при": 7104,
    "▁order": 1797,
    "▁alias": 13995,
    "▁nominated": 28442,
    "mania": 20977,
    ",--": 7839,
    "▁Lond": 3621,
    "▁quale": 13226,
    "参": 31125,
    "cció": 19103,
    "▁Fall": 14053,
    "ever": 1310,
    "achi": 26213,
    "music": 23596,
    "▁ela": 25192,
    "▁depois": 22090,
    "▁everyone": 14332,
    "▁spaces": 8162,
    "adesh": 21754,
    "çu": 24359,
    "▁placeholder": 12983,
    "▁Beat": 18573,
    "▁Metro": 23803,
    "▁Phoenix": 29715,
    "position": 3283,
    "▁balls": 26563,
    "<0x23>": 38,
    "▁entirely": 9186,
    "ders": 8623,
    "}-\\": 12775,
    "<0x1F>": 34,
    "▁fand": 19857,
    "<<ST_418>>": 32418,
    "Serv": 6889,
    "iche": 4070,
    "▁Sur": 6298,
    "ANCE": 23219,
    "Items": 6913,
    "▁vary": 13100,
    "atur": 1337,
    "Reg": 4597,
    "▁living": 8471,
    "▁Fel": 11961,
    "▁Tib": 19429,
    "▁к": 1186,
    "▁авиа": 24757,
    "▁novembre": 7005,
    "▁consequence": 17004,
    "▁divers": 6894,
    "▁Frei": 26272,
    "cies": 2478,
    "delete": 8143,
    "▁experimental": 17986,
    "cí": 9271,
    "▁guns": 18788,
    "gov": 13513,
    "▁okres": 20010,
    "ének": 20242,
    "NEW": 28577,
    "partial": 3846,
    "▁diciembre": 9060,
    "<<ST_549>>": 32549,
    "▁eine": 2128,
    "iley": 15168,
    "стра": 5242,
    "вы": 4938,
    "vendor": 19167,
    "▁conflict": 14529,
    "▁mouvement": 25924,
    "▁mètres": 22609,
    "ycle": 13317,
    "▁listop": 18262,
    "▁search": 2740,
    "▁Een": 16883,
    "▁aircraft": 15780,
    "⊥": 31316,
    ";`": 10367,
    "uez": 24448,
    "<<ST_52>>": 32052,
    "<0x81>": 132,
    "▁No": 1939,
    "▁Block": 15658,
    "▁poi": 11899,
    "ns": 1983,
    "▁Cover": 26428,
    "▁decode": 21822,
    "▁haut": 22916,
    "ToString": 8246,
    "▁fö": 10621,
    "agon": 12841,
    "▁Maz": 17326,
    "ogli": 27579,
    "▁Jug": 12028,
    "▁sempre": 14472,
    "▁Wh": 806,
    "cel": 2242,
    "গ": 31665,
    "▁indexing": 26190,
    "收": 31997,
    "▁opposed": 15869,
    "▁Bib": 19864,
    "▁św": 24785,
    ".),": 9774,
    "ikz": 9510,
    "ְ": 30590,
    "nehmer": 23450,
    "jící": 27453,
    "▁ze": 3777,
    "Iter": 13463,
    "Foo": 14016,
    "▁сле": 10535,
    "лтати": 25229,
    "▁illustrated": 26848,
    "▁ré": 1841,
    "ués": 28478,
    "Expr": 21176,
    "▁beskrevs": 7718,
    "▁Was": 12547,
    "itu": 1981,
    "ires": 2658,
    "▁ended": 9698,
    "via": 6071,
    "пня": 14840,
    "▁stessa": 29200,
    "▁government": 5874,
    "▁IE": 7159,
    "gate": 17062,
    "▁voted": 24854,
    "▁От": 14809,
    "▁$\\{": 12564,
    "▁academ": 16274,
    "坂": 31813,
    "onneur": 25905,
    "▁typeof": 20086,
    "▁Highway": 22080,
    "▁арти": 21564,
    "div": 4563,
    "▁Phili": 8234,
    "ját": 24651,
    "▁ways": 5837,
    "▁sixth": 25963,
    "▁setup": 6230,
    "Object": 2061,
    "▁absolute": 8380,
    "▁accompanied": 21302,
    "по": 1268,
    "<<ST_550>>": 32550,
    "chrome": 18114,
    "yme": 25395,
    "ToList": 21254,
    "▁business": 5381,
    "أ": 30372,
    "▁timp": 29297,
    "▁off": 1283,
    "side": 2975,
    "<<ST_694>>": 32694,
    "▁még": 23645,
    "syn": 19274,
    "▁damit": 14733,
    "anu": 15623,
    "readsheet": 27844,
    "izia": 15357,
    "AccessorImpl": 20527,
    "▁strategy": 13705,
    "▁readers": 22176,
    "▁assist": 6985,
    "ір": 15429,
    "validate": 15480,
    "▁nombreux": 20081,
    "iei": 27496,
    "▁Minister": 7668,
    "PD": 25014,
    "ље": 7393,
    "READ": 16310,
    "emento": 13028,
    "urchase": 27574,
    "emeinde": 6861,
    "Any": 10773,
    "An": 2744,
    "▁$('.": 12721,
    "oured": 14076,
    "tb": 22625,
    "ryty": 29157,
    "isto": 5137,
    "tout": 24442,
    "▁mont": 7629,
    "heart": 23057,
    "OF": 9800,
    "kie": 19501,
    "зни": 14489,
    "ík": 23576,
    "報": 31519,
    "▁Jakob": 27850,
    "Gen": 15462,
    "ським": 29796,
    "verkehr": 27271,
    "▁db": 4833,
    "▁DA": 21330,
    "Description": 9868,
    "▁Hil": 12338,
    "▁en": 427,
    "▁bild": 14071,
    "empio": 27667,
    "ando": 1743,
    "<0xFE>": 257,
    "▁Ли": 6105,
    "▁wicht": 21393,
    "▁född": 22123,
    "▁automatisch": 19762,
    "▁xcode": 24089,
    "▁Bundes": 8457,
    "▁charged": 20139,
    "▁superfic": 18795,
    "▁gez": 17364,
    "д": 29957,
    "▁ou": 2123,
    "ako": 4614,
    "inx": 14668,
    "reason": 23147,
    "▁Montr": 29387,
    "▁EU": 19007,
    "нен": 9931,
    "hire": 14812,
    "lice": 5897,
    "__.": 26914,
    "▁charact": 2150,
    "▁entitled": 23437,
    "zed": 24688,
    "座": 31780,
    "<<ST_46>>": 32046,
    "▁independent": 7417,
    "<<ST_396>>": 32396,
    "amp": 1160,
    "▁Ш": 4119,
    "▁Django": 15337,
    "载": 31526,
    "此": 31389,
    "import": 5215,
    "▁dalle": 19078,
    "ם": 30404,
    "identifier": 25378,
    "=\"@+": 9438,
    "LO": 3927,
    "▁canad": 23801,
    "Front": 29348,
    "▁champ": 18480,
    "▁Care": 10057,
    "트": 31177,
    "iency": 13396,
    "▁];": 12940,
    "Scal": 29636,
    "`)": 6348,
    "udad": 7981,
    "RY": 13207,
    "▁himself": 3654,
    "▁datos": 18683,
    "ext": 1062,
    "▁Square": 19256,
    "Delay": 24996,
    "▁quattro": 21842,
    "▁elder": 27008,
    "omorphism": 14143,
    "notation": 16666,
    "་": 30410,
    "▁Liter": 5449,
    "циона": 22093,
    "archive": 10867,
    "▁classific": 20670,
    "▁Lub": 19278,
    "▁Cl": 2233,
    "▁ers": 17730,
    "▁load": 2254,
    "▁Geschäft": 27670,
    "▁opening": 8718,
    "▁issues": 5626,
    "▁мет": 17194,
    "▁jel": 12736,
    "міні": 21124,
    "▁means": 2794,
    "î": 30058,
    "mag": 11082,
    "▁requests": 7274,
    "▁leaders": 20251,
    "駅": 30920,
    "Dec": 6185,
    "▁Char": 2896,
    "Inject": 28329,
    "throw": 20539,
    "ský": 13012,
    "▁Charlie": 20283,
    "izza": 24990,
    "▁drew": 15010,
    "ilt": 2782,
    "▁Gilbert": 23657,
    "2": 29906,
    "kon": 8077,
    "▁manière": 26722,
    "瀬": 31933,
    "▁BTW": 24750,
    "▁vague": 25160,
    "ồ": 30926,
    "▁Bern": 6209,
    "▁encuent": 10671,
    "enabled": 17590,
    "▁Hamburg": 14847,
    "aste": 4350,
    "▁revel": 20474,
    "▁contradiction": 23949,
    "uden": 27336,
    "TeX": 16644,
    "циональ": 12671,
    "▁Kru": 28499,
    "ura": 2002,
    "▁pl": 715,
    "inburgh": 23559,
    "oug": 692,
    "нии": 3849,
    "▁buf": 18392,
    "Quant": 22930,
    "▁extension": 6081,
    "inus": 13419,
    "▁existe": 19947,
    "▁script": 2471,
    "▁Emperor": 18075,
    "JS": 8700,
    "▁waar": 7739,
    "él": 3610,
    "▁curves": 19684,
    "One": 6716,
    "▁His": 3600,
    "idden": 4215,
    "▁veh": 10852,
    "▁copy": 3509,
    "\\/": 25558,
    "om": 290,
    "<<ST_170>>": 32170,
    "ui": 1481,
    "▁primi": 25877,
    "▁szerint": 26174,
    "Logger": 16363,
    "▁spirits": 26829,
    "Don": 10310,
    "<<ST_707>>": 32707,
    "▁Meter": 19333,
    "▁α": 19883,
    "▁présente": 22847,
    "periment": 15362,
    "-,": 15767,
    "гом": 17408,
    "▁still": 1603,
    "ца": 3432,
    "▁pale": 15509,
    "▁Albums": 25764,
    "←": 30245,
    "segu": 21664,
    "Inv": 12165,
    "unte": 17316,
    "▁`--": 22974,
    "inci": 2173,
    "▁termine": 20202,
    "▁Doctor": 15460,
    "▁był": 11573,
    "▁\"@": 17962,
    "мії": 23776,
    "▁infrastr": 22035,
    "ets": 1691,
    "片": 31122,
    "Ď": 31521,
    "▁turn": 2507,
    "dataset": 24713,
    "▁secolo": 15200,
    "▁ис": 9971,
    "/'": 22208,
    "▁differences": 12651,
    "▁которая": 21105,
    "<<ST_685>>": 32685,
    "▁si": 1354,
    "▁client": 3132,
    "▁controllers": 21385,
    "▁quand": 18097,
    "Europe": 15654,
    "▁often": 4049,
    "▁sag": 17233,
    "ówn": 10973,
    "adel": 11165,
    "<<ST_314>>": 32314,
    "▁Perhaps": 11637,
    "▁ду": 9023,
    "льных": 25575,
    "▁Geme": 11613,
    "▁MAX": 18134,
    "▁Infantry": 26571,
    "»,": 3558,
    "▁chart": 8727,
    "cha": 5815,
    "prepare": 19125,
    "▁Fred": 12001,
    "Ю": 30101,
    "putation": 14584,
    "▁Алек": 23225,
    "<<ST_87>>": 32087,
    "collect": 15914,
    "▁dos": 3248,
    "▁Map": 7315,
    "▁Eine": 11281,
    ">.": 15513,
    "▁Pf": 10022,
    "heten": 29557,
    "▁alter": 10551,
    "Π": 30288,
    "okat": 18489,
    "▁suf": 7332,
    "<<ST_262>>": 32262,
    "tw": 7516,
    "вати": 10957,
    "▁zog": 24882,
    "quire": 1548,
    "sam": 13445,
    "▁¿": 18613,
    "agnostic": 21780,
    "дах": 27920,
    "▁districts": 24172,
    "▁Nobel": 27813,
    "lex": 2506,
    "tit": 23545,
    "▁<-": 3705,
    "ół": 8166,
    "zahl": 17301,
    "▁indicator": 27717,
    "iencia": 24748,
    "Timeout": 10851,
    "▁Atlanta": 26484,
    "жи": 1969,
    "▁denen": 17209,
    "▁reign": 20913,
    "WT": 17755,
    "▁meist": 23887,
    "▁geomet": 28855,
    "▁sul": 5394,
    "entre": 14056,
    "▁stop": 5040,
    "пр": 21550,
    "▁resist": 9241,
    "ved": 1490,
    "▁prot": 17512,
    "▁dynast": 22337,
    "¤": 30435,
    "▁BBC": 14129,
    "▁favour": 15381,
    "erno": 24887,
    "iele": 9152,
    "▁zab": 22249,
    "▁surtout": 26154,
    "▁rabb": 27127,
    "лии": 26247,
    "▁appointment": 28573,
    "∑": 31060,
    "▁page": 1813,
    "été": 7342,
    "textwidth": 11434,
    "cloudflare": 28260,
    "ět": 9974,
    "▁ship": 7751,
    "els": 1379,
    "¥": 30563,
    "⥤": 31899,
    "▁orders": 11299,
    "▁Or": 1394,
    "학": 31822,
    "▁hypoth": 13752,
    "ABLE": 6181,
    "▁challenge": 18766,
    "▁Y": 612,
    "▁Фе": 19477,
    "рито": 10942,
    "дій": 19686,
    "▁sentiment": 19688,
    "Conne": 20971,
    "▁demonstr": 9004,
    "▁newsp": 14578,
    "RENT": 29450,
    "нер": 17466,
    "▁систе": 14245,
    "ably": 2197,
    "asures": 25414,
    "▁Dest": 15435,
    "▁inher": 7846,
    "▁пси": 27210,
    "пи": 1668,
    "": 31242,
    "ilog": 26140,
    "▁keyword": 13553,
    "▁prz": 5629,
    "ющей": 27029,
    "▁There": 1670,
    "ULL": 3299,
    "▁kunnen": 24055,
    "жива": 13204,
    ">;": 25867,
    "▁Тре": 27114,
    "onne": 7293,
    "▁motiv": 17385,
    "▁família": 16258,
    "▁bass": 12760,
    "▁Пер": 8880,
    "<<ST_98>>": 32098,
    "RED": 19386,
    "atter": 2620,
    "azzo": 16594,
    "▁завер": 24587,
    "стров": 28795,
    "▁Creating": 26221,
    "▁rejo": 19136,
    "ghan": 25143,
    "▁tec": 13784,
    "▁Swift": 14156,
    "flags": 15764,
    "6": 29953,
    "step": 10568,
    "▁mass": 4158,
    "▁kept": 8126,
    "aar": 4025,
    "▁Kay": 28444,
    "awk": 20011,
    "じ": 31115,
    "normal": 8945,
    "ด": 30718,
    "▁compañ": 23340,
    "▁Биография": 16194,
    "▁paths": 10898,
    "album": 10336,
    "▁level": 3233,
    "ʑ": 31670,
    "Notification": 12958,
    "▁ax": 4853,
    "Mock": 18680,
    "dj": 19776,
    "dash": 14592,
    "▁sie": 2686,
    "▁olymp": 15248,
    "▁expressed": 13384,
    "▁Enllaços": 26821,
    "▁харак": 18194,
    "ъл": 11136,
    "▁%>%": 12437,
    "chapter": 27349,
    "▁cut": 5700,
    "▁star": 5810,
    "内": 30728,
    "tags": 11338,
    "▁selected": 4629,
    "urs": 1295,
    "▁afternoon": 17724,
    "acco": 17970,
    "}-": 7402,
    "ître": 13639,
    "▁równ": 17805,
    "<<ST_83>>": 32083,
    "wicklung": 16518,
    "▁музи": 24608,
    "▁caus": 3269,
    "▁func": 3653,
    "<0x9F>": 162,
    "чей": 22587,
    "ATE": 3040,
    "▁Gall": 8130,
    "▁gmin": 13708,
    "pler": 20069,
    "▁registry": 21235,
    "ytics": 22026,
    "▁гово": 29554,
    "zeichnungen": 25643,
    "appen": 19934,
    "pl": 572,
    "▁byl": 9491,
    "fil": 1777,
    "▁ubic": 18256,
    "▁census": 16411,
    "pipe": 17760,
    "(\"@": 29475,
    "istoire": 6844,
    "▁Central": 8068,
    "▁vas": 19723,
    "▁Islam": 16427,
    "▁Pala": 27000,
    "kor": 13123,
    "ède": 14785,
    "သ": 31922,
    "<<ST_290>>": 32290,
    "▁мини": 20826,
    "ativas": 26126,
    "▁któ": 6738,
    "asso": 9979,
    "icro": 2357,
    "tmp": 7050,
    "ermann": 20648,
    "Once": 26222,
    "▁Linki": 17331,
    "Id": 1204,
    "binding": 19672,
    "atholic": 10047,
    "▁деятель": 16551,
    "▁serious": 10676,
    "Views": 23825,
    "caught": 24348,
    "spark": 12597,
    "áct": 18343,
    "entity": 10041,
    "▁attempting": 15661,
    "▁singing": 23623,
    "▁Mé": 10275,
    "▁togg": 17304,
    "▁clue": 23960,
    "▁stato": 7550,
    "▁dressed": 27121,
    "▁weg": 20669,
    "▁Another": 7280,
    "▁fits": 23994,
    "▁wood": 8112,
    "▁terrest": 27386,
    "фер": 25637,
    "sn": 16586,
    "▁часто": 23020,
    "▁ді": 15294,
    "▁Роз": 23591,
    "▁Sainte": 22356,
    "жена": 24357,
    "▁cattle": 27498,
    "quisition": 23493,
    "▁sent": 2665,
    "▁datetime": 12865,
    "▁ner": 26033,
    "▁blob": 23755,
    "♦": 30649,
    "▁forty": 20949,
    "▁dessin": 27869,
    "▁cell": 3038,
    "▁fore": 26839,
    "▁Bek": 23461,
    "єю": 15214,
    "Doc": 14526,
    "ienen": 12980,
    "▁parmi": 25763,
    "spiel": 9671,
    "▁comenzó": 27712,
    "▁EF": 22286,
    "▁arist": 28672,
    "▁chance": 8825,
    "Hot": 28917,
    "▁commun": 3817,
    "<<ST_173>>": 32173,
    "▁subclass": 19481,
    "▁bere": 9218,
    "<0xE9>": 236,
    "Img": 25518,
    "Thanks": 16894,
    "▁wins": 21614,
    "▁droit": 17950,
    "▁seizoen": 28622,
    "庄": 31868,
    "\\<": 4488,
    "sz": 3616,
    "▁követ": 24100,
    "englisch": 7131,
    "▁follow": 1101,
    "▁Vitt": 29364,
    "▁odd": 7736,
    "нова": 8240,
    "compose": 19438,
    "▁wealth": 17173,
    "draw": 4012,
    "ania": 4807,
    "uling": 19478,
    "▁thr": 1468,
    "ç": 30019,
    "▁zvuky": 23217,
    "ourses": 29781,
    "タ": 30369,
    "going": 17696,
    "两": 31977,
    "†": 30087,
    "oss": 2209,
    "outer": 5561,
    "OnClickListener": 15909,
    "LI": 5265,
    "ismiss": 28303,
    "▁light": 3578,
    "▁coinc": 22819,
    "▁проти": 17291,
    "strap": 5698,
    "▁aspects": 21420,
    "▁journalist": 24452,
    "▁logged": 13817,
    "arguments": 25699,
    "▁Phot": 19040,
    "▁stress": 22884,
    "rable": 18104,
    "▁small": 2319,
    "pts": 16485,
    "▁sudo": 9196,
    "▁View": 4533,
    "▁Rol": 8731,
    "bro": 6729,
    "▁offic": 3344,
    "▁Republik": 26587,
    "idel": 10652,
    "▁theoretical": 23399,
    "sp": 1028,
    "Т": 30041,
    "▁Personen": 15497,
    "FX": 26753,
    "eth": 621,
    "▁Dol": 11201,
    "▁Bibliografía": 29054,
    "▁Your": 3575,
    "two": 10184,
    "ϵ": 31309,
    "<0xAC>": 175,
    "▁decide": 11097,
    "conne": 11958,
    "лия": 9844,
    "▁wont": 20668,
    "index": 2248,
    "FB": 18426,
    "чёт": 28651,
    "cdn": 13687,
    "▁Chrome": 10228,
    "ючи": 15598,
    "▁touched": 23051,
    "WS": 7811,
    "⁠": 30365,
    "▁iss": 1721,
    "ым": 16970,
    "äl": 5581,
    "▁Root": 28272,
    "▁Struct": 28771,
    "▁grouped": 27831,
    "▁à": 818,
    "наль": 20905,
    "▁displays": 14423,
    ">&": 19250,
    "▁persones": 22994,
    "▁ved": 11016,
    "lies": 3687,
    "ms": 1516,
    "▁Is": 1317,
    "hard": 6800,
    "ত": 31150,
    "let": 1026,
    "▁становника": 11229,
    "▁serves": 19700,
    "▁FOR": 15842,
    "лы": 5985,
    "▁verf": 19020,
    "▁Zent": 16607,
    "▁September": 3839,
    "▁ranks": 27871,
    "▁onde": 16504,
    "▁church": 6586,
    "▁max": 4236,
    "¯": 30586,
    "": 30751,
    "ropy": 14441,
    "▁arm": 5075,
    "▁Collect": 24930,
    "<<ST_458>>": 32458,
    "▁Non": 10050,
    "<0x58>": 91,
    "ographie": 4437,
    "itate": 10388,
    "▁ordered": 10372,
    "}}_{": 14838,
    "์": 30779,
    "','": 3788,
    "▁kult": 21442,
    "igare": 25667,
    "▁lors": 7628,
    "▁ott": 12586,
    "▁Tok": 11890,
    "▁Pil": 14970,
    "xyz": 20230,
    "gg": 1505,
    "▁ett": 8248,
    "▁covers": 18469,
    "▁Parse": 20969,
    "개": 31789,
    "▁+=": 4619,
    "▁окт": 13959,
    "▁province": 12291,
    "▁pil": 8230,
    "реди": 9951,
    "▁р": 8201,
    "▁hang": 13958,
    "▁Chart": 14477,
    "▁look": 1106,
    "FORM": 19094,
    "▁disposition": 27963,
    "▁Editor": 14059,
    "чної": 20705,
    "梅": 31948,
    "query": 1972,
    "▁luc": 21626,
    "social": 24911,
    "▁blanc": 28099,
    "мии": 11085,
    "▁Similar": 13999,
    "▁Ast": 10186,
    "obierno": 14105,
    "▁Vas": 15453,
    "▁filme": 21953,
    "▁prop": 3107,
    "▁cependant": 26876,
    "▁\\(": 4269,
    "<<ST_95>>": 32095,
    "SEE": 22048,
    "<<ST_687>>": 32687,
    "▁надмор": 20739,
    "▁Before": 10949,
    "\\}": 18105,
    "▁mistakes": 28947,
    "▁explan": 7309,
    "iginal": 5635,
    "▁części": 24177,
    "▁extraordinary": 28163,
    "istan": 9777,
    "▁ainsi": 8288,
    "▁éditions": 29579,
    "ば": 31254,
    "▁Miss": 4750,
    "▁fare": 20036,
    "▁Fot": 22145,
    "▁acab": 22998,
    "▁públic": 15893,
    "domain": 7247,
    "▁Development": 14650,
    "▁опера": 16458,
    "mail": 2549,
    "LinearLayout": 15575,
    "▁eleg": 10618,
    "▁Giuseppe": 18824,
    "த": 30870,
    "modules": 7576,
    "IR": 8193,
    "▁соста": 15553,
    "criv": 20812,
    "table": 2371,
    "▁запад": 28055,
    "▁decir": 27594,
    "▁consume": 29151,
    "ją": 4739,
    "IT": 1806,
    "Alpha": 28630,
    "▁heat": 12871,
    "▁##": 444,
    "shadow": 17505,
    "▁Problem": 11583,
    "▁Dort": 19845,
    "▁inclu": 13654,
    "ベ": 31061,
    "▁Year": 8905,
    "▁Wass": 29457,
    "ською": 29789,
    "Of": 2776,
    "▁javascript": 3513,
    "▁из": 1866,
    "IGN": 17298,
    "▁trab": 10565,
    "▁variant": 17305,
    "▁Core": 10239,
    "CI": 8426,
    "▁bread": 18423,
    "feature": 14394,
    "▁gek": 14865,
    "▁rond": 24627,
    "ђ": 30116,
    "igs": 23379,
    "▁Rom": 6033,
    "å": 30020,
    "англ": 6186,
    "istor": 2118,
    "display": 4990,
    "▁highly": 10712,
    "▁Tir": 27810,
    "▁and": 322,
    "ind": 513,
    "▁lifetime": 25423,
    "=[": 11759,
    "Replace": 20083,
    "ют": 4394,
    "charg": 25389,
    "▁ban": 9892,
    "Usage": 27573,
    "mbox": 8264,
    "▁мож": 13333,
    "pres": 4569,
    "Dict": 21533,
    "▁горо": 9546,
    "quare": 4718,
    "▁Dic": 28550,
    "äll": 8048,
    "AppData": 27674,
    "certain": 14082,
    "▁efficiently": 29497,
    "▁име": 7557,
    "src": 4351,
    "▁@\"": 12490,
    "▁Ку": 7028,
    "▁заво": 24741,
    "▁desen": 17320,
    "▁жі": 25872,
    "▁custom": 2888,
    "▁cd": 14965,
    "▁mongodb": 23290,
    "▁Retrieved": 25427,
    "ipes": 29488,
    "▁loc": 1180,
    "▁caught": 12624,
    "▁hints": 26085,
    "server": 2974,
    "ktionen": 23668,
    "ève": 15792,
    "Place": 22150,
    "Hi": 18567,
    "ѣ": 30531,
    "NT": 20321,
    "▁équipe": 25740,
    "人": 30313,
    "▁economy": 26504,
    "▁Jorge": 21801,
    "▁thinks": 22405,
    "GM": 21576,
    "<<ST_509>>": 32509,
    "Tools": 24183,
    "мат": 18992,
    "▁promoted": 21201,
    "iana": 3857,
    "▁Tsch": 27023,
    "▁volunt": 27081,
    "angen": 12644,
    "▁allow": 2758,
    "្": 31155,
    "entry": 8269,
    "▁girl": 7826,
    "▁donner": 27516,
    "фици": 28101,
    "က": 31371,
    "expression": 17471,
    "чин": 15132,
    "▁\"\\<": 20770,
    "est": 342,
    "Student": 20791,
    "ilda": 25949,
    "▁analysis": 7418,
    "<<ST_395>>": 32395,
    "ôle": 12161,
    "ób": 17388,
    "etro": 29551,
    "▁Ital": 4041,
    "átum": 21900,
    "nungen": 18839,
    "zález": 24387,
    "▁LaTeX": 29186,
    "▁perman": 9410,
    "ulos": 19733,
    "▁ohne": 14233,
    "uga": 26281,
    "▁believe": 4658,
    "Ἀ": 30788,
    "zak": 29114,
    "▁string": 1347,
    "yan": 10094,
    "▁States": 3900,
    "rí": 19177,
    "▁tou": 11943,
    "▁medic": 13589,
    "location": 5479,
    "º": 30105,
    "uola": 29568,
    "ർ": 31585,
    "enç": 26686,
    "стов": 10148,
    "▁bill": 11118,
    "льно": 11372,
    "lais": 11818,
    "▁ES": 17956,
    "間": 31069,
    "▁currency": 27550,
    "▁Contempor": 27183,
    "▁accom": 7954,
    "cko": 27604,
    "ensis": 6322,
    "ront": 24416,
    "loped": 27238,
    "aspx": 6307,
    "▁slo": 14216,
    "addClass": 20213,
    "▁Une": 10016,
    "▁genius": 26858,
    "nehmen": 14026,
    "express": 17073,
    "sup": 12587,
    "ій": 3932,
    "을": 31286,
    "▁league": 13225,
    "▁Games": 12482,
    "▁cont": 640,
    "куль": 16583,
    "catal": 16431,
    "kw": 11022,
    "▁was": 471,
    "▁constraints": 11938,
    "言": 31243,
    "tom": 15135,
    "▁diffusion": 23253,
    "aman": 13533,
    "▁GUI": 14839,
    "▁lui": 3911,
    "Client": 4032,
    "center": 5064,
    "every": 17991,
    "▁nar": 17655,
    "▁rag": 17052,
    "▁moon": 18786,
    "changed": 15033,
    "▁Society": 7765,
    "pg": 4061,
    "▁Shakespe": 22476,
    "▁mieszkań": 26199,
    "шой": 27457,
    "itting": 5367,
    "“)": 25035,
    "▁bucket": 20968,
    "▁COUNT": 21122,
    "categories": 20683,
    "Executor": 13366,
    "esso": 6777,
    "бора": 23243,
    "▁ausge": 17691,
    "▁ort": 20289,
    "rieb": 11055,
    "orge": 3890,
    "▁visto": 29025,
    "▁lear": 24298,
    "▁Alter": 20561,
    "Interceptor": 24923,
    "orno": 16378,
    "lon": 12957,
    "▁striking": 29191,
    "stmt": 17868,
    "Statement": 14473,
    "NF": 22498,
    "duration": 19708,
    "uffer": 3043,
    "▁herself": 8735,
    "▁emer": 11176,
    "▁Mut": 20749,
    "<0x8B>": 142,
    "▁longitud": 25579,
    "нал": 20222,
    "Rob": 21860,
    "站": 31433,
    "ee": 3905,
    "▁terror": 15115,
    "▁Gon": 12494,
    "▁bringing": 20794,
    "MenuItem": 21331,
    "▁ans": 6063,
    "▁scar": 21990,
    "resolve": 17863,
    "шь": 25366,
    "▁stayed": 27661,
    "Bad": 22050,
    "▁qui": 1750,
    "မ": 31233,
    "計": 31970,
    "▁activities": 14188,
    "▁Sov": 12466,
    "▁Sab": 11775,
    "▁Евро": 15824,
    "▁reduced": 12212,
    "▁yourself": 7535,
    "IES": 29059,
    "ene": 1600,
    "　": 30358,
    "indu": 19910,
    "▁constructor": 5823,
    "▁Lexikon": 24429,
    "Exec": 5379,
    "activ": 11236,
    "ُ": 30711,
    "▁revis": 23484,
    "pragma": 28436,
    "bounds": 23687,
    "<<ST_433>>": 32433,
    "▁stops": 17726,
    "▁När": 29756,
    "<<ST_640>>": 32640,
    "ashion": 10904,
    "े": 30569,
    "кипеди": 14949,
    "attribute": 12715,
    "▁SUB": 27092,
    "▁su": 480,
    "icker": 6541,
    "<0x54>": 87,
    "isset": 16290,
    "ang": 574,
    "▁Centre": 11319,
    "website": 22942,
    "▁possession": 17715,
    "Copy": 11882,
    "▁Studies": 16972,
    "▁rug": 29833,
    "林": 30853,
    "out": 449,
    "mus": 8366,
    "▁Match": 14514,
    "лм": 29045,
    "▁ense": 23930,
    "<0xF3>": 246,
    "[@": 17548,
    "▁bur": 6866,
    "Mutable": 15211,
    "Unknown": 14148,
    "Hello": 10994,
    "▁програ": 15413,
    "▁U": 501,
    "ardin": 21473,
    "ске": 11106,
    "▁sols": 25999,
    "▁Hop": 20727,
    "▁shall": 4091,
    "!,": 18565,
    "▁mach": 7672,
    "container": 7611,
    "▁vision": 18551,
    "▁dispon": 14458,
    "▁Wie": 18656,
    "Illustration": 12614,
    "itet": 7369,
    "<<ST_276>>": 32276,
    "PH": 19689,
    "сен": 17287,
    "ovie": 5672,
    "▁Lin": 4342,
    "利": 31107,
    "bool": 11227,
    "▁Value": 7865,
    "}^\\": 10206,
    "▁прода": 26698,
    "[_": 28513,
    "▁`(": 12270,
    "era": 1572,
    "<<ST_286>>": 32286,
    "▁Neue": 26426,
    "ок": 26242,
    "▁Pok": 21747,
    "▁Grant": 18102,
    "▁sect": 21149,
    "рина": 24436,
    "▁jelent": 23962,
    "âteau": 13796,
    "ش": 30256,
    "ʻ": 30299,
    "▁stör": 19588,
    "▁dell": 3572,
    "▁Sorry": 8221,
    "tar": 12637,
    "▁Sebastian": 26631,
    "▁dél": 27188,
    "Timer": 14745,
    "▁importantes": 24151,
    "▁including": 3704,
    "initialize": 24926,
    "ísticas": 18106,
    "▁Nell": 26450,
    "ș": 30065,
    "▁roads": 25320,
    "▁Pacific": 14328,
    "▁NE": 14693,
    "▁працю": 23595,
    "∂": 30934,
    "uzione": 14285,
    "imeter": 14772,
    "Det": 6362,
    "▁filosof": 22188,
    "hape": 14443,
    "ေ": 31228,
    "▁aber": 6126,
    "Elements": 18868,
    "▁campe": 18357,
    "▁Nor": 4186,
    "append": 4397,
    "▁autom": 3345,
    "▁progress": 6728,
    "▁VALUES": 15673,
    "▁coord": 29311,
    "xes": 9100,
    "▁Polit": 6934,
    "afka": 20817,
    "▁\"+": 15691,
    "en": 264,
    "▁музы": 16925,
    "eping": 26819,
    "utils": 13239,
    "▁памя": 22836,
    "▁Lou": 4562,
    "¾": 30642,
    "▁Vé": 14926,
    "▁figura": 27316,
    "▁Biographie": 9762,
    "▁Plus": 15113,
    "▁question": 1139,
    "ulation": 2785,
    "▁PMID": 25485,
    "ノ": 30901,
    "<<ST_674>>": 32674,
    "▁Saturday": 24211,
    "хі": 22177,
    "theory": 14138,
    "▁vale": 20368,
    "▁(`": 6695,
    "▁subgroup": 24410,
    "▁„": 1768,
    "oli": 5079,
    "▁French": 5176,
    "▁Records": 7983,
    "▁categor": 11608,
    "catalina": 17850,
    "▁tud": 26992,
    "▁ch": 521,
    "ol": 324,
    "ӏ": 31806,
    "▁Answer": 673,
    "izado": 17566,
    "▁Rafael": 25661,
    "▁colle": 23056,
    "Equ": 6108,
    "▁Ye": 10134,
    "<<ST_736>>": 32736,
    "wt": 14554,
    "▁zo": 8534,
    "▁película": 19053,
    "▁L": 365,
    "Ü": 30104,
    "árt": 23142,
    "LY": 16786,
    "ela": 3100,
    "▁cons": 1136,
    "<<ST_730>>": 32730,
    "ན": 31614,
    "decor": 19557,
    "▁Father": 17852,
    "iffer": 8349,
    "▁фі": 18396,
    "<<ST_454>>": 32454,
    "scal": 19529,
    "-(": 17722,
    "▁norm": 6056,
    "▁Rö": 25541,
    "hausen": 15608,
    "▁disag": 22941,
    "산": 31458,
    "alo": 7003,
    "▁című": 26773,
    "▁debido": 21197,
    "▁sera": 16933,
    "▁era": 3152,
    "▁humans": 25618,
    "▁må": 21914,
    "▁oko": 26583,
    "立": 30939,
    "▁Twitter": 20147,
    "▁about": 1048,
    "<<ST_453>>": 32453,
    "▁Animal": 22809,
    "uclidean": 27511,
    "itaine": 21835,
    "W": 29956,
    "ieren": 7884,
    "▁Buff": 22274,
    "Є": 30149,
    "▁муніципалі": 22835,
    "▁explo": 16035,
    "▁royale": 25441,
    "▁поя": 23969,
    "▁Rechts": 21165,
    "herr": 21205,
    "othek": 17663,
    "▁Kevin": 19323,
    "▁cav": 18346,
    "▁journey": 16342,
    "▁workers": 17162,
    "ầ": 30884,
    "▁ен": 20108,
    "▁título": 17509,
    "or": 272,
    "cil": 5553,
    "boBox": 17801,
    "ritz": 18238,
    "ifique": 22781,
    "▁kamen": 28587,
    "izont": 6753,
    "ü": 29993,
    "ită": 17829,
    "▁Diese": 13528,
    "куп": 28971,
    "▁logical": 16667,
    "<<ST_78>>": 32078,
    "▁tuvo": 20596,
    "▁obras": 20589,
    "▁fast": 5172,
    "emplo": 13141,
    "ִ": 30681,
    "owa": 5604,
    "▁deliver": 12021,
    "首": 31688,
    "ację": 29357,
    "imat": 15840,
    "▁eb": 18230,
    "▁portug": 15056,
    "▁bez": 11151,
    "▁hole": 16188,
    "▁Flor": 6953,
    "▁Kir": 5201,
    "Ç": 30219,
    "Methods": 26112,
    "▁mart": 14436,
    "್": 31623,
    "law": 10653,
    "]$.": 22689,
    "▁Marian": 24236,
    "▁самы": 24093,
    "unicip": 4376,
    "▁Barcel": 11112,
    "▁Eli": 26864,
    "▁round": 4513,
    "ríguez": 26415,
    "▁participe": 28511,
    "Gesture": 24110,
    "▁Abs": 24650,
    "▁reasoning": 24481,
    "▁spé": 18142,
    "тора": 9011,
    "▁momentum": 19399,
    "▁Valle": 25324,
    "oemd": 26852,
    "▁проек": 16054,
    "▁piłkar": 29451,
    "ry": 719,
    "ced": 1133,
    "Generic": 15809,
    "▁är": 2206,
    "▁над": 8082,
    "či": 24397,
    "▁Oregon": 25203,
    "▁todas": 17824,
    "▁trabal": 19739,
    "▁Население": 21636,
    "ции": 3540,
    "▁wurde": 1931,
    "▁thing": 2655,
    "▁stone": 12565,
    "▁candidates": 21669,
    "▁same": 1021,
    "piel": 6384,
    "▁Ferr": 16541,
    "ado": 912,
    "▁Korean": 22467,
    "ícula": 13984,
    "ow": 340,
    "----------": 28400,
    "▁corpo": 25545,
    "▁Aur": 23266,
    "ilis": 23285,
    "▁réal": 22259,
    "gre": 7979,
    "pre": 1457,
    "rait": 8356,
    "Does": 25125,
    "ouse": 1709,
    "▁haben": 10290,
    "▁François": 13645,
    "▁période": 18108,
    "';": 2670,
    "▁Tele": 9699,
    "fault": 27934,
    "▁кар": 10766,
    "▁Orleans": 26884,
    "omen": 2770,
    "▁Pal": 3793,
    "〜": 31202,
    "▁TR": 10014,
    "Size": 3505,
    "▁exp": 1518,
    "adj": 26859,
    "du": 700,
    "▁ded": 28262,
    "raham": 22084,
    "ori": 4170,
    "▁four": 3023,
    "<0x0C>": 15,
    "sert": 1940,
    "<<ST_122>>": 32122,
    "uttavia": 23208,
    "ниче": 9578,
    "‚": 30229,
    "▁Gate": 22510,
    "▁Ре": 7222,
    "Ф": 30061,
    "лекс": 7772,
    ">\",": 28341,
    "▁Jegyzetek": 24029,
    "Receive": 24131,
    "Sub": 4035,
    ".": 29889,
    "▁Gay": 28832,
    "▁sain": 29580,
    "ongs": 24733,
    "▁thrust": 29684,
    "ander": 3825,
    "сподар": 24975,
    "<<ST_327>>": 32327,
    "тики": 24807,
    "Tests": 24376,
    "▁yellow": 13328,
    "thes": 26041,
    "orde": 24568,
    "))))": 13697,
    "▁rapport": 13659,
    "Dispatcher": 23669,
    "ocia": 10183,
    "▁zaj": 18298,
    "▁Send": 15076,
    "ɲ": 30849,
    "éricaine": 25908,
    "▁measure": 5645,
    "|}{": 29632,
    "▁Jos": 5875,
    "▁u": 318,
    "▁así": 12606,
    "▁houses": 12955,
    "iii": 25609,
    "IN": 1177,
    "рами": 18731,
    "▁Eb": 26302,
    "Cursor": 19890,
    "${": 5303,
    "▁A": 319,
    "<<ST_66>>": 32066,
    "▁bibli": 11721,
    "▁faz": 16928,
    "▁gepublic": 10688,
    "ained": 7114,
    "Men": 28154,
    "▁Mississ": 23030,
    "Parse": 12914,
    "alph": 19712,
    "▁fragments": 22370,
    "\")`": 20933,
    "▁invent": 11817,
    "nitt": 9898,
    "ystycz": 28021,
    "▁targets": 22525,
    "▁второй": 27619,
    "ww": 1615,
    "ت": 30195,
    "▁McK": 24053,
    "▁rol": 14467,
    "<<ST_493>>": 32493,
    "▁compile": 6633,
    "ematic": 19217,
    "nam": 8588,
    "▁caratter": 20044,
    "▁oper": 1751,
    "▁market": 9999,
    "jà": 16627,
    "grade": 8228,
    "<<ST_420>>": 32420,
    "▁Of": 4587,
    "▁worth": 7088,
    "kow": 7000,
    "indexOf": 19402,
    "▁juego": 27060,
    "▁lorsque": 28194,
    "▁mér": 27442,
    "zeuge": 29471,
    "xx": 4419,
    "dog": 26169,
    "▁surprise": 16671,
    "nih": 13428,
    "ile": 488,
    "▁Sul": 13358,
    "formed": 15628,
    "这": 30810,
    "▁jquery": 5804,
    "▁Inn": 25408,
    "ver": 369,
    "▁Ruth": 23130,
    "summary": 7727,
    "▁Mount": 8040,
    "še": 14774,
    "▁€": 25540,
    "acy": 4135,
    "Ne": 8139,
    "heim": 6391,
    "▁Notice": 16393,
    "▁at": 472,
    "▁VII": 13408,
    "▁frances": 10838,
    "лез": 16488,
    "▁Release": 23708,
    "т": 29932,
    "▁Se": 922,
    "▁younger": 20023,
    "ych": 3376,
    "MainActivity": 23934,
    "decode": 13808,
    "InstanceState": 12223,
    "uli": 14549,
    "никами": 27642,
    "▁▁▁▁▁▁▁▁▁": 3986,
    "compos": 22410,
    "▁Heb": 18472,
    "▁speak": 7726,
    "став": 3843,
    "romagnet": 26097,
    "▁Nil": 26697,
    "▁implementations": 20240,
    "▁jQuery": 6385,
    "▁servant": 21649,
    "pas": 18182,
    "▁Mort": 15533,
    "▁contre": 8474,
    "▁Have": 6975,
    "▁sé": 7019,
    "▁Schön": 28565,
    "<<ST_716>>": 32716,
    "master": 6207,
    "▁мест": 17562,
    "GN": 20728,
    "▁_,": 17117,
    "▁stag": 13121,
    "ippi": 22425,
    "рт": 8113,
    "erk": 5968,
    "pin": 12687,
    "▁UTC": 17998,
    "olation": 22671,
    "▁thor": 16294,
    "▁Hed": 28561,
    "▁häufig": 27050,
    "dx": 8235,
    "ским": 9187,
    "▁это": 6408,
    "▁siguiente": 18436,
    "тро": 9934,
    "▁одной": 25816,
    "ovy": 15890,
    "▁gal": 6898,
    "▁pří": 15111,
    "orf": 4877,
    "▁University": 3014,
    "<<ST_63>>": 32063,
    "icz": 5175,
    "▁schedule": 20410,
    "uil": 20806,
    "▁hack": 15833,
    "▁financial": 18161,
    "▁verb": 9750,
    "▁Brasile": 28220,
    "▁totale": 26104,
    "▁cheap": 28773,
    "Days": 25991,
    "▁locomot": 26351,
    "▁Durant": 27714,
    "▁liqu": 15617,
    "oming": 28826,
    "′": 30139,
    "▁chosen": 10434,
    "agna": 15713,
    "Tri": 29565,
    "last": 4230,
    "ческая": 25656,
    "zös": 10795,
    "▁corrected": 24114,
    "▁ferm": 16895,
    "▁świata": 29085,
    "▁invasion": 28425,
    "entication": 6002,
    "anas": 16397,
    "ppy": 23717,
    "oh": 1148,
    "culo": 17227,
    "▁trois": 7732,
    "▁pull": 8206,
    "▁dich": 12658,
    "epen": 28106,
    "▁arrow": 16578,
    "▁konn": 11547,
    ")'": 16029,
    "▁Станов": 17835,
    "▁authors": 15717,
    "▁Good": 7197,
    "iben": 24068,
    "▁Pe": 3938,
    "▁gla": 14751,
    "▁occ": 2179,
    "▁Era": 21018,
    "リ": 30303,
    "▁dece": 23332,
    "itare": 25952,
    "À": 30113,
    "refix": 9569,
    "inary": 3821,
    "▁Buc": 22987,
    "bat": 10222,
    "▁commit": 9063,
    "▁compet": 5100,
    "Source": 4435,
    "сла": 12329,
    "▁Kap": 9622,
    "▁Ни": 7059,
    "▁windows": 5417,
    "▁testing": 6724,
    "▁consumer": 21691,
    "▁cursor": 10677,
    "▁leader": 11822,
    "agar": 28641,
    "чан": 22083,
    "tc": 14246,
    "▁Sc": 2522,
    "▁restored": 23119,
    "▁Imp": 14305,
    "iment": 2073,
    "▁верну": 27585,
    "icture": 4781,
    "▁francesa": 27866,
    "▁Campeonato": 17660,
    "▁trial": 14260,
    "mun": 24579,
    "▁полу": 6961,
    "Comp": 6843,
    "<0xC6>": 201,
    "▁Men": 7567,
    "ocy": 22502,
    "▁sentences": 25260,
    "▁Environment": 16738,
    "▁Inst": 2799,
    ".-": 9229,
    "Miss": 18552,
    "▁Christopher": 18888,
    "▁igual": 21432,
    "▁сим": 20468,
    "▁show": 1510,
    "ové": 13169,
    "@\"": 5507,
    "▁video": 4863,
    "ṯ": 31752,
    "▁россий": 18302,
    "▁lange": 20516,
    "ers": 414,
    "Sec": 7898,
    "▁definite": 24860,
    "▁versione": 26670,
    "▁leaf": 20447,
    "obj": 5415,
    "adratkilometer": 21088,
    "voj": 17521,
    "▁DVD": 15191,
    "He": 3868,
    "▁Seite": 16073,
    "▁Walter": 10705,
    "icket": 8522,
    "icon": 4144,
    "acters": 21706,
    "▁Park": 4815,
    "▁jaren": 23877,
    "▁Info": 22140,
    "▁pint": 16483,
    "▁Harvard": 22221,
    "མ": 31643,
    "hanced": 29308,
    "mana": 25096,
    "`.`": 27870,
    "ʐ": 31336,
    "▁town": 4726,
    "ben": 1785,
    "ˌ": 30713,
    "▁ram": 13472,
    "INSERT": 19460,
    "ux": 1314,
    "▁од": 3288,
    "▁restore": 17749,
    "▁Gef": 15759,
    "▁frequencies": 29511,
    "ktr": 12947,
    "<<ST_9>>": 32009,
    "▁arr": 3948,
    "▁=": 353,
    "SR": 14098,
    "▁ran": 6350,
    "▁(„": 20391,
    "éroï": 22462,
    "Drawer": 27528,
    "▁fifteen": 25020,
    "▁specifying": 22146,
    "▁nada": 25801,
    "▁turned": 6077,
    "▁Image": 7084,
    "▁Psych": 16777,
    "▁Jew": 9576,
    "f": 29888,
    "':'": 22099,
    "auto": 6921,
    "▁Mexico": 12568,
    "▁Mannschaft": 21404,
    "▁están": 21654,
    "▁finalmente": 27986,
    "support": 5924,
    "▁liga": 28714,
    "北": 30662,
    "▁Henry": 6498,
    "▁Sil": 5664,
    "▁mere": 15187,
    "▁(-": 8521,
    "章": 31374,
    "▁Sax": 18574,
    "ADD": 17744,
    "Bytes": 11207,
    "▁incorpor": 11039,
    "▁Niger": 20537,
    "My": 3421,
    "▁Arn": 13767,
    "indre": 19844,
    "itable": 8270,
    "▁Dabei": 26034,
    "▁Mas": 8622,
    "▁references": 9282,
    "▁Christians": 27353,
    "ENT": 3919,
    "▁Pass": 6978,
    "acji": 8330,
    "▁Saint": 4107,
    "▁pedig": 25922,
    "▁Einsatz": 23175,
    "▁Braun": 23514,
    "特": 31141,
    "хід": 10226,
    "▁Film": 4643,
    "や": 31111,
    "▁confirm": 9659,
    "▁inne": 26451,
    "▁Ron": 11546,
    "quency": 23860,
    "▁adds": 12778,
    "▁bekannt": 13633,
    "№": 30117,
    "reflect": 13191,
    "င": 31292,
    "шен": 10084,
    "▁autres": 10890,
    "▁manten": 25370,
    "altung": 27740,
    "▁student": 8368,
    "▁perform": 2189,
    "▁Thomas": 5569,
    "▁Cong": 6005,
    "Mart": 15838,
    "▁fra": 5227,
    "DER": 8032,
    "▁praw": 20467,
    "▁infinity": 27971,
    "▁Су": 9624,
    "grid": 7720,
    "▁prefix": 10944,
    "Θ": 30546,
    "ним": 5472,
    "▁Byte": 19831,
    "brand": 16472,
    "▁Mc": 4052,
    "рій": 19598,
    "▁Kaz": 15198,
    "▁hist": 9825,
    "▁joy": 15331,
    "ierungs": 21212,
    "licity": 17024,
    "▁plans": 13900,
    "▁stated": 8703,
    ":-": 13018,
    "pred": 11965,
    "▁Gl": 8467,
    "▁quietly": 25970,
    "ordnung": 25432,
    "▁alternate": 25010,
    "Aus": 18306,
    "▁cole": 27181,
    "▁différentes": 28374,
    "▁MR": 29751,
    "тек": 16821,
    "▁remained": 9488,
    "chunk": 29812,
    "ishop": 9835,
    "▁daily": 14218,
    "▁skills": 25078,
    "ival": 2561,
    "писок": 18021,
    "▁receives": 20586,
    "ocker": 8658,
    "▁sovi": 21171,
    "enze": 13233,
    "Dispatch": 14777,
    "▁job": 4982,
    "RECT": 26282,
    "▁ear": 2326,
    "haupt": 27976,
    "┬": 30731,
    "▁prix": 19590,
    "ora": 2207,
    "clone": 16513,
    "▁Sony": 28465,
    "▁passe": 21714,
    "▁ps": 6529,
    "▁won": 2113,
    "▁да": 3574,
    "▁becom": 5726,
    "▁launched": 15241,
    "▁Guy": 15880,
    "<0x44>": 71,
    "▁lav": 22181,
    "▁tom": 6454,
    "▁winning": 15613,
    "▁Olymp": 6167,
    "▁Dun": 11566,
    "rä": 7940,
    "bc": 12328,
    "▁Janeiro": 20883,
    "▁siguientes": 29673,
    "▁shed": 28453,
    "rage": 6617,
    "school": 27041,
    "É": 30062,
    "▁respond": 10049,
    "▁alto": 20478,
    "sten": 3510,
    "▁installing": 15476,
    "▁Iter": 20504,
    "▁Guardian": 29429,
    "▁included": 5134,
    "solute": 14977,
    "▁access": 2130,
    "Checked": 17817,
    "▁feder": 12067,
    "▁molto": 16247,
    "ombres": 20934,
    "▁Jesus": 13825,
    "render": 9482,
    "l": 29880,
    "askell": 21918,
    "ruits": 21211,
    ".'": 6169,
    "ћ": 30093,
    "▁Unidos": 9726,
    "▁Wes": 23976,
    "umn": 1227,
    "zysk": 19029,
    "cpp": 8223,
    "▁deleted": 11132,
    "▁Lap": 20298,
    "▁localhost": 15683,
    "▁Scot": 11032,
    "▁кре": 15798,
    "▁Дата": 25109,
    "初": 31120,
    "▁dwell": 24013,
    "▁proceed": 8469,
    "▁lipca": 26908,
    "rial": 9315,
    "▁consider": 2050,
    "ані": 15264,
    "▁Fed": 17972,
    "▁Works": 13976,
    "▁JS": 7649,
    "▁Verb": 26646,
    "▁Alb": 16197,
    "▁assignment": 12827,
    "▁Display": 17440,
    "▁documentation": 5106,
    "lungen": 25250,
    "▁objective": 12091,
    "search": 4478,
    "▁thous": 7693,
    "ulas": 15173,
    "▁Items": 25085,
    "ams": 2232,
    "series": 13757,
    "ical": 936,
    "▁cor": 1034,
    "▁Primary": 28267,
    "▁hub": 19766,
    "і": 29971,
    "▁mathemat": 10860,
    "▁против": 12411,
    "ły": 7430,
    "▁toujours": 15237,
    "▁Code": 5920,
    "▁finden": 24755,
    "▁commented": 19952,
    "<0x0F>": 18,
    "ester": 4156,
    "▁~[": 18173,
    "▁tro": 3147,
    "▁Präsident": 22650,
    "▁Videos": 11812,
    "Path": 2605,
    "▁checkout": 24808,
    "▁SN": 21989,
    "EY": 13282,
    "]\"": 18017,
    "ذ": 30851,
    "їв": 15077,
    "rv": 15291,
    "▁FO": 18322,
    "▁обще": 11471,
    "藤": 30804,
    "ദ": 31889,
    "L": 29931,
    "close": 5358,
    "racy": 10068,
    "▁updating": 13271,
    "▁journ": 21824,
    "▁sb": 17444,
    "▁inference": 27262,
    "angers": 13873,
    "▁Чи": 20835,
    "▁déc": 4224,
    "▁delet": 7374,
    "ss": 893,
    "▁Norte": 21035,
    "▁meg": 4508,
    "reduce": 17469,
    "ม": 30501,
    ")..": 20149,
    "}}": 930,
    "▁attached": 10959,
    "▁crist": 15919,
    "▁bring": 6963,
    "▁full": 2989,
    "▁combining": 29299,
    "▁habit": 4760,
    "Column": 4409,
    "▁Mitglied": 12704,
    "▁contrad": 14250,
    "[]{": 24406,
    "findViewById": 15418,
    "aled": 7943,
    "▁március": 24605,
    "▁House": 5619,
    "当": 30948,
    "domin": 24130,
    "▁Hamiltonian": 27752,
    "<0x3B>": 62,
    "<<ST_551>>": 32551,
    "*}": 4044,
    "lost": 18767,
    "lasse": 14537,
    "▁ListView": 22184,
    "now": 3707,
    "abile": 18119,
    "▁bg": 25989,
    "դ": 31387,
    "▁Kultur": 14390,
    "<0x96>": 153,
    "唐": 31932,
    "<<ST_657>>": 32657,
    "▁tätig": 24198,
    "ili": 2638,
    "▁purchase": 20590,
    "DS": 8452,
    "▁Wang": 23856,
    "aines": 13116,
    "▁Mit": 4573,
    "ру": 1086,
    "▁house": 3699,
    "▁personally": 22345,
    "Plan": 20334,
    "▁ssl": 24250,
    "▁CURL": 24222,
    "<<ST_69>>": 32069,
    "icol": 5283,
    "▁hence": 8151,
    "TH": 4690,
    "پ": 30585,
    "itional": 3245,
    "▁Ві": 17014,
    "final": 8394,
    "▁Phill": 21856,
    "▁is": 338,
    "▁Herr": 12226,
    "▁lé": 22109,
    "▁Ole": 26132,
    "коном": 20950,
    "▁remove": 3349,
    "▁audio": 10348,
    "ḏ": 31946,
    "▁После": 12485,
    "▁embar": 21620,
    "тного": 27015,
    "Center": 13409,
    "дела": 12761,
    "isz": 16399,
    "toire": 18734,
    "izada": 18954,
    "▁Ehren": 26728,
    "▁convolution": 26851,
    "▁Disk": 20579,
    "itative": 23378,
    "IndexPath": 27762,
    "'+": 18717,
    "Lines": 20261,
    "▁doch": 16008,
    "because": 18103,
    "▁Train": 28186,
    "": 31555,
    "ede": 2742,
    "▁cím": 22499,
    "▁external": 7029,
    "ǔ": 30730,
    "mb": 8337,
    "architecture": 25428,
    "▁easier": 6775,
    "оло": 6157,
    "▁possibility": 13331,
    "▁север": 23967,
    "▁layers": 15359,
    "sett": 9915,
    "ierre": 6349,
    "▁assigned": 9859,
    "PRI": 29829,
    "eral": 13537,
    "uy": 8631,
    "ях": 13053,
    "raph": 1140,
    "▁pam": 24513,
    "▁kier": 25652,
    "foreach": 13150,
    "▁snippet": 11534,
    "▁_": 903,
    "ď": 30223,
    "▁Call": 8251,
    "▁Prz": 12900,
    "▁университета": 28851,
    "«": 30009,
    "rass": 26771,
    "oj": 3848,
    "SError": 29173,
    "▁DO": 11662,
    "▁obsc": 19726,
    "▁helper": 16876,
    "▁ancien": 26128,
    "▁extends": 4988,
    "▁consisted": 24775,
    "▁pic": 11942,
    "inger": 5621,
    "▁naval": 25581,
    "▁Button": 11025,
    "▁Raz": 24961,
    "▁externs": 26478,
    "▁finan": 11782,
    "▁Ener": 15163,
    "▁Andy": 21828,
    "▁arquitect": 28827,
    "webdriver": 29813,
    "▁Wend": 29022,
    "▁et": 634,
    "token": 6979,
    "▁Mak": 17232,
    "▁Columbia": 15411,
    "гля": 18235,
    "ografía": 9325,
    "mind": 24021,
    "<<ST_253>>": 32253,
    "▁зі": 19938,
    "▁ign": 5330,
    "▁актив": 15696,
    "Sito": 28409,
    "<<ST_90>>": 32090,
    "▁icon": 9849,
    "цена": 25144,
    "▁inline": 10583,
    "volution": 4068,
    "▁metal": 11915,
    "iy": 19881,
    "kem": 21885,
    "Fields": 14256,
    "functions": 12171,
    "<<ST_644>>": 32644,
    "agues": 21628,
    "utable": 9246,
    "???": 28772,
    "Screen": 11357,
    "▁Cand": 28433,
    "itories": 20106,
    "NG": 9312,
    "▁ya": 9343,
    "▁`": 421,
    "模": 31382,
    "▁negative": 8178,
    "▁books": 8277,
    "▁posit": 13686,
    "▁chapter": 16385,
    "John": 11639,
    "ims": 9893,
    "բ": 31434,
    "▁initial": 2847,
    "limp": 12552,
    "ECT": 13845,
    "▁SL": 27146,
    "റ": 30976,
    "▁independently": 25499,
    "ulle": 15104,
    ">\\<^": 26498,
    "": 31348,
    "war": 4495,
    "lg": 19920,
    "▁pendant": 13180,
    "▁Ful": 23004,
    "ready": 2040,
    "ederb": 12649,
    "▁whe": 21266,
    "▁Aires": 16981,
    "▁icons": 27673,
    "icky": 18219,
    "▁skin": 19309,
    "▁INT": 19578,
    "▁Dev": 9481,
    "▁чер": 13392,
    "▁Anyway": 18110,
    "<<ST_234>>": 32234,
    "▁overlap": 25457,
    "▁advent": 17623,
    "▁jeden": 22936,
    "Db": 10234,
    "▁Palmar": 19010,
    "▁Dynamic": 27747,
    "▁Beit": 23983,
    "▁Botan": 26035,
    "▁ill": 4486,
    "▁permut": 20005,
    "ньо": 16473,
    "▁их": 11244,
    "▁|": 891,
    "▁Arag": 24350,
    "▁Jerry": 23052,
    "▁Dialog": 18878,
    "▁MyClass": 28603,
    "Well": 11284,
    "<<ST_134>>": 32134,
    "典": 31259,
    "▁zawod": 25425,
    "▁Ev": 7298,
    "മ": 30859,
    "▁français": 7691,
    "▁Window": 18379,
    "남": 31754,
    "▁beg": 1812,
    "▁Period": 29498,
    "▁Solo": 29687,
    "▁Player": 14574,
    "▁occasionally": 23025,
    "馬": 31087,
    "сси": 6988,
    "frac": 1154,
    "✔": 30973,
    "ether": 1979,
    "wards": 2935,
    "语": 31505,
    "туры": 15934,
    "▁ain": 7216,
    "tabular": 9456,
    "▁skill": 19911,
    "▁Linux": 8074,
    "▁gew": 5247,
    "▁писа": 16851,
    "irt": 2728,
    "▁inoltre": 27053,
    "▁==>": 25230,
    "œuv": 13753,
    "▁overlay": 27292,
    "<<ST_295>>": 32295,
    "▁erh": 9369,
    "во": 984,
    "▁perpet": 25722,
    "▁вы": 2771,
    "поль": 18360,
    "falls": 12559,
    "場": 31045,
    "▁Википедии": 19614,
    "<<ST_538>>": 32538,
    "▁Esc": 12783,
    "▁Manuel": 13815,
    "▁spend": 18864,
    "▁Hero": 22167,
    "boolean": 20054,
    "cito": 14524,
    "ika": 4106,
    "▁sehr": 13572,
    "Bottom": 15342,
    "▁origen": 29444,
    "▁ho": 5089,
    "Qu": 2182,
    "occup": 16770,
    "ographic": 12122,
    "▁Beaut": 19618,
    "▁mine": 7903,
    "av": 485,
    "회": 31953,
    "push": 5910,
    "▁ла": 11046,
    "▁Give": 25538,
    "▁time": 931,
    "acje": 28322,
    "▁Sund": 12009,
    "▁Accept": 29848,
    "Handle": 13554,
    "<<ST_279>>": 32279,
    "▁distinguish": 20820,
    "▁pec": 13209,
    "ahl": 4494,
    "вые": 19455,
    "than": 27603,
    "▁Hmm": 28756,
    "▁sechs": 23320,
    "▁Volk": 26071,
    "лены": 24827,
    "ieved": 6402,
    "ccion": 22643,
    "Router": 23971,
    "▁Chap": 13741,
    "TC": 9472,
    "▁отрима": 26593,
    "▁Hab": 15221,
    "opp": 9354,
    "ּ": 30500,
    "▁bare": 16079,
    "ա": 30251,
    "Bit": 21591,
    "▁Initial": 17250,
    "Convert": 18455,
    "▁persone": 29116,
    "<<ST_226>>": 32226,
    "graphics": 6420,
    "▁Vall": 19918,
    "Word": 14463,
    "ged": 3192,
    "▁же": 5865,
    "▁em": 953,
    "भ": 31380,
    "zug": 19457,
    "▁fate": 23779,
    "▁Fro": 25022,
    "EV": 22240,
    "rf": 9600,
    "▁Les": 2664,
    "ниш": 13837,
    "ccc": 26854,
    "<<ST_462>>": 32462,
    "▁cours": 9587,
    "▁wide": 9377,
    "▁Ji": 18122,
    "<0xD9>": 220,
    "esia": 28666,
    "▁numerous": 12727,
    "simple": 12857,
    "▁pret": 14794,
    "表": 30746,
    "▁janu": 10111,
    "сты": 14860,
    "▁Matrix": 22513,
    "▁Berg": 9827,
    "ushing": 21616,
    "▁td": 22599,
    "▁результа": 13439,
    "Get": 2577,
    "▁Bun": 27105,
    "adora": 15441,
    "▁programma": 29213,
    "▁acts": 14741,
    "Git": 28712,
    "self": 1311,
    "ked": 17713,
    "stad": 17569,
    "▁Drop": 20724,
    "new": 1482,
    "string": 1807,
    "iversity": 24974,
    "▁white": 4796,
    "ċ": 31920,
    "▁Mac": 4326,
    "sect": 8803,
    "▁ví": 15207,
    "▁Barcelona": 12408,
    "▁plut": 28185,
    "attr": 5552,
    "⁶": 30522,
    "▁который": 12423,
    "▁%>": 6580,
    "▁sj": 19421,
    "spl": 23579,
    "ARY": 19926,
    "Gener": 5631,
    "▁throwing": 17452,
    "▁arrang": 15196,
    "▁caps": 26091,
    "동": 31000,
    "▁burning": 25535,
    "▁precise": 18378,
    "▁Smith": 7075,
    "▁BO": 16437,
    "▁stir": 23546,
    "ACK": 11375,
    "▁Il": 1720,
    "▁It": 739,
    "<<ST_516>>": 32516,
    "▁raz": 8006,
    "▁MP": 16379,
    "osp": 4705,
    "unda": 8917,
    "▁общи": 24761,
    "ahn": 5422,
    "azine": 8985,
    "Level": 10108,
    "ą": 30025,
    "▁Frank": 4976,
    "▁тео": 25728,
    "min": 1195,
    "▁Italien": 23977,
    "▁Chris": 12821,
    "▁ksi": 23500,
    "Override": 4640,
    "▁din": 4538,
    "▁Кур": 27812,
    "yst": 858,
    "otto": 9693,
    "ǐ": 30638,
    "▁ener": 4527,
    "▁rep": 1634,
    "поді": 28882,
    "▁eq": 11594,
    "湖": 31496,
    "▁heut": 21364,
    "<0xBA>": 189,
    "▁nazionale": 24188,
    "▁registration": 22583,
    "Mobile": 29295,
    "рес": 19961,
    "▁enqu": 22085,
    "▁tak": 1850,
    "▁mechan": 7208,
    "▁Federation": 20438,
    "lait": 27275,
    "▁філь": 29146,
    "▁Earl": 17169,
    "ɪ": 30312,
    "▁absolutely": 13312,
    "▁Ги": 27553,
    "desktop": 20858,
    "jdbc": 15686,
    "▁kot": 21062,
    "▁constru": 6787,
    "⸮": 31477,
    "ested": 2868,
    "ährend": 9168,
    "▁où": 6722,
    "▁shame": 28503,
    "▁á": 3976,
    "Component": 5308,
    "▁ско": 18924,
    "avam": 25599,
    "demic": 24552,
    "▁needed": 4312,
    "▁retir": 19860,
    "cé": 16100,
    "▁\\,": 7179,
    "▁minds": 27656,
    "routes": 27894,
    "▁Fix": 24778,
    "▁zam": 14583,
    "eter": 1308,
    "▁bedeut": 23477,
    "些": 31959,
    "▁Tar": 11740,
    "not": 1333,
    "▁?>": 6681,
    "வ": 31249,
    "▁offers": 16688,
    "▁Use": 4803,
    "▁po": 772,
    "к": 29951,
    "▁department": 14311,
    "▁rang": 19120,
    "QUE": 11144,
    "▁treat": 7539,
    "化": 30705,
    "ਾ": 31248,
    "▁Prin": 12069,
    "Wikispecies": 24075,
    "▁nac": 22227,
    "DEF": 24405,
    "▁Comun": 23914,
    "▁cela": 18729,
    "▁бу": 3180,
    "-$": 18039,
    "зе": 4791,
    "▁держа": 18716,
    "▁ge": 1737,
    "▁dx": 15414,
    "émet": 24700,
    "▁хо": 6785,
    "▁ге": 10342,
    "▁beautiful": 9560,
    "▁Standard": 10117,
    "年": 30470,
    "▁afford": 21750,
    "urt": 4227,
    "!(": 13311,
    "▁награ": 21295,
    "crete": 9084,
    "▁quartier": 29553,
    "uous": 17269,
    "▁trap": 26505,
    "plom": 8840,
    "widget": 8030,
    "cket": 3522,
    "ican": 2185,
    "书": 31900,
    "<<ST_535>>": 32535,
    "owano": 25024,
    "MD": 5773,
    "▁Lorenzo": 25829,
    "undle": 4730,
    "esh": 12094,
    "neg": 10052,
    "▁kilometres": 24016,
    "ionales": 28509,
    "▁ray": 15570,
    "▁royal": 15150,
    "▁WCF": 29101,
    "▁Bond": 26370,
    "▁Property": 9079,
    "▁Personal": 16224,
    "▁Да": 8371,
    "<<ST_627>>": 32627,
    "▁Even": 7753,
    "cience": 15277,
    "лен": 2510,
    "joint": 12090,
    "▁Napoli": 29642,
    "▁nörd": 23810,
    "κ": 30173,
    "▁connections": 12368,
    "Watch": 24709,
    "▁Sus": 9511,
    "▁reverse": 11837,
    "▁Ward": 21910,
    "▁Pad": 18011,
    "äischen": 27334,
    "▁excell": 12567,
    "▁notion": 17837,
    "HttpRequest": 26021,
    "▁пло": 11366,
    "▁increasing": 10231,
    "▁Edd": 20861,
    "зен": 27424,
    "▁ber": 7655,
    "▁intr": 11158,
    "▁Wayback": 7162,
    "▁retrieve": 10563,
    "ck": 384,
    "idal": 23670,
    "riz": 7485,
    "shal": 23258,
    "▁mill": 3533,
    "führung": 22269,
    "▁prosper": 25831,
    "▁Также": 27938,
    "▁pir": 21625,
    "▁Trade": 27226,
    "▁який": 16629,
    "xty": 29312,
    "à": 30001,
    "emann": 24767,
    "▁trace": 9637,
    "▁около": 17244,
    "arn": 2753,
    "▁checking": 8454,
    "rey": 8903,
    "▁attach": 10641,
    "Sam": 22966,
    "‏": 30422,
    "▁genre": 16151,
    "▁Przyp": 20172,
    "▁where": 988,
    "▁CE": 14645,
    "шего": 16771,
    "Pr": 4040,
    "unst": 6465,
    "▁character": 2931,
    "▁Years": 23857,
    "▁ry": 24721,
    "▁Old": 8198,
    "▁sir": 8889,
    "▁dust": 19786,
    "tasks": 20673,
    "▁Please": 3529,
    "▁органи": 12363,
    "▁Пари": 23988,
    "▁fl": 1652,
    "▁Platform": 28096,
    "▁Size": 21179,
    "▁fem": 4445,
    "imum": 12539,
    "▁compare": 7252,
    "folge": 22997,
    "▁referencing": 29371,
    "зыва": 10706,
    "dating": 26747,
    "rides": 24040,
    "▁Gott": 13351,
    "▁continuous": 9126,
    "師": 31549,
    "aupt": 7479,
    "Jean": 22438,
    "cuss": 13571,
    "igten": 17542,
    "▁Ј": 15181,
    "▁fat": 9950,
    "erten": 19106,
    "▁Årsmed": 26734,
    "ades": 3076,
    "▁display": 2479,
    "▁kid": 26397,
    "avan": 29080,
    "▁once": 2748,
    "Ze": 24625,
    "▁населення": 15242,
    "▁Lauf": 29208,
    "phe": 28362,
    "▁Украї": 8138,
    "ampf": 16817,
    "▁travel": 9850,
    "START": 25826,
    "▁Wed": 15050,
    "▁parfois": 29202,
    "▁vert": 4837,
    "gcc": 19644,
    "<0xA7>": 170,
    "pattern": 11037,
    "▁ff": 14336,
    "▁Nas": 22318,
    "Util": 7270,
    "linewidth": 16292,
    "San": 22509,
    "过": 31138,
    "ünst": 12820,
    "mu": 2589,
    "licate": 5926,
    "▁nome": 9235,
    "▁Polen": 28500,
    "eli": 5037,
    "▁blog": 12618,
    "Gr": 3338,
    "▁samt": 20642,
    "coli": 25776,
    "кс": 4399,
    "▁Georg": 6158,
    "Bar": 4297,
    "▁divided": 13931,
    "▁führte": 21070,
    "тив": 3499,
    "▁Bit": 18531,
    "ɨ": 30596,
    "▁interven": 26314,
    "▁estud": 13497,
    "itzerland": 27198,
    "▁left": 2175,
    "compatible": 23712,
    "▁Lav": 23212,
    "▁Klaus": 24041,
    "▁exceed": 13461,
    "▁sedan": 26544,
    "▁Mex": 7578,
    "gal": 23014,
    "izione": 8447,
    "fter": 906,
    "itivity": 24858,
    "▁Capt": 8868,
    "pert": 10700,
    "Span": 15495,
    "▁bunch": 14928,
    "klär": 16907,
    "alle": 3498,
    "▁Zum": 25174,
    "uis": 4664,
    "ignment": 10194,
    "ails": 2234,
    "▁Jr": 13843,
    "▁Place": 15484,
    "sun": 11445,
    "▁zewnętrzne": 15412,
    "▁injection": 20859,
    "▁Er": 1425,
    "<": 29966,
    "гли": 16796,
    "▁Fernández": 27158,
    "local": 2997,
    "▁crit": 3994,
    "cus": 8668,
    "▁Sele": 28051,
    "▁Soul": 27339,
    "kol": 10028,
    "tf": 13264,
    "iez": 26477,
    "▁throws": 8026,
    "▁Mand": 15419,
    "▁Жи": 23492,
    "▁weiteren": 24632,
    "▁später": 9655,
    "▁Colors": 29183,
    "▁loss": 6410,
    "▁contacts": 25957,
    "▁classification": 12965,
    "列": 31025,
    "UTF": 10496,
    "▁Davis": 15225,
    "▁pes": 8928,
    "guez": 26057,
    "▁Project": 8010,
    "▁Ni": 15981,
    "▁military": 9121,
    "Pop": 12310,
    "▁molt": 25077,
    "ських": 12581,
    "']);": 17077,
    "ive": 573,
    "mathscr": 13002,
    "img": 2492,
    "▁agli": 21911,
    "minus": 12254,
    "▁És": 29441,
    "▁политиче": 25061,
    "▁остров": 27586,
    "▁marker": 17456,
    "бе": 3759,
    "kunft": 27488,
    "ument": 942,
    "▁types": 4072,
    "▁equality": 17193,
    "ワ": 31028,
    "▁tender": 22707,
    "▁Верхов": 25731,
    "ables": 1849,
    "同": 30980,
    "zon": 6626,
    "()`,": 16996,
    "ForKey": 23640,
    "●": 30764,
    "▁searching": 11975,
    "iddle": 2632,
    "▁school": 3762,
    "▁Irish": 12601,
    "cov": 24542,
    "▁haar": 11722,
    "erb": 23936,
    "riften": 17000,
    "are": 598,
    "POS": 24815,
    "군": 31699,
    "▁ць": 19940,
    "▁/": 847,
    "овин": 21729,
    "▁акт": 20681,
    "auer": 7547,
    "GO": 17080,
    "द": 30694,
    "ified": 2164,
    "sers": 4253,
    "(@\"": 14699,
    "▁tib": 29344,
    "package": 5113,
    "▁officially": 22444,
    "▁Polish": 19919,
    "▁revol": 13819,
    "▁inverse": 16402,
    "dimensional": 12531,
    "连": 31903,
    "parator": 17954,
    "#{": 26660,
    "▁beskre": 7654,
    "Oh": 9048,
    "Stack": 7264,
    "▁Count": 3917,
    "▁Васи": 15268,
    "▁Ligações": 18315,
    "ület": 15363,
    "▁Show": 7704,
    "▁listade": 7917,
    "▁изда": 16209,
    "▁új": 20786,
    "érieur": 14508,
    "uffle": 21897,
    "шая": 15766,
    "▁webpack": 28285,
    "▁Look": 7419,
    "▁heter": 25745,
    "▁dif": 958,
    "▁wsp": 16438,
    "Launch": 17641,
    "▁jan": 5496,
    "▁Spider": 26778,
    "▁representation": 8954,
    "▁glass": 12917,
    "api": 2754,
    "▁во": 1786,
    "Cent": 23369,
    "chts": 10333,
    "▁Bass": 17328,
    "Đ": 30250,
    "ikt": 10391,
    "▁MainActivity": 28553,
    "esch": 1968,
    "▁Quellen": 25573,
    "Ξ": 31827,
    "ські": 18485,
    "erg": 15064,
    "scala": 15820,
    "▁kB": 23297,
    "iate": 29347,
    "<<ST_211>>": 32211,
    "<0x75>": 120,
    "▁St": 624,
    "▁Things": 28706,
    "▁Гор": 21164,
    "/,": 19637,
    "▁о": 614,
    "égl": 19351,
    "inda": 11054,
    "iring": 8491,
    "▁hear": 8293,
    "▁пункт": 27655,
    "▁Example": 8741,
    "▁fonction": 18165,
    "▁parentheses": 29494,
    "▁Ox": 9471,
    ".*;": 26355,
    "▁demand": 9667,
    "rypto": 17929,
    "È": 30141,
    "▁waves": 20037,
    "α": 30110,
    "▁derivative": 16291,
    "▁Kar": 3467,
    "viron": 3024,
    "▁Ax": 22523,
    "▁estimates": 21875,
    "็": 31453,
    "▁overcome": 25688,
    "dienst": 26293,
    "они": 18582,
    "<<ST_530>>": 32530,
    "▁spr": 7689,
    "<<ST_192>>": 32192,
    "Virtual": 21287,
    "alette": 26456,
    "olly": 18368,
    "▁WPF": 23678,
    "▁Weblinks": 5732,
    "▁fla": 17422,
    "Ṭ": 31508,
    "PropertyChanged": 29109,
    "▁forgot": 9640,
    "▁другие": 28018,
    "▁первый": 26220,
    "}_{": 3227,
    "how": 3525,
    "▁Ans": 21877,
    "].[": 15555,
    "Media": 10572,
    "▁detected": 17809,
    "▁perhaps": 6060,
    "野": 30661,
    "▁erschien": 25316,
    "adu": 13467,
    "▁aren": 9455,
    "▁FIFA": 21581,
    "cks": 4684,
    "rimonio": 20598,
    "▁campo": 15921,
    "▁Hugo": 20650,
    "Compiler": 25333,
    "<<ST_399>>": 32399,
    "ocoa": 22531,
    "puis": 25628,
    "▁monde": 9122,
    "stoff": 19242,
    "▁bro": 2545,
    "ks": 2039,
    "fetch": 9155,
    "Bean": 8217,
    "▁приз": 25660,
    "衛": 31815,
    "▁dor": 16630,
    "<<ST_463>>": 32463,
    "▁sv": 3731,
    "▁,": 1919,
    "Sort": 13685,
    "▁Kun": 25472,
    "▁était": 6303,
    "▁podczas": 25684,
    "▁real": 1855,
    "▁it": 372,
    "])": 2314,
    "▁tant": 11172,
    "driver": 9465,
    "▁tutte": 25301,
    "▁ekonom": 28890,
    "▁doll": 11232,
    "▁formerly": 21510,
    "rache": 19690,
    "<<ST_84>>": 32084,
    "<<ST_380>>": 32380,
    "▁confirmed": 16725,
    "▁EventArgs": 21374,
    "▁unless": 6521,
    "▁Rails": 15144,
    "バ": 30517,
    "yles": 5577,
    "▁training": 6694,
    "▁oc": 12954,
    "▁Freund": 28817,
    "<<ST_189>>": 32189,
    "ohen": 14899,
    "inition": 3475,
    "张": 31328,
    "alter": 13794,
    "원": 31198,
    "▁lon": 23123,
    "▁dann": 7885,
    "▁Religion": 27099,
    "iffs": 28324,
    "UB": 7466,
    "tau": 4722,
    "▁habían": 28670,
    "▁said": 1497,
    "<0x14>": 23,
    "ospod": 23245,
    "]`": 7961,
    "▁Internet": 4685,
    "жен": 4054,
    "▁Py": 10772,
    "▁shown": 4318,
    "fold": 8771,
    "ragen": 12702,
    "чита": 18790,
    "enie": 16520,
    "ে": 30932,
    "oki": 21025,
    "▁Mrs": 6285,
    "▁plenty": 20947,
    "ској": 15653,
    "▁Hell": 19339,
    "▁distinguished": 20660,
    "ash": 1161,
    "plate": 2341,
    "<<ST_524>>": 32524,
    "ancer": 25856,
    "▁Gam": 28011,
    "▁официаль": 27318,
    "tuple": 23583,
    "▁manually": 7522,
    "ḥ": 30327,
    "▁Voir": 12022,
    "customer": 15539,
    "▁double": 3765,
    "Observer": 28066,
    "ற": 31809,
    "ствие": 25025,
    "ymbol": 2789,
    "цу": 9062,
    "▁favorite": 25448,
    "▁with": 411,
    "ASE": 8127,
    "Ignore": 23805,
    "Ver": 6565,
    "hab": 7308,
    "▁Mate": 29566,
    "▁Carlos": 10815,
    "\\,": 5940,
    "▁scient": 9638,
    "▁ell": 12302,
    "▁årsnederbörd": 28649,
    "lete": 2810,
    "поло": 24141,
    "Framework": 16660,
    "▁Var": 11681,
    "ア": 30310,
    "vice": 1087,
    "Memento": 13922,
    "▁includes": 7805,
    "aments": 20060,
    "▁Andre": 27221,
    "▁laid": 12341,
    "▁объек": 29599,
    "▁uncertainty": 25812,
    "▁Si": 6101,
    "<<ST_36>>": 32036,
    "()));": 20465,
    "▁début": 13222,
    "▁Pow": 12265,
    "bbe": 9967,
    "nika": 13518,
    "▁tribe": 29563,
    "▁rapide": 25595,
    ".\");": 18327,
    "Sk": 15797,
    "▁critic": 11164,
    "▁es": 831,
    "baum": 29602,
    "çon": 15529,
    "▁serv": 3348,
    "}=\\": 8738,
    "тий": 12147,
    "▁alcan": 21629,
    "▁воз": 6849,
    "▁Marcus": 27390,
    "stackoverflow": 2417,
    "▁Stadium": 17213,
    "┴": 30929,
    "▁Cinema": 27306,
    "review": 27828,
    "コ": 30459,
    "▁lista": 15023,
    "▁Schloss": 21013,
    "▁trouble": 7458,
    "▁advoc": 22545,
    "▁Azure": 12634,
    "▁Bar": 2261,
    "▁jobs": 17643,
    "Files": 10547,
    "▁отно": 12797,
    "▁перед": 17702,
    "▁mutable": 26691,
    "▁muss": 23885,
    "▁Joh": 1861,
    "Selector": 10378,
    "▁Süd": 11711,
    "▁£": 15151,
    "dg": 20726,
    "க": 30700,
    "alin": 25977,
    "ському": 17638,
    "▁categ": 6107,
    "話": 31812,
    "▁solit": 26373,
    "ex": 735,
    "▁Census": 20121,
    "▁structure": 3829,
    "▁erreichte": 25329,
    "▁topic": 11261,
    "▁édition": 28823,
    "▁telling": 14509,
    "▁Turn": 9603,
    "ུ": 31601,
    "▁entire": 4152,
    "ruct": 1247,
    "inction": 16807,
    "lika": 22605,
    "▁dashed": 27526,
    "▁employee": 19001,
    "▁Льв": 26298,
    "▁hall": 12713,
    "<0xA8>": 171,
    "ție": 12989,
    "▁applicable": 22903,
    "▁апре": 14374,
    "ppo": 9759,
    "▁Ka": 13680,
    "ASS": 22933,
    "▁aston": 24293,
    "jpg": 6173,
    "fonts": 28586,
    "istol": 19639,
    "址": 31702,
    "ings": 886,
    "▁patr": 22191,
    "▁Ajax": 21586,
    "airs": 7121,
    "▁тан": 20395,
    "▁Bilder": 8354,
    ")^{\\": 21422,
    "Ψ": 31375,
    "бан": 24168,
    "gers": 5743,
    "▁Dienst": 24045,
    "▁foo": 7953,
    "Webachiv": 24294,
    "ona": 2681,
    "▁should": 881,
    "lemma": 13846,
    "зви": 22246,
    "▁upgrad": 20337,
    "Entry": 9634,
    "▁Ge": 1879,
    "▁Search": 11856,
    "ánico": 26152,
    "▁Go": 2921,
    "▁того": 11453,
    "<0xD8>": 219,
    "iri": 12737,
    "▁Dub": 11668,
    "cgi": 20006,
    "PS": 7024,
    "▁losing": 19035,
    "shell": 15903,
    "▁Stone": 15681,
    "▁overflow": 11969,
    "▁completed": 8676,
    "▁San": 3087,
    "▁alcuni": 19344,
    "distance": 19244,
    "zioni": 13437,
    "unto": 12578,
    "ense": 1947,
    "▁international": 6121,
    "▁li": 619,
    "REE": 21661,
    "▁relations": 5302,
    "▁Modern": 14624,
    "▁пров": 10613,
    "▁Bak": 23336,
    "bitr": 8844,
    "exe": 8097,
    "▁validate": 12725,
    "TextBox": 15102,
    "nut": 21305,
    "клад": 18191,
    "<<ST_42>>": 32042,
    "▁princes": 23251,
    "▁Kinder": 15857,
    "▁aged": 26552,
    "arie": 19380,
    "▁uit": 3649,
    "мов": 10556,
    "▁],": 21251,
    "▁защи": 20022,
    "▁society": 12459,
    "▁CREATE": 14602,
    "▁verschill": 28195,
    "MR": 21055,
    "rå": 9069,
    "แ": 31073,
    "▁largest": 10150,
    "▁Pennsylvania": 16636,
    "▁Century": 24027,
    "lla": 13520,
    "▁dioc": 22386,
    "▁она": 15568,
    "ao": 6241,
    "▁sont": 3435,
    "document": 3225,
    "aters": 10412,
    "▁Governor": 15431,
    "▁España": 12280,
    "▁muse": 23200,
    "▁departamento": 28885,
    "▁Qt": 14705,
    "▁höch": 27783,
    "▁ordin": 22420,
    "rac": 945,
    "▁amateur": 28800,
    "AUT": 20656,
    "<<ST_473>>": 32473,
    "▁Sic": 18349,
    "mathbf": 2762,
    "▁Coupe": 19401,
    "ila": 4233,
    "▁preceding": 26328,
    "Style": 5568,
    "▁OR": 6323,
    "▁college": 12755,
    "▁scalar": 17336,
    "▁posto": 17614,
    "UT": 2692,
    "></": 2565,
    "ців": 15272,
    "usz": 10958,
    "lap": 6984,
    "▁nazw": 28092,
    "▁nasc": 29229,
    "cz": 2067,
    "▁Icon": 26816,
    "▁mkdir": 29356,
    "Մ": 31575,
    "▁jug": 8740,
    "▁afraid": 13421,
    "ciente": 27381,
    "▁zdoby": 26853,
    "aturen": 14101,
    "margin": 9264,
    "▁otten": 26559,
    "▁Pas": 10043,
    "Repos": 10913,
    "$,": 1628,
    "▁operators": 12768,
    "folk": 17976,
    "ikh": 28464,
    "▁areas": 10161,
    "static": 7959,
    "aves": 5989,
    "docs": 2640,
    "ria": 2849,
    "▁Super": 5670,
    "▁element": 1543,
    "ifs": 10270,
    "▁pione": 29323,
    "น": 30348,
    "bu": 2423,
    "maker": 28107,
    "▁în": 3526,
    "▁Bind": 29672,
    "皇": 31140,
    "▁surve": 26946,
    "aient": 10978,
    "▁props": 17761,
    "source": 4993,
    "▁loading": 8363,
    "ल": 30603,
    "▁надморској": 21836,
    "<<ST_250>>": 32250,
    "▁Eins": 16943,
    "wel": 20466,
    "hol": 5391,
    "ׁ": 31194,
    "▁declaring": 25136,
    "▁unsigned": 12780,
    "▁conject": 25466,
    "yo": 9029,
    "▁calm": 21732,
    "Validation": 19448,
    "▁perí": 18631,
    "vert": 1765,
    "varchar": 22408,
    "▁szer": 12081,
    "▁converting": 17415,
    "<<ST_112>>": 32112,
    "▁sex": 7916,
    "▁esempio": 29775,
    "▁thee": 14904,
    "യ": 30674,
    "checkbox": 12348,
    "▁substantial": 23228,
    "fty": 3312,
    "тов": 4820,
    "▁lun": 25081,
    "▁przy": 8321,
    ">';": 23625,
    "技": 31615,
    "▁Out": 4451,
    "▁mobil": 27227,
    "▁uses": 3913,
    "▁enter": 3896,
    "▁azon": 26363,
    "onial": 25164,
    "isches": 8403,
    "тей": 14469,
    "otimes": 9356,
    "▁bât": 21592,
    "▁Voll": 29468,
    "<<ST_355>>": 32355,
    "▁cs": 5939,
    "▁forced": 11826,
    "▁moment": 3256,
    "▁kill": 12088,
    "filename": 9507,
    "ward": 1328,
    "▁nuclear": 20346,
    "`?": 6522,
    "▁ideal": 10839,
    "▁verz": 23457,
    "▁require": 1996,
    "▁donn": 14735,
    "设": 30872,
    "<<ST_537>>": 32537,
    "▁Una": 12127,
    "▁Lis": 15285,
    "▁sounds": 10083,
    "unque": 11246,
    "▁conditional": 15047,
    "zott": 29730,
    "▁teachers": 27335,
    "hbar": 26620,
    "env": 6272,
    "▁pyg": 19484,
    "▁música": 15433,
    "▁strict": 9406,
    "▁grown": 21633,
    "▁listopada": 26159,
    "▁neg": 3480,
    "▁private": 2024,
    "▁Active": 10731,
    "relation": 23445,
    "▁SU": 20134,
    "▁groups": 6471,
    "Order": 7514,
    "▁году": 3294,
    "<<ST_151>>": 32151,
    "museum": 25360,
    "▁VIAF": 9604,
    "▁veces": 24063,
    "▁Well": 5674,
    "кар": 15266,
    "▁Prima": 28930,
    "▁ej": 8574,
    "▁comments": 6589,
    "∘": 30790,
    "ḳ": 31897,
    "▁externes": 7441,
    "ubble": 23232,
    "▁cou": 3581,
    "▁mirror": 19571,
    "\\}$.": 23699,
    "▁switching": 21293,
    "ále": 25127,
    "▁durch": 3494,
    "zer": 3298,
    "▁grup": 23752,
    "▁случа": 23334,
    "skih": 26896,
    "▁Yang": 27583,
    "ninger": 22705,
    "Result": 3591,
    "▁mountains": 19223,
    "▁Field": 8989,
    "▁Santa": 7510,
    "▁Ky": 16931,
    "Emp": 10495,
    "threads": 28993,
    "▁politique": 11398,
    "OH": 23170,
    "▁Nancy": 24190,
    "<<ST_679>>": 32679,
    "▁LA": 17900,
    "▁tried": 1898,
    "▁inten": 17818,
    "руг": 21506,
    "▁desc": 5153,
    "▁Vir": 6749,
    "ls": 3137,
    "gable": 29531,
    "<<ST_755>>": 32755,
    "von": 23696,
    "▁recher": 17124,
    "▁orbit": 16980,
    "▁Planet": 20540,
    "~$\\": 28591,
    "otes": 4769,
    "theta": 3416,
    "▁pray": 12475,
    "forEach": 14142,
    "oa": 19807,
    "◦": 31460,
    "▁multiply": 22932,
    "▁Princi": 14771,
    "ustration": 11036,
    "нет": 24050,
    "ський": 6240,
    "king": 9292,
    "predict": 27711,
    "цов": 23728,
    "奈": 31696,
    "▁información": 29717,
    "▁content": 2793,
    "▁hidden": 7934,
    "current": 3784,
    "days": 16700,
    "▁malloc": 25465,
    "▁settings": 6055,
    "空": 30816,
    "ích": 18353,
    "▁impact": 10879,
    "▁Land": 3172,
    "<0x2D>": 48,
    "nach": 29683,
    "▁Vill": 9887,
    "holds": 23177,
    "ouc": 29049,
    "▁silly": 24866,
    "walk": 20919,
    "SUM": 25021,
    "▁prakt": 28683,
    "▁Según": 24109,
    "▁Indones": 16704,
    "▁interrupted": 27803,
    "abor": 3717,
    "acre": 21160,
    "▁oder": 4461,
    "▁calculation": 13944,
    "▁mientras": 17947,
    "▁Living": 26176,
    "▁succ": 8348,
    "▁updated": 4784,
    "▁Sal": 3956,
    "uerdo": 25768,
    "<<ST_645>>": 32645,
    "rek": 22218,
    "▁Zone": 24385,
    "▁Commun": 20473,
    "用": 30406,
    "▁Cry": 22121,
    "pop": 7323,
    "▁présent": 16474,
    "цию": 13603,
    "▁wechsel": 21036,
    "▁correctly": 5149,
    "▁Dro": 22938,
    "▁состав": 7923,
    "Append": 18277,
    "▁армии": 24164,
    "▁put": 1925,
    "▁immediately": 7389,
    "ा": 30269,
    "▁slash": 24765,
    "▁Iss": 16982,
    "▁XVIII": 14271,
    "▁presente": 20753,
    "▁wil": 28292,
    "AndroidRuntime": 12746,
    "▁um": 1922,
    "Mode": 6818,
    "▁deven": 21617,
    "き": 30538,
    "Daniel": 29866,
    "<<ST_471>>": 32471,
    "▁towards": 7113,
    "<<ST_481>>": 32481,
    "Behavior": 28100,
    "›": 30405,
    "▁May": 2610,
    "▁Pit": 29244,
    "▁{\r": 3336,
    "ateurs": 14075,
    "remark": 26294,
    "▁investig": 7405,
    "scar": 14494,
    "init": 2344,
    "▁amor": 24550,
    "点": 30940,
    "▁information": 2472,
    "▁création": 25243,
    "VI": 18118,
    "example": 4773,
    "▁forest": 13569,
    "▁pas": 2331,
    "▁forall": 25345,
    "ultur": 9730,
    "▁hanno": 15239,
    "▁Begriffe": 19379,
    "最": 30878,
    "▁Buen": 15463,
    "<<ST_731>>": 32731,
    "▁women": 5866,
    "▁regnig": 28642,
    "▁moder": 17768,
    "▁neighbor": 12307,
    "▁institution": 12666,
    "aux": 2993,
    "▁Áng": 26523,
    "onto": 10268,
    "may": 13029,
    "geführt": 26210,
    "▁сезо": 20366,
    "▁nau": 16448,
    "unde": 9140,
    "Ս": 31663,
    "▁вз": 25505,
    "▁worship": 26320,
    "▁tags": 8282,
    "aci": 18703,
    "dire": 20146,
    "▁reve": 10320,
    "▁partiellement": 22816,
    "stab": 29256,
    "る": 30332,
    "<<ST_677>>": 32677,
    "▁nouvelle": 15217,
    "▁LI": 17705,
    "▁municipal": 11677,
    "TagName": 29269,
    "PUT": 12336,
    "▁states": 5922,
    "роз": 24570,
    "cedes": 28352,
    "ová": 7643,
    "▁tutorial": 9673,
    "▁extreme": 18677,
    "owski": 11716,
    "▁links": 2988,
    "▁rum": 16558,
    "▁conseil": 27923,
    "▁fatto": 20033,
    "krie": 13464,
    "cons": 3200,
    "▁dimension": 9927,
    "bez": 15325,
    "verein": 22655,
    "▁Thor": 16419,
    "Spe": 10649,
    "▁incluy": 25520,
    "endo": 2765,
    "dag": 24157,
    "▁pouv": 24684,
    "ору": 18968,
    "Š": 30115,
    "▁комму": 24486,
    "박": 31736,
    "night": 11147,
    "ന": 30438,
    "GC": 8766,
    "amen": 5071,
    "ppet": 7988,
    "▁foss": 21983,
    "ush": 1878,
    "Projects": 25119,
    "ן": 30447,
    "▁mistake": 10171,
    "▁sun": 6575,
    "power": 13519,
    "▁convention": 15687,
    "ATA": 8254,
    "▁arab": 25352,
    "▁patri": 16967,
    "▁escaped": 19824,
    "ří": 6016,
    "<<ST_76>>": 32076,
    "▁associate": 25836,
    "▁gesture": 29502,
    "ɫ": 31764,
    "▁висини": 21673,
    "java": 1645,
    "<<ST_354>>": 32354,
    "<<ST_638>>": 32638,
    "ühr": 4000,
    "vin": 3845,
    "▁original": 2441,
    "rip": 6472,
    "▁empty": 4069,
    "▁czł": 21390,
    "▁[": 518,
    "▁sole": 14419,
    "▁Fri": 11169,
    "▁bounded": 12635,
    "}}}": 12499,
    "кры": 10300,
    "▁Ком": 26279,
    "▁una": 1185,
    "ifiz": 21722,
    "▁anonymous": 21560,
    "▁farther": 26645,
    "▁hen": 19061,
    "▁уні": 25377,
    "▁britannique": 24843,
    "▁sit": 7845,
    "eler": 7367,
    "occer": 11953,
    "▁audience": 20026,
    "▁Alc": 25761,
    "▁acc": 1035,
    "▁closest": 21438,
    "ണ": 31146,
    "ró": 6830,
    "що": 4851,
    "▁över": 10113,
    "Collections": 19466,
    "▁promises": 27584,
    "Loader": 10036,
    "<<ST_260>>": 32260,
    "▀": 30676,
    "▁tempt": 25782,
    "▁CHAR": 26871,
    "▁Flo": 26043,
    "▁Grid": 11657,
    "▁proves": 28281,
    "▁income": 17869,
    "reven": 27901,
    "though": 3592,
    "nofollow": 4043,
    "ustr": 4627,
    "olid": 17211,
    "▁considered": 5545,
    "agini": 11342,
    "▁spiel": 14024,
    "geo": 24756,
    "▁Free": 12362,
    "some": 5372,
    "▁Agent": 28330,
    "odio": 16057,
    "▁add": 788,
    "anto": 5361,
    "▁fan": 13524,
    "verb": 18248,
    "▁garden": 16423,
    "▁timer": 12237,
    "ar": 279,
    "▁statt": 15741,
    "ére": 10799,
    "req": 7971,
    "▁registers": 28975,
    "▁club": 4402,
    "▁expla": 3641,
    "este": 4196,
    "}$": 1042,
    "ỹ": 31755,
    "▁mesmo": 20661,
    "iqu": 8105,
    "ger": 914,
    "▁disappear": 25417,
    "▁Async": 20688,
    "<0xE5>": 232,
    "DR": 8353,
    ".\"": 1213,
    "zet": 4975,
    "▁Evans": 24056,
    "▁{%": 18674,
    "▁információ": 24814,
    "amment": 10460,
    "Ig": 28600,
    "▁reputation": 19821,
    "requests": 24830,
    "▁GND": 10453,
    "Comput": 20606,
    "▁decrease": 23806,
    "▁League": 5165,
    "▁син": 24066,
    "ових": 17539,
    "▁Edwards": 29174,
    "万": 31535,
    "................": 25285,
    "▁dés": 9982,
    "ní": 2213,
    "▁optimize": 24656,
    "Global": 12756,
    "▁листопада": 28906,
    "▁Piet": 14929,
    "ék": 5859,
    "<0x16>": 25,
    "▁courses": 21888,
    "▁Cru": 11263,
    "Sh": 2713,
    "▁świ": 12830,
    "he": 354,
    "extension": 17588,
    "▁concluded": 22834,
    "▁дет": 29788,
    "▁Sob": 25147,
    "▁dig": 4697,
    "▁license": 19405,
    "▁Archiv": 5522,
    "▁worked": 3796,
    "Services": 13779,
    "▁}": 500,
    "brace": 13842,
    "estival": 6074,
    "▁itself": 3528,
    "▁lleg": 10953,
    "round": 14486,
    "▁millimeter": 26491,
    "<0xE7>": 234,
    "Log": 3403,
    "зова": 9718,
    "▁slov": 25007,
    "ai": 1794,
    "▁ele": 4552,
    "pective": 12645,
    "第": 30622,
    "य": 30640,
    "flat": 20620,
    "▁soon": 4720,
    "▁až": 21253,
    "▁однако": 24439,
    "▁Einzel": 24978,
    "▁manuscript": 27593,
    "▁polski": 26685,
    "izo": 11411,
    "▁Гер": 14281,
    "▁scra": 24559,
    "),": 511,
    "▁zum": 3356,
    "▁hope": 4966,
    "▁ul": 9238,
    "<<ST_136>>": 32136,
    "vis": 1730,
    "▁prepar": 10223,
    "▁anch": 23791,
    "▁are": 526,
    "赤": 31682,
    "TL": 14632,
    "rah": 19856,
    "▁cuenta": 21052,
    "▁Wind": 17311,
    "мина": 12189,
    "Pane": 13683,
    "▁comes": 5304,
    "制": 31072,
    "}(": 2119,
    "料": 31949,
    "▁'/": 8207,
    "▁clo": 17184,
    "Name": 1170,
    "Comple": 8909,
    "▁:": 584,
    "fica": 12619,
    "▁wis": 22573,
    "rás": 11964,
    "▁pup": 23449,
    "ordnet": 16599,
    "ි": 31485,
    "▁cinéma": 19384,
    "▁fou": 12584,
    "▁Bulg": 28126,
    "▁commits": 25741,
    "akers": 21079,
    "▁Relig": 16221,
    "stud": 18082,
    "ethod": 959,
    "▁single": 2323,
    "ств": 2513,
    "liches": 20048,
    "dated": 9715,
    "▁ces": 7015,
    "▁але": 19277,
    "▁looked": 5148,
    "▁Fitz": 22963,
    "♠": 31067,
    "▁upper": 7568,
    "lect": 781,
    "ços": 16152,
    "▁Independent": 25266,
    "▁Catal": 11732,
    "vector": 8111,
    "omething": 9153,
    "wrapper": 17699,
    "én": 1690,
    "▁ed": 1226,
    "▁качестве": 22285,
    "ète": 12973,
    "▁това": 18077,
    "▁hoch": 27568,
    "▁employees": 22873,
    "rp": 19080,
    "▁blue": 7254,
    "▁Break": 28301,
    "▁steam": 21837,
    "ститу": 10010,
    ".»": 16039,
    "▁type": 1134,
    "minipage": 24203,
    "▁Vert": 11198,
    "mod": 1545,
    "▁Disc": 8565,
    "▁Ple": 19777,
    "▁norte": 15567,
    "▁Constant": 28601,
    "▁Ryan": 20916,
    "▁matched": 19228,
    "password": 5630,
    "▁werden": 3678,
    "▁existence": 10379,
    "ím": 5487,
    "▁money": 6909,
    "pack": 4058,
    "▁Ri": 21710,
    "delay": 18829,
    "script": 2154,
    "▁recognize": 18720,
    "-}": 27154,
    "___": 22359,
    "▁sm": 1560,
    "articles": 18569,
    "velope": 21367,
    "▁хи": 18384,
    "ступа": 12308,
    "kind": 14380,
    "uc": 1682,
    "▁smooth": 10597,
    "ony": 2592,
    "▁cre": 907,
    "burn": 18712,
    "▁dual": 14581,
    "▁geom": 23216,
    "eld": 2495,
    "▁Lage": 24531,
    "▁skład": 26209,
    "ambda": 2269,
    "[{": 19660,
    "wen": 15556,
    "plugins": 12800,
    "ℚ": 31528,
    "▁Production": 19561,
    "Header": 7850,
    "▁hath": 23870,
    "²": 30088,
    "▁poor": 6460,
    "lay": 8387,
    "bum": 2404,
    "▁Lu": 3182,
    "ങ": 30957,
    "▁Pedro": 13286,
    "component": 9700,
    "▁пові": 19664,
    "zyst": 25759,
    "lopedia": 9547,
    "▁actually": 2869,
    "▁Его": 26950,
    "▁Bra": 5032,
    "▁\"{": 29850,
    "àn": 24267,
    "utzt": 26216,
    "даго": 27726,
    "bone": 15933,
    "¬": 30320,
    "▁Dis": 3295,
    "юр": 24872,
    "★": 30950,
    "▁sons": 18025,
    "▁logic": 5900,
    "▁Navigation": 23001,
    "<<ST_228>>": 32228,
    "▁живо": 17224,
    "▁Berl": 28237,
    "©": 30211,
    "▁disable": 11262,
    "▁Rosa": 21974,
    "▁Wieder": 25878,
    "▁pubblicato": 25491,
    "▁Tomatoes": 25994,
    "▁Controller": 15830,
    "cius": 16102,
    "seg": 10199,
    "<0x27>": 42,
    "▁voltage": 11749,
    "▁stern": 27784,
    "▁plays": 13582,
    "▁Wer": 8398,
    "ähr": 5234,
    "▁AV": 16884,
    "▁боль": 9935,
    "▁plt": 14770,
    "▁polít": 9707,
    "▁Éd": 14758,
    "nbsp": 14239,
    "▁intervals": 18747,
    "lax": 21222,
    "scriptsize": 20980,
    "zony": 19502,
    "▁Comm": 1876,
    "▁guide": 10754,
    "▁param": 1828,
    "ación": 2709,
    "▁Pia": 27663,
    "▁satisfying": 24064,
    "IMAGE": 2382,
    "▁Gro": 6070,
    "ány": 6399,
    "скими": 21593,
    ",...,": 27062,
    "▁thousands": 17202,
    "▁m": 286,
    "▁zweite": 27454,
    "znik": 25770,
    "▁Unternehmen": 24014,
    "пра": 8821,
    "arring": 23693,
    "▁Svens": 25742,
    "▁poem": 26576,
    "formance": 13390,
    "▁Gegen": 19275,
    "sob": 15975,
    "atives": 5056,
    "▁parsed": 21213,
    "пере": 18207,
    "連": 31692,
    "Stream": 3835,
    "яв": 15432,
    "Down": 6767,
    "anchor": 25367,
    "▁aix": 23609,
    "yrus": 29646,
    "▁Sent": 28048,
    "▁scale": 6287,
    "▁Activity": 13414,
    "that": 5747,
    "widet": 10588,
    "da": 1388,
    "цен": 14236,
    "▁Ort": 8531,
    "▁Possible": 20049,
    "▁botan": 24662,
    "▁precisely": 17503,
    "controller": 8299,
    "▁Julia": 22045,
    "▁low": 4482,
    "▁control": 2761,
    "yth": 1541,
    "▁went": 3512,
    "гер": 21579,
    "▁myth": 22082,
    "istic": 4695,
    "▁colors": 11955,
    "▁blev": 8557,
    "▁дерев": 20229,
    "▁recip": 23957,
    "ensa": 14535,
    "▁Nam": 13041,
    "▁interpre": 5133,
    "▁extracted": 23892,
    "▁programs": 11104,
    "ew": 809,
    "▁supp": 1462,
    "▁letzten": 21202,
    "anguages": 8737,
    "▁abandon": 11807,
    "▁portal": 25792,
    "net": 1212,
    "▁Pan": 6518,
    "ン": 30203,
    "Import": 17518,
    "▁право": 13728,
    "xspace": 13007,
    "ष": 31330,
    "▁Meyer": 26581,
    "orp": 26423,
    "paste": 16179,
    "‎": 30131,
    "▁address": 3211,
    "FR": 15860,
    "▁John": 2259,
    "▁enters": 24395,
    "vir": 2405,
    "tatywna": 20486,
    "▁luglio": 17154,
    "ution": 918,
    "▁coll": 5321,
    "▁Spec": 12048,
    "esto": 4778,
    "ią": 19855,
    "<<ST_711>>": 32711,
    "▁cle": 4531,
    "▁contrary": 21138,
    "▁Beck": 19573,
    "▁AC": 14614,
    "gypt": 28779,
    "▁Lund": 27945,
    "月": 30534,
    "▁dropdown": 14687,
    "laz": 21051,
    "щё": 18141,
    "Cy": 29733,
    "Setting": 29020,
    "<<ST_313>>": 32313,
    "▁Pav": 20096,
    "ház": 24910,
    "iled": 2356,
    "ranch": 4014,
    "▁vertical": 11408,
    "Cr": 20647,
    "▁Prize": 20604,
    "▁што": 26462,
    "wrap": 6312,
    "город": 19051,
    ".</": 21106,
    "isms": 12903,
    "secure": 24216,
    "Big": 6970,
    "<0x1D>": 32,
    "fragment": 20777,
    "contains": 11516,
    "ད": 31344,
    "Pattern": 17144,
    "boost": 17079,
    "ifact": 7060,
    ">)": 12948,
    "▁nob": 22182,
    "<<ST_432>>": 32432,
    "Drop": 15063,
    "▁JOIN": 8780,
    "fri": 7932,
    "bag": 23156,
    "▁brand": 14982,
    "▁Bedeutung": 22665,
    "▁призна": 17598,
    "₈": 30278,
    "▁dictionary": 8600,
    "▁commission": 12969,
    "<<ST_207>>": 32207,
    "ῆ": 30891,
    "ま": 30441,
    "cipe": 24044,
    "▁LINQ": 28381,
    "Hen": 24030,
    "atia": 28752,
    "▁horizon": 28205,
    "Trans": 4300,
    "arga": 21899,
    "ющих": 17200,
    "▁Cooper": 21851,
    "нев": 27984,
    "▁approximation": 16845,
    "▁ranked": 26642,
    "Type": 1542,
    "Limit": 24445,
    "Pan": 23684,
    "▁present": 2198,
    "分": 30748,
    "cludes": 27722,
    "eras": 18464,
    "зо": 4734,
    "starts": 27382,
    "bar": 1646,
    "▁gł": 15505,
    "▁courts": 28033,
    "é": 29948,
    "cular": 16637,
    "▁photograph": 17739,
    "Self": 24313,
    "ством": 14754,
    "▁editing": 16278,
    "\"><": 3254,
    "▁ні": 15940,
    "▁configured": 13252,
    "▁deviation": 29522,
    "ir": 381,
    "▁Ле": 8114,
    "<<ST_167>>": 32167,
    "imet": 17528,
    "Hold": 29144,
    "▁Rod": 7733,
    "▁challeng": 18066,
    "▁brig": 16724,
    "▁directions": 18112,
    "▁Par": 1459,
    "▁Comité": 29298,
    "\\\",": 23370,
    "▁major": 4655,
    "agh": 21705,
    "▁století": 27038,
    "vie": 25965,
    "▁época": 18599,
    "克": 31510,
    "ʌ": 31278,
    "▁Ps": 10144,
    "<<ST_216>>": 32216,
    "ської": 7022,
    "▁NSString": 15925,
    "▁administration": 17517,
    "▁approach": 2948,
    "▁../": 29772,
    "▁présence": 29845,
    "▁celui": 13704,
    "▁magic": 15709,
    "Layer": 14420,
    "Take": 26772,
    "▁Aer": 18682,
    "▁Serie": 15014,
    "▁Township": 19439,
    "▁česk": 21270,
    "swap": 26276,
    ")/": 6802,
    "▁dispatch": 13916,
    "izz": 4981,
    "▁theme": 10929,
    "allel": 6553,
    "orient": 12236,
    "чи": 1499,
    "há": 19990,
    "циали": 21632,
    "▁Komm": 19757,
    "▁Mot": 7142,
    "▁roots": 16778,
    "apolis": 25332,
    "▁};": 3980,
    "პ": 31919,
    "▁Ric": 13675,
    "景": 31495,
    "六": 31304,
    "▁Ho": 8335,
    "orious": 23308,
    "▁Kauf": 29462,
    "не": 821,
    "babel": 28727,
    "▁letter": 5497,
    "Ó": 30178,
    "▁mise": 16987,
    "ственного": 20632,
    "<<ST_246>>": 32246,
    "▁employed": 15723,
    "▁Page": 9305,
    "▁ds": 18031,
    "<<ST_333>>": 32333,
    "▁fünf": 17054,
    "▁Westen": 26582,
    "▁casi": 22682,
    "brid": 19515,
    "Since": 23036,
    "altra": 24079,
    "▁Music": 6125,
    "varepsilon": 6018,
    "▁http": 1732,
    "}}{": 7585,
    "▁December": 5846,
    "etailed": 11881,
    "\\<^": 10553,
    "▁hierarchy": 21277,
    "];": 1385,
    "▁Williams": 11648,
    "▁Peace": 24819,
    "<<ST_0>>": 32000,
    "<<ST_74>>": 32074,
    "▁Gent": 20655,
    "▁Password": 25280,
    "▁kein": 23943,
    "ului": 7394,
    "ases": 2129,
    "obox": 23518,
    "▁Affairs": 26049,
    "ourn": 2905,
    "мости": 28023,
    "▁parent": 3847,
    "opts": 25707,
    "▁requ": 5054,
    "stage": 19190,
    "▁Share": 26849,
    "<>();": 27258,
    "▁mail": 10524,
    "ont": 609,
    "▁ie": 19282,
    "record": 11651,
    "▁alternatives": 27809,
    "▁NAT": 26038,
    "collection": 10855,
    "▁Cour": 6325,
    "==\"": 26359,
    "life": 19264,
    "iera": 8311,
    "ktop": 6883,
    "▁fog": 16847,
    "▁cura": 24725,
    "ública": 11632,
    "<<ST_180>>": 32180,
    "▁huit": 27052,
    "▁Though": 14832,
    "▁capacity": 13284,
    "▁any": 738,
    "▁computing": 20602,
    "▁Roy": 15793,
    "mode": 8513,
    "▁robot": 19964,
    "ithmetic": 18542,
    "▁Span": 7948,
    "eri": 13613,
    "▁huvud": 13078,
    "dob": 11152,
    "bo": 833,
    "セ": 30885,
    "▁repository": 9810,
    "fg": 16434,
    "▁under": 1090,
    "ana": 1648,
    "')`": 21434,
    "гра": 2194,
    "RL": 2241,
    "Ḩ": 31489,
    "brow": 23721,
    "▁guaranteed": 22688,
    "rible": 11710,
    "▁possibly": 10075,
    "CCE": 19043,
    "Þ": 30452,
    "▁Kr": 7365,
    "▁Cel": 14227,
    "▁scroll": 6355,
    "▁Gia": 22566,
    "gnu": 18713,
    "▁interesting": 8031,
    "▁apost": 18115,
    "▁Arena": 26053,
    "▁source": 2752,
    "▁throne": 27446,
    "▁Appar": 27466,
    "▁HO": 29832,
    "▁проис": 23061,
    "▁sometimes": 6041,
    "atherine": 16490,
    "▁ocup": 14049,
    "lease": 1511,
    "ype": 668,
    "REF": 25866,
    "това": 22391,
    "▁various": 5164,
    "dade": 25372,
    "▁части": 9809,
    "▁joining": 22960,
    "▁суще": 19391,
    "▁Com": 422,
    "▁intuit": 27951,
    "▁Eric": 14713,
    "▁száz": 26522,
    "Cre": 9832,
    "▁subsequent": 15352,
    "▁Kor": 12555,
    "<<ST_612>>": 32612,
    "▁punto": 15978,
    "{}": 8875,
    "▁Kit": 26240,
    "<<ST_448>>": 32448,
    "▁apparently": 13229,
    "ње": 6138,
    "ǒ": 30971,
    "▁hrab": 28617,
    "▁ihnen": 25181,
    "лист": 19394,
    "想": 31522,
    "▁annual": 17568,
    "oment": 2932,
    "▁ladies": 22281,
    "ätten": 29322,
    "radius": 13471,
    "▁del": 628,
    "▁Mod": 3382,
    "▁debate": 27836,
    "▁Sver": 18144,
    "民": 30855,
    "▁phen": 17292,
    "飛": 31877,
    "▁sought": 18365,
    "▁individually": 29689,
    "▁ec": 21226,
    "▁Ang": 3218,
    "Super": 19111,
    "offset": 10289,
    "▁Czech": 21489,
    "▁commut": 26418,
    "cret": 4838,
    "iv": 440,
    "\"+": 17969,
    "▁Buffered": 22217,
    "▁finale": 10996,
    "▁ост": 14425,
    "cpy": 23141,
    "}\\\\": 9952,
    "▁vš": 20145,
    "лосо": 25885,
    "▁museum": 19133,
    "August": 26197,
    "agers": 18150,
    "▁Eliz": 12457,
    "öd": 9289,
    "Processor": 18689,
    "▁theorem": 9185,
    "();`": 22891,
    "desc": 14273,
    "▁Statistics": 27098,
    "福": 31121,
    "▁upd": 3329,
    "<<ST_578>>": 32578,
    "调": 31268,
    "▁all": 599,
    "pton": 12533,
    "ilar": 2327,
    "▁come": 2041,
    "▁narr": 15474,
    "Http": 5506,
    "▁solid": 7773,
    "prototype": 16309,
    "▁Kno": 24133,
    "▁immagini": 12000,
    "щая": 19485,
    "▁CBS": 29589,
    "▁either": 2845,
    "den": 1145,
    "▁Head": 12252,
    "▁undefined": 7580,
    "市": 30461,
    "▁совер": 28485,
    "skich": 11040,
    "▁prepared": 13240,
    "▁utf": 23616,
    "лення": 6930,
    "пода": 26509,
    "iendo": 17008,
    "bles": 7586,
    "зии": 23169,
    "CCESS": 26925,
    "geh": 22733,
    "gradient": 24970,
    "édia": 13292,
    "▁ю": 8053,
    "▁miembros": 29406,
    ".’": 16412,
    "▁donne": 18332,
    "▁Ich": 15158,
    "▁Оте": 24229,
    "•": 30119,
    "▁siehe": 27005,
    "Tab": 8863,
    "▁patterns": 15038,
    "<unk>": 0,
    "▁tool": 5780,
    "▁willing": 17762,
    "▁flash": 11013,
    "<0x32>": 53,
    "▁dark": 6501,
    "guard": 17728,
    "▁poetry": 22309,
    "&=": 20644,
    "▁overrid": 20831,
    "<0x28>": 43,
    "▁Ireland": 12126,
    "▁кан": 20247,
    "ucha": 26609,
    "rg": 11007,
    "▁capabilities": 27108,
    "ozzáférés": 9147,
    "Image": 2940,
    "▁she": 1183,
    "те": 730,
    "ename": 3871,
    "Љ": 30488,
    "\\": 29905,
    "ских": 4483,
    "▁interface": 5067,
    "▁cabe": 27444,
    "span": 9653,
    "▁Lip": 28428,
    "▁lik": 4188,
    "▁brick": 28645,
    "▁adjust": 10365,
    "Renderer": 21323,
    "riv": 1150,
    "▁elementary": 22470,
    "пису": 22457,
    "áll": 15420,
    "▁necessity": 24316,
    "▁Based": 16564,
    "▁Arnold": 20720,
    "▁Städ": 28302,
    "ую": 29744,
    "success": 8698,
    "▁berg": 29034,
    "▁decre": 9263,
    "▁recovered": 24776,
    "▁ste": 1886,
    "ética": 24142,
    "▁shoot": 15049,
    "\">\r": 10175,
    "▁Pel": 15549,
    "▁mex": 21800,
    "ordre": 19809,
    "▁Beg": 17964,
    "Flow": 17907,
    "▁déf": 11482,
    "▁został": 7227,
    "▁noreferrer": 4075,
    "ST": 1254,
    "ã": 30033,
    "enst": 25059,
    "RelativeLayout": 26374,
    "entation": 9233,
    "//": 458,
    "burgo": 28980,
    "▁ка": 1787,
    "▁ease": 16326,
    "Who": 22110,
    "▁hers": 7955,
    "▁Ja": 14021,
    "rea": 5638,
    "▁beginner": 26605,
    "▁diff": 2923,
    "had": 21312,
    "itte": 5388,
    "ellig": 9347,
    "▁Minn": 17988,
    "▁Casa": 19326,
    "▁actual": 3935,
    "▁height": 3171,
    "▁performance": 4180,
    "коли": 29798,
    "▁PK": 24457,
    "▁governo": 20416,
    "▁ком": 5294,
    "<<ST_214>>": 32214,
    "▁dział": 18728,
    "▁пес": 15536,
    "▁Gard": 15971,
    "ów": 2165,
    "▁texts": 26442,
    "nah": 8723,
    "Origin": 23182,
    "▁Integr": 17100,
    "▁Praha": 25689,
    "▁powst": 24054,
    "deutsch": 14659,
    "borg": 14203,
    "Send": 12600,
    "odor": 17606,
    "▁estre": 24567,
    "▁over": 975,
    "ња": 10473,
    "NSString": 14301,
    "▁run": 1065,
    "mart": 28402,
    "後": 31220,
    "is": 275,
    "▁pł": 23506,
    "▁moderne": 24635,
    "dynamic": 16626,
    "▁Ol": 7137,
    "children": 11991,
    "grad": 5105,
    "▁населения": 18670,
    "Now": 10454,
    "▁politico": 24117,
    "▁samen": 22596,
    "▁Mold": 27140,
    "▁сред": 12831,
    "改": 31264,
    "▁\"`": 29724,
    "trigger": 21001,
    "ongodb": 13591,
    "Ë": 30949,
    "▁host": 3495,
    "▁Mutter": 22411,
    "iglia": 12964,
    "▁Monument": 23542,
    "▁Oriental": 29702,
    "▁Array": 4398,
    "*\"": 20605,
    "intrag": 27075,
    "▁Contact": 22387,
    "KEY": 10818,
    "▁television": 11456,
    "Eq": 18630,
    "dotnet": 21328,
    "▁Ke": 4813,
    "-->": 15110,
    "Cache": 10408,
    "▁nations": 19079,
    "▁parad": 26811,
    "З": 30060,
    "▁также": 6517,
    "▁permit": 14257,
    "ral": 1705,
    "▁Nord": 5245,
    "tod": 20034,
    "▁україн": 17597,
    "perimental": 27910,
    "▁fran": 2524,
    "нан": 11659,
    ",$": 8209,
    "sel": 2838,
    "Children": 19334,
    "WriteLine": 11241,
    "▁administ": 28777,
    "iese": 21928,
    "▁flags": 13449,
    "千": 31159,
    "Nothing": 26521,
    "▁nav": 6283,
    "▁Emb": 28735,
    "▁(=": 11070,
    "Count": 3981,
    "Canvas": 21960,
    "hill": 29131,
    "다": 30709,
    "▁magnitude": 18497,
    "▁Fland": 29666,
    "▁gathered": 22229,
    "▁$[": 11970,
    "signed": 7433,
    "▁Bert": 16662,
    "▁compos": 5541,
    "▁attitude": 26309,
    "▁stand": 2317,
    "▁обо": 12233,
    "▁erre": 13930,
    "RELEASE": 14829,
    "▁manipulate": 26749,
    "Ś": 30127,
    "orem": 3668,
    "ve": 345,
    "adal": 27283,
    "main": 3396,
    "▁terminate": 29504,
    "ienn": 17810,
    "sw": 2774,
    "enix": 23534,
    "čen": 19534,
    "▁Pay": 14617,
    "▁nunca": 28456,
    "▁questi": 22982,
    "ätter": 29118,
    "▁data": 848,
    "▁murm": 25234,
    "SY": 14816,
    "⟩": 30261,
    "▁proportion": 18618,
    "▁Además": 25279,
    "abc": 10736,
    "▁exactly": 3721,
    "▁multip": 6674,
    "̯": 30696,
    "▁projekt": 27213,
    "▁Browser": 27088,
    "rias": 15851,
    "▁Unit": 13223,
    "▁Serv": 9635,
    "▁prv": 17477,
    "▁directory": 3884,
    "▁indep": 5111,
    "头": 31584,
    "uerte": 18174,
    "selection": 21731,
    "▁hello": 22172,
    "irtual": 11811,
    "år": 3679,
    "Capt": 21133,
    "▁enough": 3307,
    "ki": 1984,
    "owe": 4657,
    "rap": 2390,
    "mé": 12031,
    "ские": 6792,
    "▁somewhere": 9051,
    "↳": 31094,
    "▁Epis": 20981,
    "▁Larry": 26977,
    "▁Kansas": 20029,
    "rx": 17697,
    "▁proport": 12098,
    "ography": 5275,
    "storage": 12925,
    "nown": 21369,
    "Find": 12542,
    "▁Wonder": 28004,
    "гда": 9077,
    "рук": 11218,
    "▁modification": 21733,
    "▁Lyn": 18989,
    "▁sugg": 2424,
    "▁Spain": 13616,
    "▁Thanks": 1834,
    "proc": 15439,
    "▁vois": 29758,
    "▁Rico": 26421,
    "▁resulted": 20601,
    "▁Madonna": 26432,
    "▁propri": 10850,
    "Connection": 5350,
    "mvc": 12943,
    "Italie": 28314,
    "▁Assume": 22680,
    "чина": 14005,
    "<<ST_664>>": 32664,
    "<<ST_624>>": 32624,
    "diff": 12765,
    "▁nous": 8556,
    "▁fel": 7995,
    "▁райо": 9328,
    "▁wł": 24009,
    "স": 31148,
    "kit": 7354,
    "Louis": 25216,
    "шла": 18774,
    "▁Cuando": 27351,
    "▁sql": 4576,
    "зма": 22262,
    "(...": 19327,
    "ividual": 23352,
    "▁Am": 1913,
    "ppel": 17344,
    "因": 31570,
    "хо": 1814,
    "acher": 11665,
    "nis": 6994,
    "▁$\\": 779,
    "": 31512,
    "ị": 30740,
    "Work": 5531,
    "mouth": 21026,
    "OT": 2891,
    "▁Picture": 28908,
    "▁Ludwig": 14298,
    "plan": 9018,
    "▁člán": 18557,
    "▁----": 23250,
    "External": 25865,
    "▁Convention": 26774,
    "▁fá": 29712,
    "▁selector": 11764,
    "rien": 19112,
    "▁brought": 6296,
    "▁Bibliothèque": 7001,
    "ֹ": 30947,
    "▁Anti": 18473,
    "▁endl": 18659,
    "jąc": 23341,
    "xis": 11497,
    "▁*/\r": 29722,
    "▁ric": 9597,
    "▁Finland": 18312,
    "ia": 423,
    "▁tedes": 21157,
    "<0xD1>": 212,
    "▁loud": 22526,
    "proto": 17529,
    "mess": 12062,
    "▁Bon": 8396,
    "▁ство": 21417,
    "yy": 8071,
    "CF": 9207,
    "视": 31568,
    "rm": 1758,
    "ospital": 8189,
    "▁nú": 10442,
    "▁Blue": 10924,
    "анг": 4747,
    "法": 30545,
    "▁contributions": 20706,
    "▁cosm": 27973,
    "▁bounds": 13451,
    "präsident": 29372,
    "▁Either": 20370,
    "▁About": 13611,
    "ɑ": 30426,
    "▁général": 10684,
    "▁футбо": 12656,
    "▁Keep": 19152,
    "FP": 26353,
    "fl": 1579,
    "▁Italian": 10545,
    "▁race": 8175,
    "omon": 18192,
    "uni": 3909,
    "asa": 11290,
    "enders": 21043,
    "▁Ill": 8408,
    "▁Fue": 14692,
    "lando": 28514,
    "▁bor": 9820,
    "▁space": 2913,
    "<<ST_569>>": 32569,
    "CLA": 13875,
    "▁показа": 25511,
    "Ma": 21870,
    "▁measurement": 20039,
    "itants": 15776,
    "▁Chief": 14546,
    "зем": 20117,
    "▁Gemeinde": 8662,
    "°": 30073,
    "VAR": 26865,
    "Report": 13020,
    "▁During": 7133,
    "▁disapp": 8796,
    "bud": 15841,
    "▁served": 6766,
    "imately": 15084,
    "▁Sem": 9444,
    "èque": 5949,
    "▁elimin": 10397,
    "▁poz": 14079,
    "▁this": 445,
    "äter": 8036,
    "longrightarrow": 24225,
    "▁dirett": 27410,
    "▁happens": 5930,
    "plement": 2037,
    "▁ок": 6752,
    "▁andere": 9900,
    "èt": 23855,
    "▁Camp": 7259,
    "▁novel": 9554,
    "oma": 4125,
    "tv": 12427,
    "▁Brandenburg": 29330,
    "Strings": 26545,
    "ove": 994,
    "IMA": 2260,
    "Sim": 8942,
    "⊤": 31771,
    "▁antes": 12971,
    "_\\": 3187,
    "▁dok": 18004,
    "EF": 29638,
    "▁deal": 5376,
    "▁lu": 8092,
    "▁campion": 18160,
    "▁we": 591,
    "▁amaz": 21863,
    "iech": 22149,
    "▁spectral": 23161,
    "Auto": 12300,
    "bben": 15137,
    "▁leaves": 11308,
    "取": 30683,
    "▁conse": 5178,
    "▁individ": 4348,
    "な": 30371,
    "pect": 1103,
    "▁treatment": 14502,
    "aggi": 15424,
    "▁és": 2465,
    "▁Nederlandse": 25004,
    "cially": 5584,
    "▁dispos": 11549,
    "Ţ": 31783,
    "▁titolo": 22147,
    "▁exclusive": 29192,
    "scripts": 16713,
    "▁ind": 1399,
    "▁joins": 26205,
    "▁cinema": 24615,
    "▁bell": 22623,
    "▁élect": 19507,
    "liche": 4545,
    "Inf": 25433,
    "ähl": 15275,
    "▁symbol": 5829,
    "▁Gros": 28006,
    "▁назва": 10830,
    "lobal": 3157,
    "▁Mich": 3375,
    "▁Church": 6291,
    "▁deleting": 21228,
    "▁multimedia": 19004,
    "keyword": 26766,
    "<<ST_25>>": 32025,
    "<<ST_440>>": 32440,
    "▁niet": 7499,
    "Feature": 19132,
    "▁track": 5702,
    "ies": 583,
    "▁Green": 7646,
    "iop": 21260,
    "-----": 23648,
    "мі": 3272,
    "▁ful": 6095,
    "publique": 18739,
    "management": 21895,
    "aligned": 13671,
    "▁Get": 3617,
    "▁Platz": 11141,
    "nak": 8546,
    "▁що": 5797,
    "ゼ": 31718,
    "lyph": 27026,
    "utenant": 12685,
    "icano": 13231,
    "Ext": 5647,
    "iros": 17177,
    "▁referring": 16811,
    "▁proced": 6449,
    "▁grav": 8310,
    "▁Medicine": 27529,
    "NP": 25500,
    "prowad": 23447,
    "utto": 17317,
    "▁Ind": 1894,
    "ʾ": 30679,
    "substr": 27790,
    "cc": 617,
    "د": 30172,
    "▁try": 1018,
    "▁км": 7725,
    "ingham": 16094,
    "▁Betty": 29782,
    "dra": 19811,
    "▁placed": 7180,
    "<<ST_661>>": 32661,
    "clock": 13058,
    "▁login": 6464,
    "▁basket": 25972,
    "▁ther": 29220,
    "notify": 25140,
    "▁Мар": 9104,
    "<0x82>": 133,
    "EXT": 12194,
    "orch": 25350,
    "▁beho": 26184,
    "▁Global": 12002,
    "미": 31362,
    "▁declaration": 12029,
    "рал": 12454,
    ">`": 13885,
    "▁Mid": 13370,
    "▁Natal": 26259,
    "ific": 928,
    "▁Jeff": 12208,
    "Κ": 30314,
    "omm": 3011,
    "geb": 4310,
    "illery": 19486,
    "<0x49>": 76,
    "▁Richtung": 29152,
    "▁ceremony": 25672,
    "рем": 27659,
    "▁Ortste": 25626,
    "▁pesar": 28977,
    "akult": 26189,
    "▁која": 28528,
    "▁ці": 20004,
    "cciones": 14980,
    "위": 31724,
    "▁Ellen": 29043,
    "<0xB0>": 179,
    "▁Ober": 8067,
    "相": 30990,
    "ND": 2797,
    "лат": 23152,
    "▁aspect": 9565,
    "▁Efter": 28300,
    "вши": 6687,
    "andon": 9214,
    "商": 31427,
    "time": 2230,
    "ография": 11523,
    "Step": 14448,
    "▁tools": 8492,
    "<<ST_568>>": 32568,
    "▁Save": 16913,
    "testing": 13424,
    "開": 31404,
    "tait": 4904,
    "▁gas": 10489,
    "강": 31774,
    "▁ibn": 29736,
    "tbl": 16400,
    "▁notification": 12519,
    "▁cas": 3209,
    "berta": 19954,
    "▁sick": 17319,
    "Face": 23360,
    "▁Gu": 2088,
    "itos": 12870,
    "▁Від": 23932,
    "▁catch": 4380,
    "прави": 19524,
    "▁mens": 18664,
    "▁contains": 3743,
    "▁mainten": 16134,
    "fficial": 7880,
    "▁Resource": 18981,
    "▁datab": 16236,
    "▁exclaimed": 17463,
    "▁apenas": 22321,
    "unes": 7844,
    "▁runtime": 10073,
    "▁mort": 5758,
    "▁tel": 13547,
    "acter": 5761,
    "^+": 14747,
    "uky": 21108,
    "left": 1563,
    "▁hijo": 23737,
    "▁curious": 12758,
    "зна": 4372,
    "▁polym": 24324,
    "shire": 11750,
    "▁Janu": 3612,
    "rab": 4201,
    "(?": 10780,
    "▁fresh": 10849,
    "▁integrated": 23387,
    "▁règ": 27264,
    "▁geen": 18841,
    "រ": 31567,
    "groups": 13155,
    "▁Tommy": 27036,
    "▁María": 13302,
    "▁phases": 29540,
    "▁continent": 25523,
    "▁Select": 7605,
    "orm": 555,
    "ώ": 30407,
    "Pl": 3247,
    "ровано": 27260,
    "▁straightforward": 20837,
    "▁assez": 25235,
    "▁Kh": 12217,
    "wiąz": 19652,
    "Ste": 7789,
    "▁mouv": 20758,
    "ionale": 7565,
    "<<ST_633>>": 32633,
    "iak": 24061,
    "imgur": 3320,
    "щи": 2837,
    "▁bus": 3593,
    "▁dollars": 17208,
    "▁birth": 12060,
    "чних": 15208,
    "ylvan": 13431,
    "▁proud": 22314,
    "pis": 3334,
    "oreferrer": 3798,
    "▁Warren": 24511,
    "Detail": 16570,
    "▁vm": 22419,
    "▁weitere": 16830,
    "▁uint": 13122,
    "▁seus": 11018,
    "▁Heinrich": 12612,
    "▁successfully": 8472,
    "▁Source": 7562,
    "玉": 31395,
    "////////": 10797,
    "metro": 27995,
    "фа": 8685,
    "urre": 20503,
    "▁strength": 9324,
    "▁Town": 8421,
    "amente": 2503,
    "样": 31819,
    "▁proxim": 23203,
    "penas": 21275,
    "▁ха": 13422,
    "▁svol": 26396,
    "▁irregular": 27931,
    "▁nov": 2420,
    "anges": 6916,
    "▁ggplot": 25662,
    "▁trig": 16222,
    "vue": 19682,
    "human": 26029,
    "Bag": 23544,
    "!)": 14366,
    "寺": 30951,
    "▁Employee": 24654,
    "▁Tra": 3201,
    "URE": 11499,
    "fre": 10745,
    "Stand": 11042,
    "▁algebraic": 21531,
    "确": 31835,
    "adin": 28214,
    "blah": 29844,
    "▁dob": 20129,
    "=-": 10457,
    "/": 29914,
    "▁Пре": 7127,
    "transaction": 20736,
    "▁жизни": 23101,
    "▁signal": 7182,
    "▁свої": 25625,
    "▁instit": 25444,
    "}": 29913,
    "▁optional": 13136,
    "▁finding": 9138,
    "▁realiz": 8869,
    "▁inherited": 23878,
    "ERR": 21662,
    "▁principales": 21349,
    "iny": 4901,
    "дар": 5567,
    "aton": 14114,
    "▁школа": 28231,
    "century": 27371,
    "▁LOG": 25401,
    "▁#(": 27355,
    "▁theatre": 24520,
    "<<ST_667>>": 32667,
    "⇔": 31628,
    "▁co": 1302,
    "вропей": 29029,
    "▁raised": 10425,
    "fony": 15193,
    "▁necessarily": 12695,
    "▁consists": 11624,
    "ruck": 10857,
    "тие": 18380,
    "тар": 11741,
    "▁GL": 12729,
    "▁Abr": 27782,
    "▁robust": 16424,
    "▁Ressource": 27365,
    "▁wereld": 28022,
    "“": 30015,
    "▁Fen": 20685,
    "▁variation": 19262,
    "Scan": 29083,
    "▁Sol": 4956,
    "▁rappres": 20823,
    "Parameter": 9329,
    "长": 31143,
    "ty": 1017,
    "SW": 23066,
    "repo": 20095,
    "Bro": 29857,
    "ografia": 5028,
    "BU": 7838,
    "Tom": 21599,
    "▁Bes": 6952,
    "oston": 11253,
    "gradle": 13196,
    "没": 31423,
    "形": 31305,
    "ơ": 30556,
    "Process": 7032,
    "Byte": 12901,
    "▁attempts": 14734,
    "っ": 30665,
    "▁miles": 7800,
    "ɡ": 30511,
    "▁світ": 29597,
    "▁Ther": 25451,
    "▁gemäß": 17922,
    "▁кня": 17747,
    "étés": 28141,
    "▁Kirche": 11939,
    "▁takes": 4893,
    "jours": 14186,
    "▁▁▁": 1678,
    "▁modal": 13008,
    "essed": 11517,
    "▁Sex": 21703,
    "▁module": 3883,
    "▁alle": 4788,
    "▁Го": 7391,
    "äch": 6705,
    "▁belonged": 28911,
    "cem": 19335,
    "rices": 11669,
    "▁BEGIN": 22815,
    "viv": 24759,
    "bird": 18513,
    "▁basis": 8405,
    "▁Hr": 26399,
    "до": 1802,
    "▁practical": 15031,
    "oren": 8085,
    "ком": 4751,
    "▁économ": 23837,
    "▁Ju": 5342,
    "▁°": 6719,
    "▁виде": 21986,
    "▁pred": 4450,
    "▁Sign": 9954,
    "▁MongoDB": 29004,
    "{-": 8499,
    "media": 9799,
    "▁boundary": 10452,
    "▁dol": 8828,
    "▁Israel": 11996,
    "▁brow": 3347,
    "▁región": 21951,
    "▁tact": 28476,
    "▁Parad": 24829,
    "logging": 21027,
    "▁Schriftsteller": 24118,
    "▁další": 29067,
    "iembre": 5433,
    "▁ano": 19410,
    "account": 10149,
    "łuż": 22952,
    "▁Xml": 24409,
    "agrant": 29592,
    "ações": 25463,
    "<0xC7>": 202,
    "рус": 16007,
    "▁Stuttgart": 15402,
    "▁teaching": 18819,
    "▁desire": 13521,
    "▁creates": 10017,
    "▁intercept": 23404,
    "▁nice": 7575,
    "бер": 7279,
    "▁physics": 17558,
    "▁admin": 4113,
    "▁began": 4689,
    "incie": 25597,
    "▁Properties": 21582,
    "ictionary": 4334,
    "amerikan": 11596,
    "ち": 30644,
    "▁Schwe": 10445,
    "rian": 6392,
    "cs": 2395,
    "olare": 13517,
    "ador": 3136,
    "Џ": 30282,
    "H": 29950,
    "ara": 2518,
    "雅": 31847,
    "ו": 30205,
    "▁Email": 22608,
    "▁stands": 15028,
    "▁architect": 6956,
    "▁IIS": 19093,
    "▁воен": 13316,
    "++){": 16284,
    "▁interpolation": 29694,
    "▁|\\": 18283,
    "▁pay": 5146,
    "▁Auf": 4322,
    "₹": 30620,
    "ട": 30797,
    "itled": 17707,
    "FOR": 22051,
    "▁gentleman": 16615,
    "▁fois": 10098,
    "▁вели": 11968,
    "luss": 13596,
    "▁Wei": 25277,
    "|\\": 4295,
    "▁Sou": 9194,
    "▁(.": 14544,
    "▁besta": 22560,
    "▁lean": 20793,
    "공": 31334,
    "▁capac": 11101,
    "▁Chair": 24193,
    "ters": 2153,
    "▁closing": 14382,
    "loat": 3071,
    "▁Wilhelm": 10756,
    "▁Kore": 11354,
    "将": 30998,
    "▁winner": 19576,
    "yw": 5693,
    "▁argued": 28705,
    "▁queries": 9365,
    "<0x55>": 88,
    "▁Sebast": 16298,
    "urk": 29641,
    "/.": 6294,
    "\");": 1496,
    "MENT": 13780,
    "▁hav": 20771,
    "▁lie": 3804,
    "▁Malays": 26417,
    "<<ST_195>>": 32195,
    "▁extr": 17541,
    "▁entity": 7855,
    "▁Android": 5669,
    "ровой": 26537,
    "chmark": 16580,
    "ί": 30873,
    "▁Bro": 4358,
    "▁adopt": 9332,
    "arta": 16979,
    "дови": 28708,
    "<0x56>": 89,
    "idents": 16719,
    "▁vess": 12950,
    "YS": 21554,
    "кер": 28946,
    "▁vulner": 23180,
    "ografi": 29153,
    "▁Cast": 4834,
    "áb": 16341,
    "ieux": 13805,
    "▁solved": 7484,
    "▁Externí": 17981,
    "charge": 23367,
    "g": 29887,
    "▁Hospital": 15967,
    "▁Back": 7437,
    "<<ST_100>>": 32100,
    "▁Ł": 14124,
    "▁aut": 1120,
    "Setup": 26947,
    "▁guarantee": 18818,
    "▁Stim": 26256,
    "Store": 9044,
    "fortunately": 7524,
    "Current": 7583,
    "edy": 7584,
    "AVA": 26612,
    "ภ": 31070,
    "hn": 3123,
    "continue": 19878,
    "lime": 28046,
    "▁eventually": 10201,
    "▁kol": 14276,
    "▁PDF": 11328,
    "录": 31283,
    "<<ST_754>>": 32754,
    "сно": 9627,
    "lac": 4620,
    "▁lst": 24471,
    "写": 31479,
    "▁designer": 23383,
    "▁because": 1363,
    "▁Georgia": 16762,
    "Mem": 11442,
    "<<ST_629>>": 32629,
    "tensorflow": 29056,
    "permission": 16074,
    "Put": 22908,
    "▁Pour": 6803,
    "▁lin": 6276,
    "▁beh": 2306,
    "mathsf": 9605,
    "eless": 6393,
    "▁>>>": 8653,
    "▁им": 8933,
    "所": 30744,
    "flag": 15581,
    "лян": 21479,
    "▁matches": 7087,
    "▁awarded": 15074,
    "▁resol": 3770,
    "essa": 9297,
    "▁Suisse": 27968,
    "▁urs": 19980,
    "^{-": 3426,
    "lings": 18964,
    "<<ST_332>>": 32332,
    "▁Vel": 12019,
    "▁Elle": 6340,
    "▁fixes": 24626,
    "$\\": 4535,
    "▁abgerufen": 5157,
    "mate": 25046,
    "▁Amt": 19092,
    "▁repeating": 28769,
    "▁Cr": 6781,
    "ɐ": 30628,
    "▁semb": 24304,
    "成": 30494,
    "▁Pascal": 29671,
    "yd": 2941,
    "▁dress": 10714,
    "▁startup": 20234,
    "▁constantly": 21003,
    "▁Vier": 23650,
    "▁bib": 29727,
    "ོ": 31104,
    "▁center": 4818,
    "▁husband": 10216,
    "multiple": 20787,
    "coded": 29659,
    "▁population": 4665,
    "isé": 11728,
    "⇒": 30381,
    "▁nog": 11313,
    "ultats": 19718,
    "ो": 30799,
    "▁GitHub": 25492,
    "情": 30993,
    "ufen": 3213,
    "▁fair": 6534,
    "▁index": 2380,
    "rop": 1336,
    "▁minister": 11050,
    "<<ST_456>>": 32456,
    "gs": 3174,
    "▁RewriteRule": 23582,
    "▁раз": 3212,
    "kehr": 10455,
    "zech": 12357,
    "▁sufficiently": 18430,
    "▁dup": 5141,
    "▁olimp": 22512,
    "azioni": 8312,
    "▁centrale": 20757,
    "▁біль": 19115,
    "▁conce": 10628,
    "ishi": 29603,
    "▁interess": 26636,
    "ąz": 14232,
    "plain": 24595,
    "付": 31689,
    "▁Final": 9550,
    "▁spons": 21955,
    "▁modific": 24670,
    "Release": 19729,
    "Resource": 6848,
    "lingen": 19101,
    "▁Бу": 9746,
    "ocrat": 16909,
    "▁micro": 9200,
    "▁Aleks": 20269,
    "▁Howard": 17430,
    "▁renamed": 19533,
    "produ": 5498,
    "calcul": 15807,
    "lare": 8663,
    "memory": 14834,
    "▁article": 4274,
    "▁template": 4472,
    "▁према": 29608,
    "▁selection": 9262,
    "<<ST_504>>": 32504,
    "arc": 5666,
    "Load": 5896,
    "▁God": 4177,
    "▁Александ": 11743,
    "恋": 31659,
    "State": 2792,
    "Every": 26526,
    "Constra": 14131,
    "osex": 29438,
    "ierno": 12643,
    "ke": 446,
    "dens": 21518,
    "dest": 7854,
    "lu": 6092,
    "house": 8697,
    "iß": 12044,
    "▁speaker": 25657,
    "▁q": 3855,
    "▁cré": 9484,
    "▁осіб": 13040,
    "().": 2141,
    "▁Hand": 5166,
    "azon": 10131,
    "▁refactor": 28559,
    "▁Ut": 14950,
    "single": 14369,
    "ív": 13906,
    "ely": 873,
    "▁éd": 10273,
    "▁MySQL": 9254,
    "гу": 3325,
    "▁Савез": 26194,
    "inae": 17174,
    "▁Arizona": 23716,
    "ern": 824,
    "▁Whether": 26460,
    "▁anten": 25504,
    "▁мира": 17758,
    "Me": 6816,
    "temps": 27761,
    "ью": 9860,
    "▁Awards": 9220,
    "yle": 1508,
    "朱": 31759,
    "▁ves": 28999,
    "Λ": 30455,
    "▁Ha": 5952,
    "famil": 8302,
    "▁formats": 21971,
    "▁finger": 19917,
    "olo": 3543,
    "FLA": 18823,
    "時": 30974,
    "▁internal": 7463,
    "▁Daily": 23331,
    "XML": 9165,
    "▁Giov": 11429,
    "▁dels": 7195,
    "▁cualquier": 28217,
    "▁ORDER": 15606,
    "ef": 1389,
    "▁Nathan": 27650,
    "▁серед": 17560,
    "▁folders": 16495,
    "▁где": 11270,
    "▁Airl": 28299,
    "mediate": 13847,
    "₇": 30284,
    "<<ST_616>>": 32616,
    "▁одного": 24356,
    "▁Распо": 21756,
    "▁km": 2383,
    "▁wol": 20040,
    "索": 31836,
    "▁Ring": 17716,
    "▁участи": 17190,
    "▁Iran": 14883,
    "▁engineer": 22055,
    "ื": 31422,
    "▁junior": 20183,
    "ettings": 7409,
    "▁Lam": 12718,
    "▁Rund": 24884,
    "Columns": 14289,
    "▁Als": 8320,
    "▁satisfaction": 26470,
    "ients": 10070,
    "сы": 5551,
    "▁abril": 8047,
    "▁network": 3564,
    "↵": 31188,
    "▁Warsza": 12999,
    "cement": 13561,
    "Tr": 2308,
    "▁crisis": 24161,
    "(__": 22168,
    "▁течение": 29459,
    "▁radial": 28373,
    "▁onderwerp": 23543,
    "▁ба": 4724,
    "▁guests": 28865,
    "maps": 10339,
    "▁estimation": 23248,
    "▁belief": 17750,
    "▁achiev": 27012,
    "▁product": 3234,
    "该": 31751,
    "▁alte": 22924,
    "triangle": 26701,
    "B": 29933,
    "▁Bis": 16818,
    "]+": 10062,
    "    ": 17891,
    "▁reprodu": 9483,
    "Double": 11843,
    "rack": 22282,
    "maven": 12419,
    "▁substring": 28228,
    "▁speed": 6210,
    "▁exclude": 19060,
    "▁conver": 5486,
    "√": 30562,
    "▁aurait": 26030,
    "<0xFC>": 255,
    "native": 11487,
    "▁Chen": 21589,
    "▁Sweden": 24506,
    "▁Hong": 12798,
    "illo": 9093,
    "ほ": 31938,
    "irie": 24135,
    "▁Ев": 25131,
    "▁franch": 23272,
    "▁addresses": 14157,
    "мет": 12274,
    "ourse": 10242,
    "би": 2384,
    "Ì": 30729,
    "through": 20678,
    "▁Vit": 22491,
    "NU": 11601,
    "▁Queen": 10470,
    "▁actu": 20331,
    "IOException": 20477,
    "▁btn": 9503,
    "▁Außerdem": 29180,
    "▁Lyon": 22105,
    "itori": 18382,
    "List": 1293,
    "roe": 26968,
    "▁peak": 19224,
    "▁Stefan": 21512,
    "▁trim": 17151,
    "▁gior": 17030,
    "▁studi": 22271,
    "▁comprend": 26939,
    "alion": 20235,
    "▁models": 4733,
    "pick": 23945,
    "▁automatically": 6336,
    "ued": 6742,
    "▁зан": 19724,
    "ftrag": 25221,
    "▁Bruno": 20975,
    "）": 30409,
    "contra": 23008,
    "creen": 5576,
    "iman": 25895,
    "roid": 1007,
    "û": 30095,
    "▁Og": 20807,
    "▁beide": 23847,
    "▁Carter": 22264,
    "▁пред": 4570,
    "▁asympt": 22784,
    "レ": 30420,
    "far": 15641,
    "▁Konst": 22323,
    "зей": 22022,
    "▁ww": 7673,
    "▁Augen": 27833,
    "▁SER": 26996,
    "<<ST_345>>": 32345,
    "ES": 2890,
    "quel": 13295,
    ")+": 7240,
    "<<ST_16>>": 32016,
    "atic": 2454,
    "rez": 15749,
    "▁politics": 22661,
    "pont": 29649,
    "Å": 30129,
    "▁пода": 12493,
    "▁Docker": 20868,
    "ance": 749,
    "▁CG": 8446,
    ")>": 15410,
    "▁jewe": 19516,
    "ат": 12174,
    "anstalt": 22439,
    "▁terre": 18249,
    "▁rule": 5751,
    "ν": 30133,
    "▁mon": 1601,
    "▁principle": 12502,
    "▁Pub": 8042,
    "▁American": 3082,
    "▁album": 3769,
    "▁triple": 21954,
    "▁Label": 15796,
    "lett": 13650,
    "anch": 14588,
    "▁chem": 8950,
    "<s>": 1,
    "we": 705,
    "nex": 13996,
    "ológ": 13567,
    "ому": 22870,
    "ynam": 2926,
    "{.": 26139,
    "',": 742,
    "вро": 8627,
    "<0x6D>": 112,
    "*/": 3877,
    "▁Brazil": 16078,
    "▁компа": 16944,
    "\").": 2564,
    "UNT": 10356,
    "▁ім": 19240,
    "fund": 27159,
    "▁estaba": 16620,
    "▁→": 10309,
    "слов": 26443,
    "amazon": 17260,
    "▁chap": 10708,
    "▁fort": 5162,
    "▁hair": 11315,
    "iane": 16677,
    "▁Федерации": 29343,
    "引": 31674,
    "▁typed": 13033,
    "▁redundant": 28005,
    "▁recre": 28709,
    "▁websites": 28007,
    "▁Publications": 22865,
    "login": 7507,
    "▁financi": 22347,
    "▁achter": 26096,
    "▁insgesamt": 26696,
    "▁ké": 28357,
    "▁Referências": 11162,
    "▁Nel": 5728,
    "ignon": 29582,
    "igua": 19970,
    "▁Papa": 27412,
    "anka": 18330,
    "▁Giul": 24740,
    "▲": 31282,
    "▁Basic": 19219,
    "Inter": 4074,
    "║": 30246,
    "▁Marine": 15929,
    "▁nur": 5595,
    "idd": 2205,
    "▁lived": 10600,
    "▁ace": 21643,
    "▁Felix": 26346,
    "ped": 9795,
    "연": 31285,
    "▁autonom": 28273,
    "▁presenta": 22720,
    "▁instantly": 26232,
    "версите": 10622,
    "ement": 882,
    "▁repres": 10981,
    "్": 31807,
    "▁pixel": 15526,
    "▁entfer": 15153,
    "▁beside": 17620,
    "▁votes": 18952,
    "▁fils": 14560,
    "▁curiosity": 27742,
    "▁forth": 11483,
    "▁latin": 25677,
    "stood": 9337,
    "рабо": 15384,
    "西": 30602,
    "ρ": 30147,
    "▁January": 5490,
    "rag": 1431,
    "▁chamber": 24171,
    "▁village": 5720,
    "▁arbitrary": 11472,
    "мах": 23173,
    "<0x19>": 28,
    "▁ignore": 11455,
    "▁:-)": 15626,
    "fik": 19631,
    "▁NEW": 29091,
    "bay": 27495,
    "▁Phone": 24323,
    "▁Early": 11095,
    "cut": 7582,
    "story": 24098,
    "anguage": 3000,
    "▁Nieder": 16501,
    "чник": 27944,
    "创": 31441,
    "antes": 3794,
    "▁фамилией": 19895,
    "▁alem": 20712,
    "▁Snow": 24392,
    "од": 10285,
    "▁Jó": 18433,
    "▁Système": 28388,
    "acht": 5860,
    "Щ": 30186,
    "▁generate": 5706,
    "▁Met": 4737,
    "ர": 30966,
    "».": 1684,
    ")!": 20198,
    "▁accompan": 18509,
    "▁tong": 21861,
    "œur": 16581,
    "erade": 15019,
    "▁span": 10638,
    "▁pocket": 24589,
    "▁executable": 16813,
    "▁username": 8952,
    "taient": 13048,
    "resol": 9778,
    "DAT": 25832,
    "ativa": 8657,
    "ходи": 4647,
    "▁feed": 8343,
    "터": 31856,
    "▁apresent": 24677,
    "ered": 14561,
    "▁Syl": 19628,
    "rails": 9912,
    "▁Cord": 20893,
    "▁wird": 4296,
    "▁юго": 28162,
    "pers": 6774,
    "▁wszyst": 27980,
    "시": 30889,
    "▁presently": 28681,
    "true": 3009,
    "▁kommen": 28171,
    "blem": 1031,
    "▁hous": 9261,
    "ennessee": 21539,
    "▁dan": 6025,
    "▁Else": 15785,
    "▁fos": 14452,
    "▁свя": 9690,
    "▁representative": 21097,
    "<<ST_521>>": 32521,
    "chen": 2724,
    "⁰": 30524,
    "▁Nin": 27960,
    "▁collaboration": 24771,
    "ITableView": 12882,
    "▁SE": 3725,
    "ペ": 31501,
    "▁better": 2253,
    ");`": 12771,
    "▁lip": 17441,
    "jt": 22779,
    "Ét": 22353,
    "__(": 12035,
    "Wel": 28862,
    "▁lawyer": 25008,
    "ной": 2082,
    "▁<<": 3532,
    "urrent": 1264,
    "ornal": 24751,
    "alis": 5711,
    "▁instrument": 11395,
    "ieron": 10243,
    "▁As": 1094,
    "ള": 31284,
    "▁dah": 20694,
    "!/": 14708,
    "ously": 5794,
    "ultan": 19992,
    "▁Cole": 16816,
    "▁differently": 17587,
    "▁Kontrola": 20448,
    "▁check": 1423,
    "лаго": 15657,
    "▁among": 4249,
    "▁meer": 13754,
    "▁negli": 20059,
    "▁tons": 23864,
    "▁acceler": 15592,
    "▁introdu": 4547,
    "▁Tower": 23615,
    "GT": 23799,
    "▁opposite": 11564,
    "ISO": 29096,
    "Ill": 10002,
    "ления": 6052,
    "<<ST_142>>": 32142,
    "▁Regin": 28124,
    "scription": 22371,
    "▁Mart": 3760,
    "▁privileges": 28091,
    "ptr": 7414,
    "genommen": 21096,
    "▁situations": 18845,
    "▁dataset": 8783,
    "INDEX": 27992,
    "▁bound": 3216,
    "UPDATE": 14474,
    "▁anterior": 14123,
    "▁bearing": 24638,
    "emark": 24212,
    "▁slide": 20343,
    "▁Institution": 28218,
    "▁быть": 23761,
    "тел": 11186,
    "Infl": 15403,
    "egr": 4872,
    "ometimes": 14618,
    "ião": 15912,
    "▁guid": 16605,
    "▁altern": 5136,
    "▁tunnel": 26086,
    "bootstrap": 8704,
    "▁nej": 17315,
    "icus": 12473,
    "▁=>": 1149,
    "▁jedoch": 9901,
    "▁Metropolitan": 28788,
    "▁semantics": 29505,
    "onym": 4735,
    "▁normally": 12891,
    "Up": 3373,
    "▁czę": 14291,
    "aires": 7147,
    "iem": 3768,
    "jd": 26012,
    "owania": 18928,
    "▁attempted": 16388,
    "гі": 8392,
    "lette": 20200,
    "вания": 22185,
    "▁boot": 6579,
    "Mon": 7185,
    "▁Politik": 27622,
    "ز": 30295,
    "โ": 31364,
    "▁soap": 29559,
    "▁requiring": 26795,
    "▁Month": 23471,
    "array": 2378,
    "ʋ": 31470,
    "▁amplit": 22252,
    "urable": 21115,
    "dbo": 21627,
    "▁most": 1556,
    "false": 4541,
    "ulative": 28524,
    "tal": 20411,
    "'];": 8219,
    "▁attack": 5337,
    "SOUR": 27839,
    "▁formally": 28269,
    "▁ř": 19307,
    "▁graphs": 18445,
    "▁seats": 22091,
    "置": 30669,
    "▁Card": 9160,
    "IMARY": 24480,
    "factory": 14399,
    "▁sint": 25507,
    "▁creature": 23940,
    "佐": 31315,
    "ệ": 30529,
    "▁shortcut": 21697,
    "▁tennis": 22556,
    "=&": 29332,
    "ViewModel": 15166,
    "▁secret": 7035,
    "▁wouldn": 7656,
    "loster": 20421,
    "_*": 24563,
    ")-\\": 23019,
    "yk": 12072,
    "▁issue": 2228,
    "▁believed": 13112,
    "▁Once": 9038,
    "qui": 6578,
    "▁Operation": 20462,
    "▁hockey": 18881,
    "zza": 10177,
    "UITableView": 23209,
    "▁counting": 21248,
    "тельства": 21841,
    "地": 30533,
    "▁Gene": 15350,
    "▁Dit": 18978,
    "▁Process": 10554,
    "▁terra": 15087,
    "▁Arten": 22335,
    "▁variables": 3651,
    "▁має": 23005,
    "車": 31587,
    "isti": 14194,
    "pf": 7810,
    "<<ST_656>>": 32656,
    "▁GT": 21342,
    "UR": 4574,
    "▁Spo": 24674,
    "▁setTimeout": 23597,
    "érieure": 22673,
    "▁mě": 11450,
    "▁sem": 3031,
    "▁Basically": 13702,
    "ában": 10326,
    "▁costs": 21544,
    "流": 31151,
    "aval": 7712,
    "ське": 19000,
    "VERSION": 16358,
    "<<ST_232>>": 32232,
    "сь": 1210,
    "}\"": 5038,
    "▁Win": 8892,
    "isf": 4492,
    "<<ST_6>>": 32006,
    "обра": 15124,
    "信": 30689,
    "ningar": 21965,
    "<<ST_572>>": 32572,
    "<<ST_70>>": 32070,
    "events": 13604,
    "////": 6165,
    "}_\\": 12806,
    "▁donna": 23371,
    "▁wall": 10090,
    "▁causes": 9946,
    "Receiver": 22068,
    "▁apare": 13059,
    "▁ně": 13362,
    "player": 9106,
    "▁stycznia": 24002,
    "▁zwe": 4753,
    "ake": 1296,
    "▁temp": 5694,
    "▁Kob": 28014,
    "▁mang": 25016,
    "enger": 15109,
    "erek": 20400,
    "▁bottom": 5970,
    "anst": 16220,
    "▁appointed": 10658,
    "▁Nev": 26572,
    "▁newer": 20687,
    "uale": 18634,
    "rightarrow": 5211,
    "▁air": 4799,
    "▁settled": 17141,
    "▁аль": 12668,
    "▁neut": 11553,
    "cler": 12121,
    "cit": 20752,
    "fern": 24023,
    "▁Interface": 25796,
    "▁Ду": 14869,
    "▁const": 1040,
    "І": 30090,
    "▁Setting": 21605,
    "ál": 2464,
    "▁Hern": 25962,
    "ragma": 23929,
    "vil": 17191,
    "▁п": 469,
    "▁superficie": 20866,
    "▁La": 997,
    "▁<%": 20577,
    "▁gewählt": 26430,
    "▁rende": 19643,
    "▁inwoners": 19209,
    "▁Mike": 12828,
    "▁runt": 20307,
    "▁brings": 23522,
    "▁gig": 19340,
    "ÿ": 30370,
    "▁attempt": 4218,
    "▁fields": 4235,
    "▁Puerto": 21810,
    "▁divs": 24641,
    "/**": 7918,
    "▁rout": 6745,
    "▁behavior": 6030,
    "ω": 30206,
    "▁perfectly": 7970,
    "ган": 7478,
    "▁stream": 4840,
    "asticsearch": 20291,
    "empty": 6310,
    "서": 31093,
    "▁Exp": 12027,
    "▁writ": 2044,
    "icum": 29381,
    "▁dra": 7482,
    "▁Dru": 16597,
    "òria": 21276,
    "▁wit": 12309,
    "isch": 783,
    "▁использова": 17442,
    "▁Bibliografia": 8858,
    "▁inspir": 23459,
    "ста": 1229,
    "anh": 27731,
    "▁Fichier": 19836,
    "▁Cannot": 15808,
    "▁Pere": 23133,
    "▁Deze": 20651,
    "GER": 17070,
    "overflow": 2262,
    "▁italien": 16486,
    "▁segment": 10768,
    "▁used": 1304,
    "link": 2324,
    "sheets": 19360,
    "IV": 5667,
    "▁древ": 29794,
    "▁Arbeit": 17561,
    "▁Bian": 29860,
    "拳": 31848,
    "▁waited": 25993,
    "vn": 18564,
    "▁trop": 9201,
    "▁Ні": 23865,
    "▁GO": 21947,
    "▁som": 1047,
    "aison": 8376,
    "layers": 29277,
    "atura": 7969,
    "Database": 9112,
    "product": 4704,
    "▁Edinburgh": 25200,
    "defined": 12119,
    "▁dirig": 10487,
    "▁intellig": 13052,
    "ogy": 6933,
    "▁эконо": 24297,
    "cra": 26844,
    "▁Ein": 2694,
    "ias": 3173,
    "чения": 12395,
    "▁американ": 14888,
    "machine": 23523,
    "▁хозяй": 29232,
    "bia": 15959,
    "market": 28549,
    "－": 31583,
    "▁price": 8666,
    "ді": 3429,
    "ächen": 29523,
    "▁flying": 22764,
    "鉄": 31509,
    "▁/\\": 18826,
    "然": 31516,
    "tring": 909,
    "▁dla": 13502,
    "рі": 3020,
    "ällor": 20959,
    "▁ancest": 19525,
    "▁formatted": 20917,
    "▁algebra": 9623,
    "▁java": 2115,
    "▁racc": 25533,
    "▁wyst": 14787,
    "chas": 27148,
    "raf": 1929,
    "▁pochod": 28782,
    "irectory": 5554,
    "▁bott": 18046,
    "rinningsområ": 18140,
    "writing": 16554,
    "▁nederbörd": 17299,
    "Score": 20097,
    "▁demselben": 19552,
    "apat": 26347,
    "▁foi": 4732,
    "յ": 30657,
    "▁quer": 22320,
    "ク": 30305,
    "жно": 9907,
    "origine": 17234,
    "conf": 5527,
    "▁narrow": 12474,
    "TT": 19988,
    "▁castle": 20610,
    "▁os": 2897,
    "▁Jules": 27151,
    "<<ST_412>>": 32412,
    "▁avait": 7905,
    "Ñ": 30334,
    "▁Palace": 24537,
    "▁SW": 25289,
    "▁сте": 14296,
    "▁Retrie": 19338,
    "editor": 15204,
    "▁typical": 15662,
    "▁daß": 14106,
    "ica": 983,
    "▁Java": 3355,
    "bey": 22072,
    "cej": 24213,
    "▁sah": 26024,
    "lywood": 16239,
    "▁Virtual": 19181,
    "▁Lear": 19530,
    "▁premier": 7017,
    "Cons": 13696,
    "▁cel": 6432,
    "iennent": 23510,
    "▁horse": 10435,
    "▁Mars": 16852,
    "▁advice": 9848,
    "omega": 4787,
    "▁imported": 19673,
    "=\"#": 9880,
    "▁bod": 13004,
    "▁({": 21313,
    "▁clim": 10784,
    "сии": 29369,
    "机": 31429,
    "▁presence": 10122,
    "Should": 26857,
    "êtes": 22730,
    "▁\"_": 11119,
    "▁magyar": 17717,
    "ulsion": 25381,
    "▁mongo": 19476,
    "pisode": 12907,
    "older": 3194,
    "Spec": 10299,
    "ović": 14843,
    "ší": 7767,
    ".`": 17580,
    "ља": 7644,
    "report": 12276,
    "hr": 1092,
    "▁као": 17490,
    "▁Phys": 11661,
    "rim": 5632,
    "▁très": 9577,
    "rie": 2546,
    "▁cz": 5316,
    "▁š": 6569,
    "▁instal": 20226,
    "вое": 18072,
    "▁summer": 11801,
    "labels": 21134,
    "▁vorg": 28669,
    "tip": 12632,
    "▁lungo": 26394,
    "▁Ara": 25953,
    "ђу": 22620,
    "isions": 12112,
    "iesz": 11250,
    "drive": 21594,
    "скому": 18976,
    "▁circles": 22558,
    "▁ep": 9358,
    "▁photos": 20612,
    "▁Cent": 2895,
    "▁festival": 16005,
    "▁corn": 26343,
    "ighth": 18919,
    "ído": 27806,
    "▁Systems": 23985,
    "▁Deb": 7089,
    "<<ST_73>>": 32073,
    "&&": 12774,
    "▁trom": 25063,
    "impl": 13699,
    "▁österreich": 20383,
    "▁regards": 21778,
    "▁focus": 8569,
    "▁dia": 9766,
    "ös": 6616,
    "▁married": 8300,
    "▁Пор": 26150,
    "▁Amer": 2163,
    "▁Pérez": 28098,
    "<<ST_642>>": 32642,
    "¼": 30515,
    "▁films": 12298,
    "▁duplicates": 20955,
    "ิ": 30507,
    "hex": 20970,
    "▁Tur": 5383,
    "▁Volume": 16934,
    "onymous": 11428,
    "BB": 14388,
    "origin": 12574,
    "стан": 4374,
    "per": 546,
    "▁Hub": 14533,
    "▁Пар": 22718,
    "Ο": 30491,
    "▁camera": 10656,
    "mysql": 7938,
    "▁route": 5782,
    "▁ent": 875,
    "ctu": 22999,
    "▁komm": 15985,
    "sc": 1557,
    "▁établ": 29550,
    "▁intern": 2836,
    "▁Real": 8195,
    "▁performing": 15859,
    "‹": 30474,
    "cir": 19052,
    "▁compression": 24221,
    "▁exerc": 11382,
    "maste": 19535,
    "个": 30502,
    "▁inf": 3041,
    "▁shelter": 27709,
    "▁Schne": 21129,
    "▁Riemann": 29516,
    "▁he": 540,
    "]))": 12622,
    "▁счита": 25354,
    "ioni": 3688,
    "TAC": 8687,
    "etzt": 7401,
    "▁FF": 21379,
    "▁und": 563,
    "ono": 3231,
    "▁chrom": 25173,
    "▁fixed": 4343,
    "▁ál": 11731,
    "IC": 2965,
    "▁Stand": 6679,
    "Times": 29164,
    "▁stolet": 22041,
    "▁основ": 8838,
    "▁März": 7322,
    "菜": 31854,
    "▁пра": 4460,
    "▁Camil": 26623,
    "▁Beth": 23408,
    "▁go": 748,
    "той": 14820,
    "ohn": 6547,
    "ruction": 4080,
    "▁arbeitete": 22547,
    "ier": 631,
    "▁already": 2307,
    "Pad": 20369,
    "▁algorithms": 14009,
    "▁Internacional": 17489,
    "histor": 16211,
    "▁compan": 8119,
    "▁Tournament": 29427,
    "▁страны": 29226,
    "▁prav": 21535,
    "▁comfort": 13016,
    "▁prob": 2070,
    "▁linea": 26241,
    "▁Afghan": 27135,
    "▁Auto": 11133,
    "▁эти": 17610,
    "бур": 9845,
    "ckets": 9737,
    "Ə": 31127,
    "▁mol": 6062,
    "ups": 14340,
    "gebra": 5869,
    "▁Düsseldorf": 28901,
    "UC": 23129,
    "Will": 12984,
    "▁wrapping": 28489,
    "ater": 1008,
    "▁pur": 3708,
    "IAL": 25758,
    "zeg": 28530,
    "▁transformation": 13852,
    "▁tamb": 3882,
    "▁bush": 27089,
    "▁Daar": 26105,
    "bot": 7451,
    "▁Parliament": 13212,
    "▁Saf": 14795,
    "selected": 8391,
    "▁appearances": 21712,
    "стро": 7966,
    "fest": 29613,
    "ência": 10544,
    "PP": 18009,
    "』": 31005,
    "▁William": 4667,
    "sigma": 3754,
    "▁Vertrag": 29396,
    "<<ST_307>>": 32307,
    "と": 30364,
    "-)": 15805,
    "▁Inform": 15162,
    "ʿ": 30271,
    "▁Fran": 1352,
    "▁beiden": 13066,
    "<0x57>": 90,
    "rique": 14090,
    "▁є": 9582,
    "ikan": 7941,
    "頭": 31876,
    "сад": 26961,
    "八": 31044,
    "aj": 1175,
    "▁}).": 22719,
    "<<ST_130>>": 32130,
    "iała": 23398,
    "ceu": 22541,
    "werp": 14485,
    "▁складі": 21887,
    "▁laugh": 10569,
    "Install": 23271,
    "▁library": 3489,
    "▁Species": 21807,
    "рав": 3766,
    "▁declared": 8052,
    "<<ST_450>>": 32450,
    "▁Taylor": 12537,
    "▁peque": 18946,
    "▁coordinate": 14821,
    "Person": 7435,
    "тный": 24885,
    "▁fug": 20924,
    "<0x0B>": 14,
    "Components": 25503,
    "▁Long": 6242,
    "▁realized": 16387,
    "▁facility": 24454,
    "▁fled": 27481,
    "▁Boys": 22148,
    "<<ST_291>>": 32291,
    "rows": 5727,
    "▁conventional": 28557,
    "▁Argument": 23125,
    "laravel": 29787,
    "▁inserted": 15478,
    "...,": 16361,
    "▁Kingdom": 12626,
    "▁outcome": 21957,
    "ших": 9994,
    "▁служ": 17746,
    "▁образова": 16362,
    "▁thereby": 27999,
    "▁Study": 29301,
    "es": 267,
    "▁app": 623,
    "▁improved": 16710,
    "▁este": 4404,
    "iveness": 20193,
    "ures": 1973,
    "ক": 30995,
    "vos": 23517,
    "Ret": 8015,
    "DD": 7858,
    "▁corso": 25438,
    "ella": 3547,
    "▁Martín": 28344,
    "▁Fin": 4231,
    "息": 31021,
    "atis": 18792,
    "cot": 26235,
    "▁Him": 18136,
    "tern": 725,
    "▁Uruguay": 29233,
    "tm": 18276,
    "fass": 19874,
    "▁compiler": 6516,
    "Resolver": 19648,
    "éon": 25403,
    "▁ready": 7960,
    "▁Ra": 6981,
    "▁+": 718,
    "ibration": 26218,
    "icked": 17840,
    "cite": 2036,
    "▁Herm": 10515,
    "imin": 8332,
    "ordo": 20584,
    "▁Edition": 17138,
    "▁altro": 27704,
    "▁android": 1442,
    ")": 29897,
    "LENGTH": 19433,
    "▁invån": 16916,
    "实": 31195,
    "▁Під": 28829,
    "Rest": 15078,
    "som": 22708,
    "선": 31345,
    "▁liquid": 23904,
    "ά": 30216,
    "▁andra": 21912,
    "Po": 9837,
    "▁rá": 23504,
    "mil": 23853,
    "ências": 9339,
    "recogn": 29423,
    "▁esta": 7444,
    "▁Normdatei": 28331,
    "▁regime": 22384,
    "▁especially": 7148,
    "Hor": 17241,
    "C": 29907,
    "▁première": 8861,
    "▁spell": 24779,
    "▁Narod": 24322,
    "igue": 12137,
    "ков": 2530,
    "<<ST_21>>": 32021,
    "ensional": 8180,
    "▁While": 5806,
    "oses": 15806,
    "panel": 15119,
    "▁recomm": 5052,
    "▁David": 4699,
    "▁genom": 20853,
    "▁stro": 23351,
    "▁anxious": 24937,
    "<<ST_62>>": 32062,
    "<<ST_376>>": 32376,
    "▁Technology": 17968,
    "▁depuis": 8997,
    "approx": 14850,
    "▁estaven": 24576,
    "▁CASE": 29134,
    "▁vál": 12196,
    "Linux": 24085,
    "▁removal": 28744,
    "▁caller": 24959,
    "▁comple": 1614,
    "ök": 14628,
    "▁instances": 8871,
    "▁COVID": 19937,
    "陽": 31291,
    "<<ST_385>>": 32385,
    "▁не": 1538,
    "registr": 29238,
    "торы": 5090,
    "▁replacement": 16920,
    "questa": 22802,
    "chten": 12385,
    "모": 31962,
    "etr": 18184,
    "好": 31076,
    "tu": 9161,
    "got": 7085,
    "▁\"": 376,
    "webpack": 27327,
    "▁információk": 26137,
    "▁hover": 16758,
    "▁sua": 4171,
    "кви": 15209,
    "▁bene": 13982,
    "nej": 6197,
    "页": 31610,
    "▁writing": 5007,
    "来": 30805,
    "▁Switch": 28176,
    "cji": 17624,
    "▁miss": 3052,
    "▁gi": 4005,
    "▁discussion": 10679,
    "▁поле": 29235,
    "pla": 13974,
    "<<ST_82>>": 32082,
    "▁пос": 10038,
    "▁theories": 25841,
    "▁Asp": 26562,
    "constant": 23362,
    "▁solution": 1650,
    "▁nyelven": 18030,
    "▁repos": 17573,
    "engen": 26955,
    "▁reaction": 19848,
    "▁Drag": 12225,
    "▁Nikol": 22958,
    "▁först": 18073,
    "▁Manchester": 19659,
    "▁meeting": 11781,
    "▁ú": 3720,
    "▁circle": 8607,
    "▁connect": 4511,
    "spect": 21494,
    "▁Pur": 15247,
    "ச": 31384,
    "wick": 6669,
    "▁Ла": 8601,
    "▁Olimp": 25975,
    "▁hely": 14827,
    "아": 30860,
    "▁physical": 9128,
    "▁also": 884,
    "▁metadata": 15562,
    "▁unfold": 20220,
    "iw": 9429,
    "▁produ": 1391,
    "▁Ab": 1976,
    "сти": 1415,
    "invalid": 20965,
    "▁lá": 24303,
    "▁Dob": 21451,
    "ama": 3304,
    "▁abstract": 9846,
    "▁bland": 18742,
    "hew": 13636,
    "co": 1111,
    "▁роль": 24072,
    "ног": 18211,
    "ulty": 18857,
    "▁ir": 3805,
    "ь": 29978,
    "checked": 11238,
    "ched": 26902,
    "▁recommend": 6907,
    "▁estudio": 29039,
    "Del": 13157,
    "▁Yes": 3869,
    "▁ő": 22294,
    "▁pm": 26354,
    "▁fil": 977,
    "▁Vor": 6266,
    "ktor": 10407,
    "▁II": 1944,
    "<<ST_353>>": 32353,
    "ɾ": 30542,
    "▁pob": 6130,
    "gesch": 7754,
    "rate": 10492,
    "dr": 7707,
    "jQuery": 17038,
    "▁actress": 20993,
    "<<ST_544>>": 32544,
    "▁text": 1426,
    "kin": 9089,
    "▁two": 1023,
    "вшие": 28429,
    "uur": 13692,
    "▁può": 17356,
    "▁buildings": 13814,
    "▁Coll": 13435,
    "<0x4A>": 77,
    "上": 30429,
    "swers": 5956,
    "松": 31018,
    "▁associated": 6942,
    "▁Conseil": 25774,
    "▁spoken": 19182,
    "▁sele": 16954,
    "▁finds": 14061,
    "vari": 5927,
    "fa": 5444,
    "▁bev": 21329,
    "AMP": 19297,
    "▁terminal": 8638,
    "Mat": 9782,
    "U": 29965,
    "oman": 2480,
    "ston": 7352,
    "Dim": 16142,
    "▁withdraw": 28679,
    "ordinary": 24310,
    "▁tile": 25900,
    "▁меда": 18922,
    "▁Abstract": 25513,
    ")».": 25756,
    "<0x77>": 122,
    "PA": 7228,
    "▁Format": 19191,
    "▁Consider": 10056,
    "▁pain": 6788,
    "▁digital": 13436,
    "物": 30834,
    "<<ST_80>>": 32080,
    "сия": 21290,
    "les": 793,
    "▁Sach": 28944,
    "▁españ": 12349,
    "▁Lion": 21934,
    "roller": 1825,
    "▁Тур": 23411,
    "auf": 4987,
    "▁nearest": 20471,
    "ista": 2079,
    "▁Sometimes": 18512,
    "▁Cell": 19413,
    "enced": 9223,
    "▁ещё": 20991,
    "给": 31999,
    "▁Wikipedia": 14109,
    "▁understand": 2274,
    "issue": 15118,
    "City": 16885,
    "▁ASC": 18188,
    "▁different": 1422,
    "▁Cook": 17278,
    "dates": 15190,
    "core": 3221,
    "▁марта": 15051,
    "▁Ter": 5061,
    "una": 4347,
    "ấ": 31145,
    "gn": 5138,
    "▁IF": 10762,
    "▁costitu": 24249,
    "uth": 2806,
    "ată": 13804,
    "▁Ciudad": 25757,
    "navigation": 15466,
    "▁certainly": 8959,
    "▁líder": 29847,
    "▁talál": 27764,
    "▁Barbara": 18506,
    "▁traduc": 25314,
    "▁erf": 23467,
    "▁lost": 5714,
    "*,": 15966,
    "Radius": 20494,
    "▁animals": 15006,
    "Hidden": 25108,
    "▁wie": 4031,
    "▁descend": 17086,
    "first": 4102,
    "▁fot": 10105,
    "▁wieder": 7518,
    "▁Xcode": 19050,
    "inture": 29546,
    "▁delay": 9055,
    "▁tap": 18751,
    "▁lets": 16869,
    "fic": 9639,
    "▁Serial": 18896,
    "▁assigning": 23188,
    "▁staat": 17372,
    "▁Warner": 26699,
    "п": 29964,
    "▁cant": 5107,
    "льной": 25883,
    "ips": 4512,
    "▁nécess": 16253,
    "angs": 25128,
    "▁VAL": 12599,
    "▁nerv": 23547,
    "loaded": 15638,
    "▁место": 14179,
    "numerable": 14068,
    "▁intensity": 26171,
    "ził": 22797,
    "▁Building": 17166,
    "▁sending": 9348,
    "▁fon": 10866,
    "▁помо": 14752,
    "san": 28455,
    "Next": 9190,
    "▁Ap": 6225,
    "▁Museum": 6838,
    "Tags": 28089,
    "<<ST_177>>": 32177,
    "Material": 24095,
    "measure": 26658,
    "illa": 2911,
    "register": 9573,
    "▁simultaneously": 21699,
    "▁Раз": 26595,
    "▁апреля": 16550,
    "igner": 21216,
    "▁Rat": 17450,
    "Come": 27796,
    "Ō": 30252,
    "oll": 3028,
    "jou": 20551,
    ")+\\": 20843,
    "▁inaug": 15069,
    "jed": 11370,
    "▁Antoine": 26280,
    "inth": 22653,
    "▁share": 6232,
    "▁sure": 1854,
    "▁conjunto": 26949,
    "▁the": 278,
    "ision": 2459,
    "ills": 6090,
    "▁Again": 11454,
    "▁worst": 17322,
    "▁Maj": 6973,
    "ща": 4826,
    "'},": 16675,
    "prep": 15287,
    "▁July": 5468,
    "▁Paz": 27437,
    "▁ALL": 15149,
    "apps": 13371,
    "▁nation": 5233,
    "ować": 28894,
    "Username": 20249,
    "▁lev": 14453,
    "owan": 24136,
    "nant": 21941,
    "Validator": 24204,
    "▁reg": 1072,
    "asha": 26840,
    "rero": 8567,
    "<<ST_93>>": 32093,
    "科": 31030,
    "unity": 6997,
    "ability": 3097,
    "ermeister": 23282,
    "▁seq": 19359,
    "▁carre": 24320,
    "olit": 27298,
    "▁extensive": 20607,
    "ttemberg": 23079,
    "▁(**": 28492,
    "▁burn": 12138,
    "▁Off": 5947,
    "fac": 17470,
    "resp": 13713,
    "quier": 16026,
    "▁sched": 28598,
    "▁szám": 18216,
    "ampa": 20056,
    "hyper": 24947,
    "▁Kaiser": 17123,
    "▁effectively": 17583,
    "Ș": 30233,
    "▁suddenly": 11584,
    "▁Vern": 23743,
    "ǎ": 30359,
    "▁dokument": 27530,
    "▁'\"": 18793,
    "▁complet": 3315,
    "▁граф": 23710,
    "▁Path": 10802,
    "чив": 29862,
    "▁belle": 26436,
    "abeled": 24025,
    "rend": 28759,
    "▁ampl": 20563,
    "⊕": 31200,
    "▁part": 760,
    "▁primitive": 19269,
    "▁Tex": 8490,
    "Red": 9039,
    "akt": 5867,
    "▁Nik": 11535,
    "ственной": 15138,
    "▁послед": 17235,
    "▁му": 4179,
    "▁regularly": 25704,
    "▁Motor": 16843,
    "rs": 2288,
    "▁TO": 7495,
    "article": 7914,
    "сини": 20091,
    "▁provincia": 13324,
    "ську": 25018,
    "▁nombre": 5419,
    "unft": 19324,
    "▁droite": 29262,
    "Context": 2677,
    "▁post": 1400,
    "Mus": 14958,
    "▁November": 3979,
    "ë": 30083,
    "tain": 2408,
    "▁For": 1152,
    "▁разрабо": 24973,
    "rect": 1621,
    "▁Kennedy": 23166,
    "ṛ": 31056,
    "▁півден": 27513,
    "ič": 8953,
    "▁Hamilton": 12372,
    "▁$(\".": 17575,
    "ネ": 31038,
    "▁край": 28355,
    "match": 4352,
    "▁så": 15548,
    "▁sud": 5053,
    "JECT": 17637,
    "▁sen": 6940,
    "ći": 24642,
    "▁svo": 28316,
    "iry": 16129,
    "eu": 12932,
    "lij": 7267,
    "型": 30883,
    "err": 3127,
    "▁downloaded": 16532,
    "ustral": 12135,
    "▁meters": 27881,
    "quip": 14254,
    "хан": 23485,
    "Recogn": 23122,
    "Min": 8140,
    "▁scattered": 29574,
    "Node": 4247,
    "<<ST_117>>": 32117,
    "xhtml": 28392,
    "loy": 2376,
    "▁sig": 4365,
    "▁payload": 20092,
    "▁overall": 12463,
    "▁ihn": 8756,
    "ser": 643,
    "irche": 26846,
    "ku": 2120,
    "▁acquaint": 19395,
    "reci": 4361,
    "▁pure": 8296,
    "▁LIN": 21724,
    "onel": 11064,
    "▁bear": 11460,
    "▁CURLOPT": 27589,
    "▁material": 5518,
    "▁equ": 1592,
    "▁che": 923,
    "▁Ek": 16462,
    "▁Grad": 19295,
    "nome": 25155,
    "▁tens": 25187,
    "▁neighbour": 17647,
    "▁Ta": 10523,
    "gende": 11693,
    "▁últ": 9501,
    "***": 17435,
    "Ъ": 31147,
    "endar": 6486,
    "▁primer": 7130,
    "▁br": 1506,
    "▁stru": 6220,
    "▁Serge": 19068,
    "▁neben": 20104,
    "мар": 20784,
    "▁struggling": 20042,
    "▁gets": 4947,
    "er": 261,
    "<0x20>": 35,
    "▁oppos": 9209,
    "▁favor": 7853,
    "бург": 14590,
    "▁вид": 21491,
    "Address": 7061,
    "▁Costa": 17513,
    "▁Rio": 11611,
    ":'": 11283,
    "▁adm": 7336,
    "▁Associ": 6853,
    "нице": 23256,
    "DataSource": 15559,
    "▁read": 1303,
    "▁коман": 6863,
    "▁TH": 3446,
    "洲": 31952,
    "▁zn": 10589,
    "▁Mig": 14854,
    "▁convent": 13064,
    "enska": 24958,
    "<0xF4>": 247,
    "Opt": 20624,
    "camera": 26065,
    "▁уча": 6810,
    "▁odkazy": 17871,
    "aturing": 19021,
    "Bus": 16890,
    "▁ami": 18926,
    "▁duration": 14385,
    "oe": 7297,
    "sharp": 22064,
    "Ph": 4819,
    "▁ви": 2196,
    "ków": 15396,
    "▁kingdom": 20748,
    "▁execution": 8225,
    "▁O": 438,
    "▁wife": 6532,
    "inu": 8675,
    "tres": 5888,
    "унк": 13937,
    "▁Remember": 22738,
    "▁converted": 11543,
    "▁compact": 11071,
    "▁militar": 15222,
    "Servlet": 10735,
    "▁современ": 23528,
    "▁verw": 9540,
    "▁ż": 13918,
    "▁maggio": 16536,
    "▁Ak": 10813,
    "бы": 6326,
    "▁capitale": 27073,
    "orsz": 15292,
    "▁trouve": 16391,
    "<<ST_382>>": 32382,
    "▁conn": 11009,
    "unter": 8428,
    "hole": 29716,
    "ütt": 17635,
    "▁deuxième": 18768,
    "aki": 9940,
    "<<ST_363>>": 32363,
    "▁Euro": 11652,
    "fr": 1341,
    "▁Kraft": 25818,
    "anza": 8520,
    "uted": 3860,
    "->": 976,
    "▁neighbourhood": 29643,
    "dostęp": 22258,
    "▁wooden": 27278,
    "▁infl": 4414,
    "▁govern": 4095,
    "▁Begriff": 15059,
    "▁Sample": 21029,
    "▁cabin": 28830,
    "MDb": 11602,
    "дом": 8418,
    "profile": 10185,
    "imen": 19933,
    "▁rather": 3265,
    "▁imperial": 26990,
    "▁szeptember": 27191,
    "▁religious": 12962,
    "▁mayo": 7502,
    "천": 31563,
    "▁jed": 3756,
    "▁расположен": 25576,
    "anger": 4600,
    "▁gall": 11798,
    "▁nicely": 28138,
    "EX": 5746,
    "ソ": 31051,
    "س": 30198,
    "umbn": 17771,
    "▁MD": 20672,
    "itect": 4496,
    "android": 2843,
    "▁wirk": 29335,
    "▁Ide": 13001,
    "▁efter": 12057,
    "▁species": 6606,
    "▁millions": 14746,
    "▁Lisa": 29420,
    "ties": 2938,
    "▁општи": 16910,
    "▁phenomen": 27791,
    "▁Ag": 4059,
    ")))": 4961,
    "▁jump": 12500,
    "▁J": 435,
    "▁вій": 11835,
    "▁cancer": 23900,
    "▁Fact": 26748,
    "igkeiten": 29187,
    "▁news": 9763,
    "Diff": 26023,
    "▁stages": 22950,
    "▁Krieg": 23234,
    "▁Kloster": 25916,
    "▁bitter": 22773,
    "enten": 19889,
    "('/": 11219,
    "eground": 18128,
    "▁build": 2048,
    "▁Big": 7997,
    "需": 31383,
    "▁область": 18427,
    "éma": 15537,
    "кого": 8199,
    "commit": 15060,
    "▁delete": 5217,
    "▁стре": 21373,
    "alloc": 15956,
    "▁Bug": 28209,
    "중": 31941,
    "ссии": 28229,
    "জ": 31537,
    "sono": 27554,
    "▁Vlad": 18060,
    "<<ST_690>>": 32690,
    "▁mare": 19287,
    "▁ты": 19506,
    "▁received": 4520,
    "coll": 22017,
    "▁Х": 3004,
    "▁ursprüng": 24904,
    "тика": 22283,
    "%).": 28003,
    "▁injured": 28606,
    "▁Cob": 24991,
    "ighter": 14643,
    "▁'')": 27255,
    "iah": 21071,
    "elter": 21883,
    "ică": 19008,
    "▁können": 12238,
    "▁allowed": 6068,
    "▁Detroit": 25749,
    "▁ms": 10887,
    "quot": 23083,
    "estellt": 23391,
    "▁эта": 25346,
    "及": 31436,
    "▁Te": 1920,
    "▁Firefox": 14418,
    "лад": 27155,
    "multirow": 28570,
    "mo": 4346,
    "": 30361,
    "雲": 31750,
    "okrat": 18468,
    "ре": 587,
    "▁копи": 21526,
    "▁golf": 29416,
    "▁Források": 24631,
    "▁override": 5712,
    "▁perce": 17189,
    "ignation": 25072,
    "Ř": 30224,
    "▁\"$": 3908,
    "▁англий": 24999,
    "Long": 8208,
    "partition": 16707,
    ":\\\\": 22298,
    "▁Timer": 29168,
    "▁ba": 9922,
    "▁inject": 11658,
    "<0x89>": 140,
    "▁calculating": 25202,
    "▁announced": 9326,
    "yi": 25675,
    "▁грома": 23463,
    "gior": 19187,
    "▁Alg": 11545,
    "<<ST_57>>": 32057,
    "<<ST_705>>": 32705,
    "ждение": 27625,
    "GR": 14345,
    "ській": 21547,
    "arz": 11129,
    "▁Ath": 9193,
    "ification": 2450,
    "▁Ра": 4973,
    "▁насе": 4588,
    "Integer": 7798,
    "orter": 9555,
    "▁Fun": 13811,
    "baar": 26934,
    "▁Virginia": 11653,
    "ли": 644,
    "▁встре": 22743,
    "techn": 21695,
    "jections": 24247,
    "▁Metropol": 19110,
    "itsch": 20641,
    "glise": 18548,
    "▁ut": 3477,
    "ão": 1368,
    "▁continu": 3133,
    "▁wür": 21770,
    "ationen": 15768,
    "maz": 16986,
    "uns": 6948,
    "▁Bel": 3741,
    "▁три": 10357,
    "▁popol": 25272,
    "▁chron": 17168,
    "Ἐ": 31769,
    "atge": 26775,
    "EGIN": 17958,
    "ay": 388,
    "idor": 23377,
    "▁thé": 13219,
    "▁vessels": 24479,
    "Results": 12191,
    "▁hearing": 22514,
    "aders": 24574,
    "▁admitted": 20186,
    "trees": 28737,
    "微": 31935,
    "yes": 3582,
    "▁musste": 25607,
    ";\">": 12334,
    "Float": 11031,
    "▁eind": 23561,
    "String": 1231,
    "ibility": 4127,
    "▁colonial": 25539,
    "能": 30815,
    "ativ": 1926,
    "▁pover": 25273,
    "▁uri": 21333,
    "mock": 17640,
    "aqu": 18463,
    "▁nest": 17763,
    "▁AD": 11033,
    "▁really": 2289,
    "країн": 14799,
    "▁chose": 12784,
    "▁prolong": 27044,
    "atable": 17219,
    "sm": 3844,
    "wert": 16347,
    "▁reports": 13676,
    "ð": 30189,
    "Selected": 8592,
    "▁parties": 13973,
    "▁früher": 27509,
    "▁removing": 11077,
    "osen": 7749,
    "▁Magic": 26494,
    "histoire": 13624,
    "available": 16515,
    "▁ord": 4356,
    "▁ls": 19375,
    "esty": 14596,
    "▁IS": 8519,
    "Are": 17506,
    "special": 18732,
    "▁Insel": 22106,
    "▁celle": 14344,
    "<<ST_491>>": 32491,
    "ild": 789,
    "▁genomsnitt": 27929,
    "▁этого": 16827,
    "})$,": 27394,
    "▁Мор": 29793,
    "ず": 31761,
    "▁fuera": 28271,
    "▁Amts": 29189,
    "nothing": 28450,
    "▁AR": 9033,
    "|": 29989,
    "▁adaptation": 28206,
    "▁stup": 15885,
    "tech": 11345,
    "žit": 20882,
    "eff": 12352,
    "inent": 8946,
    "▁connexes": 14446,
    "▁Yam": 22740,
    "INST": 25580,
    "▁posting": 16742,
    "дина": 16489,
    "▁inve": 22808,
    "ecz": 27750,
    "▁Background": 16585,
    "ільки": 24949,
    "µ": 30263,
    "dia": 15321,
    "▁pity": 28875,
    "▁чемпі": 24309,
    "istica": 24504,
    ".[": 7226,
    "for": 1454,
    "▁Cort": 20290,
    "Attr": 25098,
    "▁Renaissance": 27263,
    "INCT": 28852,
    "pull": 26746,
    "▁Литература": 15799,
    "шко": 28567,
    "ждан": 22766,
    "▁Bildern": 11588,
    "mbH": 17701,
    "▁nieder": 23634,
    "icos": 4869,
    "End": 5044,
    "▁Rodríguez": 27569,
    "▁gateway": 28646,
    "func": 9891,
    "obb": 20838,
    "▁dozen": 24231,
    "▁diverse": 16984,
    "▁Situ": 23920,
    "PF": 13691,
    "▁organizations": 25700,
    "▁meta": 12700,
    "abase": 1733,
    "seau": 14654,
    "ória": 14389,
    "▁quantity": 14728,
    "▁totally": 14909,
    "as": 294,
    "ierz": 15952,
    "tree": 8336,
    "▁carte": 20206,
    "ipart": 27494,
    "▁depends": 7111,
    "▁spot": 9758,
    "▁Brothers": 25522,
    "▁transparent": 17772,
    "<<ST_452>>": 32452,
    "<<ST_455>>": 32455,
    "▁Bür": 15455,
    "▁Einwohner": 17940,
    "▁Jap": 4407,
    "에": 31054,
    "▁implicit": 12235,
    "équ": 21871,
    "▁Bef": 20630,
    "adic": 26538,
    "▁kir": 18990,
    "ollary": 21982,
    "nia": 3915,
    "Model": 3195,
    "Bounds": 18526,
    "▁Пи": 14512,
    "▁amp": 21332,
    "▁Verl": 23739,
    "▁geprüft": 23658,
    "Se": 2008,
    "▁equivalent": 7126,
    "Æ": 30232,
    "etta": 11300,
    "▁phase": 8576,
    "small": 9278,
    "▁press": 3965,
    "wall": 11358,
    "igo": 5973,
    "<<ST_615>>": 32615,
    "▁functional": 13303,
    "inv": 11569,
    "▁nombr": 25264,
    "ССР": 10885,
    "▁Ari": 25775,
    "▁guys": 18239,
    "▁diferentes": 20506,
    "▁Maven": 26435,
    "▁Are": 4683,
    "▁puede": 11493,
    "serie": 15596,
    "▁bande": 27628,
    "▁everybody": 26077,
    "▁Aut": 5202,
    "ються": 16687,
    "▁Their": 11275,
    "▁duty": 13360,
    "▁enthus": 23644,
    "▁Premier": 14163,
    "ケ": 30978,
    "ття": 13314,
    "▁cop": 5614,
    "inline": 14764,
    "ellers": 28257,
    "ega": 2442,
    "▁Entertainment": 18189,
    "alty": 18745,
    "bibliothek": 24275,
    "▁draft": 18195,
    "▁При": 7203,
    "Formatter": 18522,
    "▁reprezent": 17577,
    "▁Gemeins": 23832,
    "▁Chine": 29142,
    "зяй": 20188,
    "▁Cloud": 14293,
    "▁Tan": 15066,
    "▁firm": 9226,
    "Vis": 6116,
    "Export": 26382,
    "Mont": 24665,
[...]
