{
  "vocab": {
    "▁überraschen": 28904,
    "▁ST": 5097,
    "▁Depot": 19524,
    "Alp": 19240,
    "attack": 27673,
    "form": 2032,
    "▁maybe": 2087,
    "▁auch": 319,
    "230": 13427,
    "Featuring": 18772,
    "▁reservoir": 21459,
    "▁Pompe": 29436,
    "0-": 9498,
    "▁Glo": 9840,
    "hundert": 26617,
    "▁employee": 3490,
    "▁Adams": 14274,
    "▁glitter": 19255,
    "▁Pfarr": 23225,
    "▁owners": 2713,
    "KB": 17827,
    "immédiat": 29073,
    "▁End": 3720,
    "▁coton": 28759,
    "▁Sonntag": 14392,
    "▁Decor": 15747,
    "▁permitted": 10548,
    "▁fondamental": 30761,
    "Work": 12492,
    "avais": 11277,
    "▁Ark": 22710,
    "accord": 11067,
    "▁Cycling": 30851,
    "▁Herausforderung": 18386,
    "▁Anniversary": 21947,
    "▁ancestral": 31352,
    "▁Tahoe": 31070,
    "▁Department": 1775,
    "▁controversy": 21760,
    "eaux": 9063,
    "▁tab": 3808,
    "▁willingness": 20463,
    "▁press": 2785,
    "▁tied": 10422,
    "CENT": 22851,
    "▁accessoires": 23671,
    "▁Islands": 11654,
    "▁Videos": 17284,
    "▁memories": 5655,
    "▁conçu": 17432,
    "▁Elephant": 29078,
    "ibility": 11102,
    "▁refrigeration": 31638,
    "▁steroids": 29867,
    "▁Notice": 13946,
    "support": 20390,
    "▁sunflower": 29915,
    "▁friendship": 9888,
    "▁maritime": 20141,
    "▁Advertise": 29555,
    "▁european": 14864,
    "▁electronics": 12800,
    "▁Badezimmer": 29683,
    "pen": 3208,
    "scope": 11911,
    "▁acel": 12856,
    "sectiune": 30513,
    "▁playoff": 15289,
    "▁worth": 1494,
    "▁bank": 2137,
    "▁volleyball": 26081,
    "▁Wochen": 7083,
    "▁23": 1902,
    "▁Gu": 2846,
    "▁următor": 25935,
    "▁MAI": 26409,
    "▁Prime": 5923,
    "▁Aufwand": 28215,
    "▁effet": 4154,
    "▁vast": 4248,
    "reusable": 28147,
    "▁sail": 14725,
    "▁intellectuelle": 31869,
    "▁Conditions": 14077,
    "▁membri": 12218,
    "▁produces": 9560,
    "▁13,": 10670,
    "zy": 4164,
    "hier": 18098,
    "▁Furthermore": 7053,
    "▁reserved": 14040,
    "▁sauna": 20543,
    "▁splitting": 28503,
    "▁Point": 4564,
    "▁himself": 2448,
    "▁transformation": 6586,
    "▁responsible": 1966,
    "TION": 9562,
    "▁provision": 6537,
    "▁britisch": 31084,
    "▁religi": 13806,
    "▁determine": 2082,
    "▁fest": 5423,
    "▁Klar": 22931,
    "▁Prize": 11329,
    "▁wage": 11458,
    "▁Victorian": 16071,
    "▁prosper": 26282,
    "▁Crest": 25906,
    "▁Ent": 4443,
    "lashes": 22188,
    "ssé": 17230,
    "▁transportation": 5127,
    "logisch": 25407,
    "▁Bailey": 24042,
    "▁erzeugt": 28520,
    "▁philosopher": 25857,
    "▁Terminal": 22181,
    "▁trailer": 6943,
    "democrat": 23319,
    "ICS": 21202,
    "▁Sachsen": 29234,
    "-13": 13056,
    "▁Florence": 18726,
    "izat": 5290,
    "micro": 25131,
    "▁melodi": 15391,
    "▁femme": 9597,
    "▁Basil": 23711,
    "▁completely": 1551,
    "▁Hungary": 22768,
    "übrigens": 22911,
    "▁somewhat": 6309,
    "▁presidential": 13074,
    "▁ride": 2564,
    "▁lifestyle": 4026,
    "▁Sachen": 22621,
    "▁succès": 14764,
    "▁FREE": 5858,
    "▁plastique": 21865,
    "▁cohort": 23785,
    "▁probe": 12732,
    "bisschen": 22053,
    "▁eye": 1580,
    "▁excited": 2787,
    "▁utile": 14540,
    "▁prevede": 26711,
    "▁ambalaj": 30101,
    "F": 371,
    "▁kettle": 27241,
    "length": 19457,
    "spielen": 19122,
    "▁ultima": 11422,
    "zugleich": 24399,
    "▁Re": 419,
    "ämtliche": 20392,
    "▁furniz": 22663,
    "▁accident": 3125,
    "▁Kritik": 24593,
    "sustainable": 31936,
    "▁Bă": 15048,
    "other": 9269,
    "▁verarbeitet": 23723,
    "▁appliances": 9403,
    "▁National": 868,
    "incorporated": 10975,
    "▁scheduling": 16131,
    "▁taie": 23054,
    "während": 5729,
    "▁lay": 8260,
    "▁génér": 10334,
    "▁Cognitive": 31109,
    "obtenu": 21157,
    "kle": 9434,
    "communication": 28921,
    "▁eficient": 8539,
    "▁campground": 27568,
    "aller": 11211,
    "chemical": 14676,
    "▁nichts": 9420,
    "▁adjustable": 11887,
    "▁Eight": 18516,
    "▁spéciale": 20630,
    "éventuel": 25435,
    "coop": 25911,
    "▁conduce": 21255,
    "ос": 18737,
    "▁Philipp": 14253,
    "▁whether": 823,
    "inch": 4976,
    "▁fake": 9901,
    "▁sailors": 30899,
    "▁NEVER": 28218,
    "zwei": 23075,
    "▁sprechen": 19869,
    "▁brokerage": 26231,
    "▁strict": 6926,
    "▁drunk": 18364,
    "▁7,": 7973,
    "éclairage": 28072,
    "UC": 6463,
    "prim": 8234,
    "▁breathtaking": 17593,
    "▁promotional": 11074,
    "▁companies": 688,
    "Char": 18947,
    "▁importance": 3172,
    "▁bénéfice": 28247,
    "2015": 8651,
    "évit": 8879,
    "%)": 6210,
    "▁Doors": 16987,
    "century": 14006,
    "▁relax": 4839,
    "motion": 7259,
    "untouched": 31729,
    "▁experiență": 24921,
    "January": 30404,
    "obi": 6690,
    "▁going": 352,
    "▁entitled": 7201,
    "▁looked": 2299,
    "ranked": 8232,
    "▁turnaround": 26547,
    "▁organizer": 14250,
    "▁scenario": 8616,
    "▁Jésus": 28115,
    "erklärung": 27595,
    "▁blocked": 12468,
    "gesetzlichen": 25919,
    "▁owned": 4157,
    "istik": 21734,
    "▁Minimum": 22619,
    "▁connecting": 8920,
    "▁CL": 11175,
    "▁transplant": 15127,
    "▁companie": 19267,
    "▁elev": 25377,
    "▁£10": 26016,
    "schrieb": 23343,
    "94": 4240,
    "▁trandafir": 31229,
    "▁racist": 23713,
    "▁Nicholas": 22509,
    "▁necessary": 1316,
    "Tag": 23593,
    "▁arbitr": 17834,
    "▁plă": 15381,
    "▁Mat": 5708,
    "▁Yellow": 12035,
    "▁bulbs": 18851,
    "mari": 17289,
    "▁chaotic": 28968,
    "ajouter": 15384,
    "▁nostalgic": 29682,
    "▁credibility": 20327,
    "▁niciodată": 17248,
    "einander": 10517,
    "ITA": 21524,
    "▁mousse": 24971,
    "▁ép": 13508,
    "lucht": 28715,
    "▁mediator": 26882,
    "▁barrier": 12515,
    "▁Pharma": 17823,
    "▁thin": 5551,
    "<extra_id_96>": 32003,
    "sliced": 23645,
    "▁reveal": 6731,
    "▁Mormon": 29718,
    "▁Bern": 8942,
    "▁marc": 14124,
    "pvc": 26415,
    "DAY": 12860,
    "abia": 15932,
    "▁erhöhen": 27361,
    "▁punct": 5427,
    "mont": 4662,
    "▁Creator": 19564,
    "▁win": 1369,
    "▁Noch": 21017,
    "▁commodities": 27592,
    "▁hosting": 4434,
    "▁Practical": 26796,
    "Articolul": 27101,
    "▁modificări": 23399,
    "deutschland": 28825,
    "ivi": 11687,
    "▁Secondary": 24420,
    "▁Samantha": 29298,
    "▁cat": 1712,
    "▁past": 657,
    "▁părere": 28970,
    "▁novembre": 13123,
    "▁zonă": 22607,
    "SAN": 19976,
    "bedingungen": 17391,
    "▁Methodist": 24884,
    "▁Hab": 11006,
    "Associated": 26138,
    "▁funny": 6613,
    "▁Fish": 9548,
    "▁orthodontic": 29371,
    "2.8": 19419,
    "complemented": 30877,
    "host": 12675,
    "▁utilizare": 17751,
    "!!!!": 12887,
    "▁allergies": 18500,
    "zzle": 15133,
    "▁Umwelt": 14349,
    "▁Water": 2336,
    "▁beef": 9177,
    "▁surprised": 5597,
    "▁Imp": 14472,
    "▁Bali": 20241,
    "▁Ireland": 5316,
    "just": 4998,
    "schul": 14800,
    "friendly": 4905,
    "▁humble": 15084,
    "▁stabil": 7856,
    "▁livres": 12310,
    "▁produc": 14795,
    "▁Brun": 16399,
    "▁removed": 3641,
    "▁Christian": 2826,
    "louer": 31146,
    "▁Advocate": 28040,
    "▁clasic": 15006,
    "▁doubt": 3228,
    "reputable": 16921,
    "▁livrare": 21458,
    "▁In": 86,
    "▁riches": 20816,
    "did": 12416,
    "lands": 6347,
    "riv": 5927,
    "▁Celtic": 21748,
    "▁hilft": 18144,
    "▁remarc": 19048,
    "gefangen": 26277,
    "▁acasă": 17299,
    "▁Pick": 8356,
    "▁tape": 4874,
    "▁rhino": 29586,
    "▁breaks": 9797,
    "▁homeless": 15876,
    "jurul": 11311,
    "▁survival": 9990,
    "▁Treatment": 13516,
    "lib": 6856,
    "▁mattress": 8841,
    "domain": 22999,
    "▁diferit": 19468,
    "▁Bathroom": 10345,
    "▁2016.": 4619,
    "▁Brush": 21885,
    "▁Werbe": 18394,
    "▁Lust": 21284,
    "▁appointment": 4141,
    "▁AMD": 22806,
    "▁Unterschied": 19195,
    "▁markets": 3212,
    "▁4:30": 29505,
    "▁thread": 4546,
    "▁catastrophe": 25334,
    "▁clicked": 26216,
    "bespoke": 18713,
    "▁find": 253,
    "▁Cycle": 23077,
    "▁reduziert": 25267,
    "▁generated": 6126,
    "▁29,": 14405,
    "▁Blessed": 29992,
    "▁flooding": 18368,
    "Entwickler": 30558,
    "▁plaid": 30772,
    "▁inca": 7612,
    "hilfe": 11371,
    "▁choisir": 10675,
    "▁präsentiert": 19833,
    "▁procent": 23781,
    "▁minimalist": 19487,
    "▁expus": 27842,
    "▁mica": 18196,
    "Pass": 20192,
    "▁extensions": 15176,
    "HA": 5478,
    "sorge": 18970,
    "technisch": 24985,
    "▁Gib": 17223,
    "▁municipality": 27597,
    "▁Experimental": 30871,
    "Luc": 11748,
    "▁awkward": 18267,
    "arth": 10702,
    "▁wer": 14509,
    "▁courteous": 28490,
    "▁unterwegs": 18177,
    "▁Spring": 4328,
    "▁seating": 10259,
    "▁Besuch": 13352,
    "▁reasoning": 20893,
    "▁crezut": 30086,
    "cum": 6361,
    "2.5": 15967,
    "quelles": 17118,
    "▁Swim": 27813,
    "▁buzz": 15886,
    "▁normal": 1389,
    "▁crib": 25555,
    "▁naz": 28577,
    "▁diversity": 7322,
    "▁bands": 9760,
    "▁respective": 6477,
    "▁Sec": 14969,
    "▁protective": 13310,
    "▁praktisch": 16390,
    "▁manga": 20796,
    "bestand": 28541,
    "SF": 7016,
    "184": 25987,
    "▁Richard": 4117,
    "▁cough": 19222,
    "slipping": 29750,
    "▁fears": 14935,
    "ish": 1273,
    "schreib": 16763,
    "▁ordinary": 9495,
    "▁fr": 2515,
    "▁missile": 16953,
    "▁crore": 23095,
    "teilen": 10307,
    "▁Erfahrung": 11123,
    "▁hardship": 24407,
    "▁Little": 5258,
    "▁Multiple": 16821,
    "lucrarea": 30332,
    "▁Two": 2759,
    "cross": 11465,
    "▁encouragement": 17427,
    "▁Region": 6163,
    "gelassen": 20659,
    "нов": 31545,
    "tian": 12572,
    "▁metaphor": 21253,
    "▁injury": 2871,
    "cruci": 22052,
    "▁greu": 7968,
    "▁pourrait": 11022,
    "183": 24361,
    "zugehen": 28758,
    "partnered": 19370,
    "▁travailler": 14770,
    "▁concentrat": 28038,
    "combines": 15256,
    "effekt": 27112,
    "nourishe": 31991,
    "▁Front": 7383,
    "▁wrist": 14552,
    "LD": 9815,
    "▁mint": 13983,
    "▁pop": 2783,
    "▁School": 1121,
    "▁früh": 13558,
    "TON": 16270,
    "▁cover": 1189,
    "▁occupation": 13792,
    "▁Naţional": 14887,
    "▁Trinity": 20699,
    "offrir": 14573,
    "▁europene": 16459,
    "▁classique": 14589,
    "▁iunie": 13981,
    "▁user": 1139,
    "sol": 4099,
    "▁Grafik": 24278,
    "▁dog": 1782,
    "▁Price": 5312,
    "▁solo": 6729,
    "<extra_id_61>": 32038,
    "▁verbessern": 22372,
    "▁Rin": 16602,
    "▁acceptable": 9961,
    "▁formulation": 20029,
    "ţa": 6249,
    "!!!!!": 17065,
    "▁Porsche": 19763,
    "▁farther": 25300,
    "▁démo": 27202,
    "▁besucht": 22361,
    "▁Desk": 19047,
    "vorsitzende": 31569,
    "pedia": 24477,
    "ASA": 21245,
    "▁incendiu": 31408,
    "45": 2128,
    "▁Sel": 11471,
    "▁incalzire": 31269,
    "▁semaine": 9007,
    "▁elsewhere": 8975,
    "▁japonais": 26856,
    "▁Now": 852,
    "▁bani": 7274,
    "▁Stamm": 25009,
    "▁2011.": 8088,
    "5.6": 25134,
    "mer": 935,
    "écrivain": 30468,
    "▁Schwe": 9430,
    "ECO": 20482,
    "izarea": 7068,
    "▁painful": 10875,
    "▁charcoal": 24181,
    "geben": 6186,
    "▁politicians": 13446,
    "▁Blogger": 22617,
    "Islam": 30791,
    "rö": 9870,
    "▁lui": 759,
    "▁manage": 1865,
    "energy": 24310,
    "fortunately": 29178,
    "eed": 6958,
    "▁pitch": 6242,
    "▁Finger": 16625,
    "▁kompetente": 29025,
    "▁revanch": 26098,
    "▁Launch": 17113,
    "kg": 8711,
    "▁miliarde": 20178,
    "▁Sale": 5774,
    "▁Gab": 15894,
    "weil": 15337,
    "▁disturbance": 25595,
    "▁Cab": 10916,
    "▁Ethics": 25577,
    "cker": 3383,
    "fiber": 27629,
    "▁Mann": 6362,
    "trade": 16628,
    "CSI": 26362,
    "▁cheer": 11288,
    "▁Tickets": 11481,
    "▁Band": 4483,
    "icillin": 31027,
    "▁Zusammenarbeit": 15671,
    "AUD": 22711,
    "▁consistently": 8182,
    "filter": 22240,
    "▁carriage": 24124,
    "Pflanz": 29984,
    "ix": 2407,
    "▁Already": 25103,
    "Pro": 3174,
    "▁Etats": 20628,
    "▁intriguing": 19425,
    "ovic": 13388,
    "éanmoins": 23035,
    "▁Chine": 15255,
    "cina": 11075,
    "imposing": 26781,
    "▁Blick": 7766,
    "cardi": 16464,
    "navigating": 27016,
    "108": 16169,
    "RP": 6294,
    "▁consultants": 14135,
    "▁Copy": 20255,
    "supported": 29249,
    "reihe": 25053,
    "wel": 9803,
    "Besides": 8500,
    "▁chercher": 23341,
    "LI": 8159,
    "oop": 6631,
    "▁compromised": 22001,
    "optimisation": 27040,
    "(2000)": 31804,
    "▁Ernährung": 19295,
    "ämlich": 15828,
    "▁urmeaza": 25554,
    "▁școli": 29602,
    "țele": 10502,
    "dox": 11990,
    "rträge": 22957,
    "▁Direkt": 20980,
    "wald": 11611,
    "▁principles": 5559,
    "▁entlang": 23628,
    "▁decreased": 13665,
    "▁addiction": 9189,
    "▁indicate": 6360,
    "doc": 7171,
    "▁aprilie": 12624,
    "▁provided": 937,
    "▁Test": 2300,
    "▁rocket": 15721,
    "▁groove": 17956,
    "▁scientist": 17901,
    "coming": 10622,
    "▁laser": 6124,
    "▁sunny": 13546,
    "brechen": 22843,
    "▁tarziu": 27854,
    "▁custom": 1653,
    "▁filing": 9479,
    "▁gesture": 17374,
    "▁Cin": 16548,
    "pus": 7800,
    "▁Drake": 24823,
    "▁publice": 12648,
    "▁Angst": 20606,
    "▁même": 1398,
    "▁Gamb": 18893,
    "▁nations": 9352,
    "▁präsentieren": 25673,
    "▁CMS": 18128,
    "▁durable": 5366,
    "rav": 11852,
    "match": 19515,
    "HL": 13641,
    "ăci": 23866,
    "Première": 30803,
    "▁speakers": 7215,
    "little": 26192,
    "▁sud": 8411,
    "mped": 18109,
    "outskirt": 31473,
    "▁Compliance": 24779,
    "▁sequencing": 30117,
    "soucis": 29987,
    "▁Charity": 25997,
    "▁kinds": 4217,
    "▁jewel": 21863,
    "▁ceci": 27745,
    "lateral": 12088,
    "▁memo": 22986,
    "▁conduc": 17689,
    "olé": 20704,
    "▁au": 185,
    "▁Brown": 3899,
    "boarding": 13993,
    "▁drown": 24614,
    "▁Hafen": 28290,
    "▁Felix": 23354,
    "evoke": 17943,
    "▁comp": 2890,
    "▁longue": 12280,
    "esel": 20736,
    "▁surprising": 10306,
    "▁wrong": 1786,
    "La": 3612,
    "▁survivors": 20983,
    "▁ziua": 9073,
    "Laure": 19281,
    "▁Recipe": 22272,
    "▁(4": 8457,
    "▁pickup": 12820,
    "▁iarna": 21781,
    "▁Rou": 10898,
    "▁relevant": 2193,
    "rhythm": 30793,
    "▁cânt": 19493,
    "▁întâmplă": 21547,
    "▁slower": 17553,
    "▁wholesale": 13854,
    "▁Zhang": 28015,
    "kreuz": 28185,
    "DF": 10665,
    "▁tale": 5221,
    "▁medication": 7757,
    "World": 17954,
    "▁touring": 19892,
    "▁vizita": 18157,
    "▁Meeting": 9198,
    "▁thanks": 2049,
    "reinigt": 30867,
    "▁customization": 22039,
    "▁north": 3457,
    "▁Penn": 11358,
    "▁gear": 4124,
    "▁Strange": 22115,
    "seitig": 13584,
    "berg": 2235,
    "person": 6075,
    "▁vesti": 20299,
    "montag": 24563,
    "▁Scripture": 17999,
    "▁cultural": 2779,
    "▁answers": 4269,
    "7%": 6170,
    "hov": 23304,
    "▁Minnesota": 9745,
    "▁deloc": 19218,
    "▁societăţi": 29212,
    "▁sound": 1345,
    "▁Colour": 19640,
    "betroffene": 25191,
    "▁apa": 4938,
    "▁were": 130,
    "▁processing": 3026,
    "▁Sprinkle": 26121,
    "patented": 22370,
    "▁develop": 1344,
    "impede": 28838,
    "▁Wow": 9758,
    "▁Hoffnung": 28242,
    "dichte": 23876,
    "▁décembre": 12987,
    "▁purity": 27850,
    "▁aprecia": 30034,
    "▁mulch": 30330,
    "▁disinfect": 30929,
    "▁traduc": 16486,
    "▁toward": 2957,
    "unable": 6319,
    "▁dairy": 13688,
    "alcoholic": 21683,
    "▁didactic": 22994,
    "▁virtue": 15768,
    "midst": 12342,
    "▁présentation": 20209,
    "▁Rhein": 17565,
    "▁theory": 4516,
    "adversaire": 31747,
    "▁Bi": 2106,
    "ookie": 21132,
    "<extra_id_29>": 32070,
    "▁sympathetic": 29154,
    "heit": 4474,
    "▁rats": 20063,
    "▁joining": 6109,
    "▁account": 905,
    "750": 9979,
    "▁dur": 11184,
    "<extra_id_89>": 32010,
    "nţă": 10054,
    "IQ": 20835,
    "▁sowie": 1885,
    "▁Exclusive": 24463,
    "acted": 9925,
    "Account": 31963,
    "▁Prison": 27344,
    "<extra_id_59>": 32040,
    "news": 15808,
    "profile": 18816,
    "viol": 11275,
    "ESS": 10087,
    "▁respins": 31852,
    "▁property": 785,
    "▁together": 544,
    "▁getestet": 28529,
    "▁flag": 5692,
    "▁eyes": 2053,
    "▁economie": 29834,
    "157": 27452,
    "▁learners": 15257,
    "▁acres": 9704,
    "▁Monde": 22603,
    "Isra": 30290,
    "▁duplicate": 19197,
    "▁transistor": 30924,
    "▁properties": 2605,
    "▁suggér": 31967,
    "▁interactions": 9944,
    "AV": 6968,
    "▁Produktion": 13930,
    "▁Life": 2330,
    "▁Week": 6551,
    "While": 27674,
    "▁divin": 23567,
    "▁wheel": 5094,
    "letting": 8035,
    "▁sold": 1916,
    "▁Meer": 14255,
    "<extra_id_36>": 32063,
    "destined": 26677,
    "dachte": 26232,
    "onné": 18084,
    "▁eCommerce": 26642,
    "geschwindigkeit": 28053,
    "cette": 922,
    "150": 12278,
    "ţiunea": 26167,
    "wach": 10674,
    "▁person": 568,
    "▁simt": 10174,
    "▁up": 95,
    "▁authentic": 6876,
    "▁Tal": 11350,
    "APP": 13747,
    "▁mi": 1337,
    "lton": 7377,
    "▁lit": 4996,
    "▁proposé": 11086,
    "▁congratulations": 29138,
    "▁Comment": 5257,
    "▁flu": 6720,
    "▁disciplin": 30741,
    "▁stone": 3372,
    "painters": 29581,
    "▁2014-11-": 31831,
    "▁unfortunate": 20343,
    "prezintă": 22258,
    "▁évident": 29500,
    "ham": 1483,
    "zeit": 2207,
    "▁rent": 3170,
    "▁deceased": 22449,
    "serviciile": 16650,
    "rich": 3723,
    "▁rentals": 15981,
    "▁Destin": 19344,
    "▁neuro": 6567,
    "▁retain": 7365,
    "▁check": 691,
    "▁mindful": 22394,
    "▁verwendet": 8533,
    "client": 26693,
    "ill": 1092,
    "cic": 13241,
    "▁discount": 3898,
    "▁numérique": 13793,
    "luci": 12804,
    "▁retrospective": 29825,
    "▁prezentat": 14980,
    "▁convention": 8346,
    "▁mondial": 12175,
    "▁simpla": 24846,
    "▁Tochter": 23860,
    "utilisant": 23529,
    "▁checked": 7122,
    "nov": 5326,
    "countless": 11394,
    "▁appointed": 7817,
    "▁diff": 20624,
    "▁Plain": 16323,
    "▁Lorraine": 31419,
    "▁Luck": 25408,
    "▁adanc": 30018,
    "▁sets": 3369,
    "▁pragmatic": 29810,
    "May": 15881,
    "▁suffi": 10286,
    "▁volum": 15265,
    "▁Coleman": 27235,
    "▁Pastor": 16365,
    "▁rejoice": 31418,
    "▁modifier": 21090,
    "▁tell": 817,
    "▁caracteristic": 23409,
    "▁Frank": 4937,
    "▁matériel": 13097,
    "▁blister": 29113,
    "▁blueprint": 28471,
    "peptid": 21826,
    "▁NATO": 17873,
    "Quelques": 29134,
    "savvy": 23185,
    "chol": 14297,
    "▁competiți": 28613,
    "▁litig": 22427,
    "▁condiment": 26965,
    "▁Stufe": 28756,
    "▁varietat": 30508,
    "▁groups": 1637,
    "▁majeur": 18541,
    "tsch": 10904,
    "▁extended": 4760,
    "▁changed": 2130,
    "born": 7473,
    "▁public": 452,
    "▁generations": 9298,
    "▁terminé": 26732,
    "▁nouveaux": 10190,
    "▁Many": 1404,
    "▁Dritte": 15798,
    "▁http": 2649,
    "RAD": 21577,
    "▁acumulat": 28320,
    "let": 1655,
    "énorme": 28401,
    "▁behavior": 3889,
    "Empfänger": 31816,
    "04": 6348,
    "klassischen": 25817,
    "absence": 23767,
    "▁Trocken": 30490,
    "▁Flughafen": 24302,
    "illian": 23306,
    "▁später": 8908,
    "▁90%": 12669,
    "▁except": 3578,
    "▁immersion": 27704,
    "▁servicii": 8025,
    "BT": 9021,
    "although": 18252,
    "▁impairment": 22018,
    "▁nevertheless": 17516,
    "▁tears": 12795,
    "linux": 31016,
    "▁Reef": 28972,
    "▁overview": 8650,
    "▁dotat": 25406,
    "unauthorized": 22556,
    "▁egg": 6182,
    "ire": 2060,
    "▁vér": 22397,
    "passion": 26249,
    "▁pièce": 14494,
    "shu": 14279,
    "▁propuneri": 30295,
    "▁Never": 8400,
    "▁Leaf": 19407,
    "▁ma": 954,
    "▁Gov": 17416,
    "▁rezultatul": 24645,
    "▁southwest": 25044,
    "▁unlikely": 9909,
    "▁Snyder": 31067,
    "empre": 25569,
    "▁Că": 13540,
    "filled": 13827,
    "▁goût": 14336,
    "▁business": 268,
    "▁trained": 4252,
    "▁verändert": 22072,
    "▁forte": 14188,
    "▁inconsistent": 26608,
    "▁nominal": 19680,
    "kno": 24458,
    "minus": 14078,
    "▁venue": 5669,
    "60,000": 24620,
    "▁Borough": 28666,
    "ри": 14709,
    "2:00": 24112,
    "ies": 725,
    "February": 31122,
    "dach": 11691,
    "▁gouvern": 28948,
    "▁accelerate": 16845,
    "Patri": 20742,
    "▁advisor": 8815,
    "▁networks": 5275,
    "▁avant": 2885,
    "▁comunic": 17417,
    "▁Tampa": 18855,
    "▁Belgique": 27266,
    "▁Koch": 16608,
    "▁constructii": 30091,
    "▁Res": 7127,
    "▁Bedeutung": 16144,
    "ouille": 23102,
    "05": 3076,
    "genügend": 28078,
    "▁Ple": 14164,
    "▁startups": 17675,
    "BC": 7645,
    "▁Federation": 14828,
    "▁Colegi": 27469,
    "▁réalisée": 21498,
    "▁wise": 7624,
    "posi": 19882,
    "▁Cu": 1839,
    "▁bedroom": 2923,
    "▁difference": 1750,
    "pul": 4801,
    "TUR": 21164,
    "▁reconnect": 28514,
    "dic": 4370,
    "échange": 11447,
    "effect": 23677,
    "▁Cr": 8427,
    "▁broke": 8238,
    "▁weil": 5603,
    "▁reaction": 6363,
    "▁Hawk": 12833,
    "fried": 7704,
    "▁rău": 17647,
    "▁GmbH": 7635,
    "▁Bau": 3528,
    "▁Geschenk": 19777,
    "▁worn": 8842,
    "▁name": 564,
    "▁rehabilitation": 15602,
    "dehors": 25648,
    "▁2010": 2735,
    "monies": 26413,
    "▁decisiv": 24134,
    "vention": 13858,
    "▁condemn": 24326,
    "station": 6682,
    "▁bronze": 13467,
    "▁volonté": 20904,
    "▁izolat": 29542,
    "raz": 7275,
    "▁almond": 15764,
    "▁shade": 7891,
    "▁landscaping": 18636,
    "▁note": 2232,
    "wiki": 17193,
    "Trader": 21923,
    "▁comenzi": 18097,
    "geschehen": 30829,
    "▁foloseste": 26318,
    "▁redeem": 22163,
    "GN": 13738,
    "▁scheint": 18449,
    "▁present": 915,
    "▁caps": 16753,
    "▁strength": 2793,
    "tari": 5310,
    "▁Rush": 20710,
    "▁electric": 2806,
    "ery": 4203,
    "Visiting": 30338,
    "▁casino": 2653,
    "donating": 28004,
    "ordinea": 29507,
    "▁empathy": 23950,
    "tran": 11665,
    "orial": 11929,
    "▁comfy": 18665,
    "▁remains": 3048,
    "RAF": 27380,
    "▁citat": 26089,
    "▁anymore": 7595,
    "▁familie": 12221,
    "▁scissors": 28958,
    "▁Hook": 21896,
    "▁Discussion": 16330,
    "▁followed": 2348,
    "▁gesichert": 31837,
    "▁Schmidt": 24100,
    "▁Legacy": 24843,
    "▁wann": 14371,
    "hottest": 22364,
    "▁Standard": 5150,
    "▁2,": 3547,
    "alism": 6835,
    "▁Wireless": 17202,
    "livré": 27836,
    "▁Perth": 22343,
    "tral": 8792,
    "▁tablet": 7022,
    "atiile": 18743,
    "▁aceasta": 2424,
    "▁inflatable": 28793,
    "▁Excellence": 17929,
    "laufen": 8068,
    "emploi": 9767,
    "▁Conform": 19726,
    "▁gust": 8829,
    "▁habe": 2010,
    "rechnen": 20664,
    "▁Chic": 20083,
    "▁autonomous": 21286,
    "▁grav": 9714,
    "leveraging": 26072,
    "▁pattern": 3275,
    "▁Carl": 7291,
    "Typically": 17229,
    "X": 4,
    "▁Anregung": 31198,
    "▁simplement": 11730,
    "▁wunderschöne": 23284,
    "amazingly": 26589,
    "▁gambling": 9531,
    "▁partout": 20598,
    "spoiled": 29793,
    "eng": 4606,
    "einheit": 19015,
    "▁nous": 678,
    "öpfe": 21529,
    "▁Gerne": 25247,
    "▁senator": 20596,
    "▁spéci": 28301,
    "Indiferent": 30129,
    "▁combat": 4719,
    "▁compliance": 5856,
    "!": 55,
    "gründe": 12880,
    "▁losses": 8467,
    "▁registered": 3366,
    "▁enthusiast": 26160,
    "▁Afghan": 26283,
    "▁translate": 13959,
    "▁matin": 11317,
    "▁aeroport": 26689,
    "▁Priest": 24582,
    "weist": 23368,
    "▁silicone": 21650,
    "hurst": 23765,
    "▁Bilder": 8740,
    "hängen": 23254,
    "▁Zeichen": 22252,
    "▁retire": 14848,
    "Mon": 9168,
    "▁represent": 4221,
    "veiled": 20321,
    "▁subtil": 25387,
    "▁soll": 3775,
    "▁Inspired": 22783,
    "▁Lebanon": 21502,
    "▁basically": 6171,
    "▁graduat": 20220,
    "lungul": 18757,
    "▁nightmare": 19400,
    "▁Moral": 28466,
    "▁wrote": 2832,
    "▁travel": 1111,
    "cat": 2138,
    "1/": 12989,
    "jour": 18359,
    "▁earth": 3596,
    "festigt": 31902,
    "▁Bright": 17557,
    "▁Ausland": 22056,
    "recognizable": 28766,
    "▁Rein": 14317,
    "▁warn": 17640,
    "▁Kunde": 19415,
    "▁purta": 22442,
    "▁UK": 1270,
    "schädigung": 30047,
    "▁erscheint": 23722,
    "business": 16394,
    "Proiectul": 25882,
    "▁Art": 1261,
    "▁generous": 7748,
    "lust": 10008,
    "▁dialect": 28461,
    "▁sticks": 16752,
    "▁cor": 4301,
    "▁marketing": 1070,
    "▁gebraucht": 26862,
    "▁conscious": 13381,
    "▁strip": 7706,
    "▁Struktur": 25886,
    "▁Hindu": 18528,
    "▁joy": 3922,
    "igi": 10100,
    "▁Zimmer": 11519,
    "▁besser": 5305,
    "▁Lagos": 29461,
    "▁Trop": 21361,
    "cada": 17436,
    "▁enterprises": 14876,
    "▁insured": 15581,
    "▁confident": 4881,
    "ionism": 28740,
    "evenimentele": 30774,
    "▁terrifying": 27027,
    "Millennial": 29702,
    "anny": 15159,
    "heft": 20250,
    "▁Watson": 18763,
    "▁prese": 17497,
    "▁Shuttle": 28099,
    "164": 26987,
    "▁comedian": 27870,
    "ografic": 24285,
    "▁singur": 8415,
    "▁rainfall": 24801,
    "kra": 9669,
    "fü": 6335,
    "DH": 15538,
    "Dacă": 4982,
    "▁1986": 12698,
    "▁dispenser": 28042,
    "tile": 8806,
    "▁militant": 20026,
    "▁Crawford": 28777,
    "SL": 5629,
    "wall": 10279,
    "▁Cities": 21111,
    "tür": 11150,
    "▁Clo": 8932,
    "purchase": 29446,
    "▁locations": 3248,
    "▁Trinidad": 31751,
    "▁reduzieren": 31034,
    "▁locuinte": 31768,
    "▁fisier": 30031,
    "▁64": 6687,
    "▁Român": 12322,
    "▁mandat": 15579,
    "formulated": 23148,
    "▁Flugzeug": 30702,
    "terra": 12829,
    "problem": 19307,
    "poli": 3003,
    "Inter": 17555,
    "35": 2469,
    "enţă": 17319,
    "opia": 18916,
    "▁îngrij": 24523,
    "textured": 25616,
    "▁worry": 3516,
    "Multe": 31932,
    "▁aquarium": 24633,
    "▁detox": 16379,
    "▁life": 280,
    "▁Edit": 11664,
    "Espagne": 27525,
    "ates": 6203,
    "▁Barrier": 29147,
    "metabol": 27787,
    "niz": 24362,
    "▁Bravo": 21568,
    "▁names": 3056,
    "USD": 23492,
    "▁remettr": 28217,
    "▁germ": 19652,
    "▁Ces": 6188,
    "cou": 3422,
    "spiele": 15664,
    "▁employees": 1652,
    "▁Ba": 2659,
    "▁Proiect": 29432,
    "▁HOT": 27739,
    "▁bucati": 31325,
    "prepared": 28822,
    "ösen": 18569,
    "▁Lord": 2809,
    "▁haul": 14115,
    "▁schützen": 24225,
    "sensul": 24444,
    "offres": 23049,
    "▁Ox": 20919,
    "▁partnership": 4696,
    "▁femei": 9547,
    "▁Lincoln": 9884,
    "constructed": 30816,
    "▁gekauft": 22186,
    "xx": 19230,
    "▁capture": 4105,
    "▁Yorkshire": 19830,
    "▁habit": 7386,
    "S": 134,
    "▁dvd": 30114,
    "intitulé": 30527,
    "After": 23901,
    "▁(2018)": 28068,
    "▁PO": 9915,
    "▁Bonne": 19933,
    "▁Certificate": 11305,
    "▁Chocolate": 15769,
    "▁simultaneous": 28612,
    "équipe": 9774,
    "ians": 7137,
    "▁créé": 13481,
    "▁match": 1588,
    "▁innovator": 27434,
    "Schwierigkeiten": 31835,
    "▁opera": 6329,
    "▁garant": 16760,
    "▁Werkzeug": 24960,
    "▁finden": 2706,
    "▁Audit": 19895,
    "▁facilities": 2465,
    "▁Lage": 12693,
    "ichtigkeit": 29214,
    "Astfel": 8171,
    "running": 24549,
    "▁antibody": 27198,
    "▁Keyword": 24685,
    "▁retailer": 14543,
    "Mai": 21978,
    "▁ianuarie": 12883,
    "▁droit": 6388,
    "ntino": 28436,
    "▁Friends": 9779,
    "▁fourteen": 27137,
    "▁Fahrzeug": 11786,
    "ç": 8970,
    "forensic": 25519,
    "taire": 5785,
    "▁do": 103,
    "▁Kir": 10976,
    "▁egal": 11218,
    "▁scatter": 24713,
    "▁Cet": 12717,
    "▁Race": 10949,
    "▁vari": 7516,
    "▁Labor": 9836,
    "▁Teilnahme": 21850,
    "▁aggression": 28986,
    "kampf": 21270,
    "▁frec": 30481,
    "▁combo": 15122,
    "▁optimization": 11295,
    "introductory": 23594,
    "▁permit": 5720,
    "▁Floor": 12324,
    "▁testament": 23710,
    "presenting": 12072,
    "ându": 8594,
    "▁Journal": 3559,
    "▁ideological": 30981,
    "▁absolven": 31018,
    "Pap": 15182,
    "apa": 9750,
    "▁advance": 3245,
    "▁Strasbourg": 26992,
    "ectomy": 25492,
    "▁Russia": 4623,
    "right": 3535,
    "DOT": 25819,
    "▁Antique": 24035,
    "▁Energy": 4654,
    "2001": 23658,
    "wert": 6354,
    "▁imperative": 18158,
    "wechsel": 11621,
    "dominated": 16032,
    "▁heads": 7701,
    "▁innocence": 30550,
    "▁gap": 6813,
    "avant": 15990,
    "▁Rated": 19911,
    "▁Municipal": 16492,
    "john": 27341,
    "▁mesaj": 12349,
    "▁substances": 14072,
    "mach": 8276,
    "▁experiencing": 8154,
    "▁suprem": 15859,
    "▁rafina": 30422,
    "▁actors": 10485,
    "▁Deutschland": 4069,
    "▁Har": 3504,
    "▁Roma": 16082,
    "yes": 10070,
    "▁outer": 12231,
    "▁prevail": 23990,
    "▁doua": 3675,
    "ANI": 20629,
    "critical": 25863,
    "noc": 14880,
    "▁saw": 1509,
    "▁Automat": 23672,
    "▁masses": 20286,
    "▁Druck": 10486,
    "rol": 3491,
    "▁HOME": 26496,
    "vorbim": 22189,
    "ages": 2568,
    "▁Fall": 2589,
    "ez": 457,
    "▁Flowers": 20294,
    "▁ago": 977,
    "▁Welche": 12625,
    "▁monsieur": 30643,
    "▁Contact": 3235,
    "▁reproduction": 19192,
    "oral": 8563,
    "▁1966": 20658,
    "cryptocurrencies": 29606,
    "▁Interstate": 28281,
    "▁délicat": 26477,
    "▁Ukraine": 11897,
    "▁Neg": 17141,
    "lutter": 20224,
    "rium": 11879,
    "▁CPU": 13823,
    "▁19": 957,
    "appro": 12497,
    "▁cuprins": 24769,
    "▁jet": 8757,
    "▁type": 686,
    "rolul": 17983,
    "▁interim": 20003,
    "▁noi": 1746,
    "iller": 7613,
    "▁mittels": 21835,
    "▁Earth": 4030,
    "nivelul": 7741,
    "surgical": 31058,
    "ción": 12765,
    "deoarece": 7753,
    "▁argint": 26090,
    "discarded": 29611,
    "▁beide": 5877,
    "▁wear": 2112,
    "▁database": 3501,
    "▁Gestaltung": 20483,
    "essentiellement": 29946,
    "costing": 31942,
    "ling": 697,
    "<extra_id_48>": 32051,
    "▁Erwachsene": 22180,
    "▁expert": 2205,
    "▁head": 819,
    "VS": 14945,
    "▁Sleep": 13190,
    "▁gum": 11406,
    "eşti": 6872,
    "▁Guild": 20777,
    "▁basis": 1873,
    "▁passant": 20997,
    "▁facilement": 13925,
    "▁balanced": 8965,
    "▁SE": 5985,
    "gie": 4044,
    "▁traits": 16843,
    "▁emerged": 13999,
    "▁Merci": 8923,
    "nature": 27440,
    "▁Kauf": 5736,
    "Bro": 22780,
    "▁Venice": 21370,
    "▁Starbucks": 24474,
    "▁vibration": 14570,
    "▁travellers": 23674,
    "▁Illustrator": 31404,
    "▁mozzarella": 29515,
    "▁bestseller": 31666,
    "▁procur": 11892,
    "ether": 16764,
    "artikel": 23413,
    "▁tissu": 19934,
    "tehnologia": 28287,
    "▁Phil": 8188,
    "▁prolonged": 22914,
    "▁Speaking": 14734,
    "surveyed": 25384,
    "▁auszu": 12426,
    "lowering": 23358,
    "▁season": 774,
    "▁dish": 4419,
    "Pad": 21853,
    "▁Pass": 3424,
    "▁Shirley": 29951,
    "▁symbolic": 24981,
    "▁plu": 3681,
    "▁keen": 9805,
    "alegerea": 21749,
    "▁motion": 4644,
    "▁align": 7901,
    "▁customize": 12761,
    "randomized": 30027,
    "▁Chris": 4409,
    "▁criticism": 12334,
    "▁presupune": 21006,
    "gna": 11260,
    "▁vocal": 6721,
    "400": 5548,
    "flüge": 22221,
    "▁attendees": 13229,
    "▁fragrant": 29346,
    "▁crew": 4627,
    "-2018": 20259,
    "▁ordin": 14503,
    "▁non": 529,
    "▁batteries": 9121,
    "▁glance": 15963,
    "OND": 24796,
    "▁Environment": 13706,
    "▁Genau": 23371,
    "▁normally": 4929,
    "▁shortcomings": 31221,
    "▁Collection": 6767,
    "REA": 13223,
    "▁disastrous": 29276,
    "▁justice": 4831,
    "▁occurred": 6935,
    "eiro": 21810,
    "oku": 18512,
    "cast": 5254,
    "Technologie": 14366,
    "▁Asociaţi": 29116,
    "funktion": 14474,
    "worthy": 20139,
    "▁selective": 20459,
    "▁Gedanken": 18952,
    "Biblio": 28798,
    "▁uniquely": 19328,
    "berries": 12093,
    "▁burden": 9054,
    "▁ceva": 3451,
    "▁gewonnen": 23754,
    "▁extern": 21387,
    "153": 27025,
    "▁hour": 1781,
    "▁Stewart": 16496,
    "▁This": 100,
    "▁Faith": 15364,
    "▁dahin": 22688,
    "SP": 4274,
    "unsecured": 31605,
    "ache": 4933,
    "▁recovery": 3938,
    "AP": 2965,
    "▁Brook": 9083,
    "▁apprentice": 29255,
    "▁retrait": 17145,
    "▁1928": 29004,
    "Kon": 18620,
    "▁gifted": 20945,
    "▁communiqué": 25228,
    "▁stamped": 22144,
    "▁lucrat": 18133,
    "▁vegetables": 6205,
    "▁Capital": 5826,
    "rier": 6711,
    "▁Lieutenant": 30943,
    "Tex": 13598,
    "enseigne": 19157,
    "▁prostate": 25567,
    "clusion": 11593,
    "▁fuel": 2914,
    "▁Foot": 15213,
    "▁update": 2270,
    "▁panoramic": 22693,
    "▁15-20": 28601,
    "▁CBS": 19856,
    "▁professionnels": 10676,
    "Aici": 19845,
    "▁sau": 392,
    "▁Travis": 25811,
    "richten": 11156,
    "▁solving": 11795,
    "▁Tun": 16008,
    "▁shy": 17837,
    "▁coarse": 27978,
    "systematically": 28657,
    "▁2008.": 10986,
    "▁bodies": 5678,
    "Africa": 29596,
    "▁glazing": 29301,
    "translates": 29213,
    "bike": 15214,
    "composing": 23278,
    "▁Sunt": 7191,
    "▁trading": 3415,
    "▁(3)": 10153,
    "cord": 7621,
    "▁($": 8785,
    "primarily": 5325,
    "▁mild": 8248,
    "<extra_id_53>": 32046,
    "▁industries": 5238,
    "▁partager": 16398,
    "kie": 11390,
    "grown": 20086,
    "licht": 15519,
    "▁kurz": 7755,
    "▁Kill": 14450,
    "▁explicit": 17623,
    "gespräch": 25365,
    "▁pregnant": 9841,
    "▁concise": 22874,
    "jet": 9245,
    "boro": 14901,
    "▁Prophet": 23416,
    "betont": 27903,
    "▁uncertainties": 30879,
    "▁Pablo": 30017,
    "▁correspondent": 25688,
    "▁nuisance": 30109,
    "espèce": 19683,
    "▁confuse": 27446,
    "▁collector": 12501,
    "▁vereinbart": 24997,
    "SER": 18062,
    "▁dureri": 20007,
    "▁împ": 15112,
    "voir": 8239,
    "▁Mihai": 13664,
    "▁befinden": 19153,
    "▁wander": 10735,
    "▁wheat": 13221,
    "▁Perspektive": 27524,
    "▁effektiv": 23244,
    "▁Schau": 11756,
    "▁consecutive": 12096,
    "▁stability": 7606,
    "▁Plastic": 14892,
    "▁îndepărt": 27050,
    "264": 26755,
    "▁Brighton": 25080,
    "nos": 4844,
    "▁same": 337,
    "▁Preis": 4670,
    "▁Property": 8648,
    "Cap": 19566,
    "▁Lamb": 19211,
    "diction": 12472,
    "▁Medikamente": 30646,
    "▁propaganda": 25071,
    "▁decor": 4469,
    "▁rave": 25226,
    "Lumin": 23255,
    "▁zilele": 16969,
    "mp": 1167,
    "mise": 11248,
    "▁explosion": 16813,
    "stretches": 22562,
    "▁Vancouver": 11680,
    "‘": 5174,
    "▁Un": 597,
    "▁personaj": 18469,
    "7:30": 18078,
    "▁Tam": 10903,
    "<extra_id_64>": 32035,
    "▁imp": 4840,
    "fällig": 15478,
    "▁ministry": 8409,
    "▁ausge": 5639,
    "▁Möglichkeit": 7251,
    "▁Dominique": 30184,
    "▁Expo": 13471,
    "▁troubles": 16973,
    "▁Academy": 4702,
    "▁traded": 18107,
    "▁Examples": 19119,
    "scholarly": 26892,
    "▁sustine": 22731,
    "▁That": 466,
    "▁trigger": 7294,
    "▁ignorance": 26557,
    "133": 22974,
    "▁shows": 1267,
    "appelle": 19654,
    "▁company": 349,
    "POS": 16034,
    "▁key": 843,
    "▁enfants": 5047,
    "▁Bul": 12455,
    "▁bubbl": 28463,
    "▁although": 2199,
    "▁neglected": 23708,
    "ţiei": 6284,
    "▁RO": 10264,
    "▁erfolgt": 10168,
    "▁FIG": 11376,
    "▁longtemps": 16546,
    "▁ieftin": 18349,
    "▁réseaux": 15758,
    "pad": 5612,
    "▁paying": 3788,
    "▁08": 12046,
    "▁PhD": 10360,
    "▁EURO": 27494,
    "▁Übersicht": 26261,
    "rois": 25546,
    "steigen": 15544,
    "▁magazines": 13254,
    "lim": 4941,
    "▁halten": 13203,
    "▁toamna": 27179,
    "▁admire": 17728,
    "▁équipes": 18611,
    "spricht": 17293,
    "except": 20933,
    "▁foloseasc": 31744,
    "ndu": 10170,
    "▁Arch": 9318,
    "▁soir": 12514,
    "partea": 6700,
    "▁demand": 2173,
    "▁doresc": 12055,
    "▁counsel": 11189,
    "▁Manage": 19607,
    "▁console": 8990,
    "We": 1326,
    "▁dort": 5048,
    "▁Real": 2977,
    "avocat": 17200,
    "▁identific": 23318,
    "▁wind": 2943,
    "▁ribbon": 13356,
    "▁profiles": 10958,
    "▁Geräte": 14766,
    "din": 2644,
    "▁Category": 17459,
    "▁*": 1429,
    "▁Las": 7263,
    "▁gefällt": 25533,
    "gebaut": 12482,
    "▁interrupt": 25172,
    "employed": 18749,
    "▁gate": 10530,
    "▁2010,": 8693,
    "▁nails": 17315,
    "CHO": 25683,
    "▁trips": 6846,
    "▁sounds": 2993,
    "▁Fair": 4506,
    "acul": 12457,
    "▁sparkle": 25494,
    "▁blow": 6019,
    "▁relații": 29545,
    "atism": 27803,
    "eezy": 28511,
    "•": 29947,
    "▁verhindern": 26380,
    "consult": 29492,
    "▁alătur": 12059,
    "▁guard": 4879,
    "▁echipa": 6804,
    "rism": 16721,
    "▁Crit": 23679,
    "▁convey": 11770,
    "▁Hills": 9807,
    "▁Rebel": 24438,
    "gesichts": 30227,
    "Dokument": 20127,
    "▁Congo": 24536,
    "▁Mountain": 5617,
    "▁operational": 7763,
    "▁limba": 13459,
    "▁Could": 9348,
    "artă": 24572,
    "▁Davies": 28571,
    "▁schwer": 8937,
    "▁shared": 2471,
    "▁office": 828,
    "explication": 29734,
    "▁blanket": 10934,
    "▁pot": 815,
    "▁tower": 7293,
    "▁1950": 10247,
    "▁efficiency": 3949,
    "▁Min": 4765,
    "finish": 25535,
    "▁established": 2127,
    "▁singular": 22166,
    "▁hier": 1382,
    "▁puissant": 26582,
    "▁Naples": 29287,
    "▁putere": 15799,
    "▁Stafford": 29278,
    "bacterial": 17359,
    "▁Mustang": 25491,
    "▁unprecedented": 19534,
    "AVI": 23412,
    "▁Southwest": 21423,
    "▁scăpa": 30256,
    "său": 11606,
    "MB": 4633,
    "▁grassroots": 29890,
    "veți": 13166,
    "▁Hydr": 21531,
    "Surely": 28186,
    "ceni": 18778,
    "GIN": 24961,
    "▁Prepare": 16386,
    "▁Haupt": 6822,
    "▁annotation": 30729,
    "▁vibr": 19478,
    "RIT": 25066,
    "granting": 29050,
    "▁Creek": 7682,
    "▁incumbent": 28406,
    "▁digital": 1125,
    "5.7": 27220,
    "▁publi": 21339,
    "panel": 28726,
    "▁Discovery": 19499,
    "88": 4060,
    "▁Dahl": 30569,
    "▁outcome": 6138,
    "ordination": 23580,
    "▁Active": 11383,
    "▁findings": 7469,
    "numeroase": 17738,
    "▁flush": 15645,
    "awa": 7396,
    "▁pays": 3277,
    "6,000": 14835,
    "▁fulfilling": 19697,
    "welcher": 17849,
    "deluxe": 27747,
    "▁livr": 16965,
    "▁Disclaimer": 30169,
    "▁songs": 3605,
    "▁Pam": 19412,
    "stift": 25601,
    "▁regizor": 31310,
    "▁Veränderung": 19851,
    "▁featured": 4510,
    "▁Thrones": 29344,
    "ința": 17312,
    "▁possibly": 3673,
    "▁icons": 17469,
    "▁jail": 11796,
    "illon": 8901,
    "▁stehen": 5674,
    "4.": 7984,
    "▁awake": 17101,
    "▁perte": 18941,
    "▁Brisbane": 19286,
    "exposing": 27729,
    "á": 2975,
    "▁patrimoine": 21858,
    "▁Chau": 20264,
    "▁mission": 2253,
    "UI": 7563,
    "▁nine": 4169,
    "▁destination": 3954,
    "▁Carter": 17080,
    "ayne": 21993,
    "verbindung": 30015,
    "▁ALL": 8229,
    "având": 14585,
    "▁quatre": 12081,
    "▁vertreten": 23547,
    "▁Daily": 8496,
    "ktor": 10377,
    "▁sublime": 25781,
    "▁entirety": 26771,
    "▁1919": 27521,
    "▁Shot": 18781,
    "▁liberal": 10215,
    "▁comprend": 16904,
    "▁adus": 14440,
    "should": 25351,
    "borrowers": 28245,
    "▁Order": 5197,
    "▁convince": 15113,
    "▁developing": 2421,
    "savory": 27802,
    "OTO": 22262,
    "▁gaps": 15853,
    "▁batches": 28956,
    "▁descend": 16884,
    "▁Disaster": 29798,
    "▁prea": 4745,
    "▁gegenüber": 11512,
    "▁sympathy": 27907,
    "bung": 11848,
    "tained": 10733,
    "any": 6820,
    "▁subsection": 29233,
    "ournée": 24792,
    "▁Mount": 7964,
    "▁SB": 16757,
    "650": 15348,
    "▁Issue": 13235,
    "drücken": 24806,
    "▁Brenn": 19538,
    "dokument": 26990,
    "925": 28456,
    "▁motor": 2340,
    "▁équipé": 16472,
    "kon": 4470,
    "▁Picasso": 31280,
    "▁Echt": 27064,
    "set": 2244,
    "▁Harrison": 20429,
    "▁blackjack": 23616,
    "▁mental": 2550,
    "zählige": 30305,
    "▁casa": 9366,
    "▁militaire": 27034,
    "▁turquoise": 26857,
    "▁vital": 3362,
    "wände": 31672,
    "▁Jahrzehnte": 29032,
    "▁faszinieren": 31688,
    "▁Type": 6632,
    "kannte": 31045,
    "▁Protein": 17379,
    "▁Concept": 16688,
    "quelle": 6104,
    "float": 12660,
    "valoarea": 17863,
    "▁repos": 14173,
    "6.6": 28833,
    "▁handheld": 27301,
    "▁bypass": 20720,
    "▁Review": 4543,
    "▁höher": 16070,
    "▁irre": 19598,
    "▁sentences": 16513,
    "croft": 30750,
    "LA": 4569,
    "▁editing": 8414,
    "▁FOR": 5652,
    "des": 1395,
    "-7": 6832,
    "▁correspond": 10423,
    "▁poor": 2714,
    "mycin": 25757,
    "▁implica": 10143,
    "▁drip": 25310,
    "▁Screen": 9937,
    "asupra": 3880,
    "▁Emma": 15325,
    "▁charge": 1567,
    "87": 4225,
    "▁unforgettable": 19336,
    "▁Allison": 28169,
    "▁goose": 29669,
    "▁institute": 13681,
    "CAD": 12926,
    "▁signage": 23192,
    "▁Mechanism": 31529,
    "verschiedenen": 7811,
    "▁réalis": 14211,
    "▁Healing": 24969,
    "▁Polizei": 16483,
    "▁Turn": 5527,
    "▁drauf": 27281,
    "▁dedication": 12365,
    "enregistrement": 28333,
    "▁diagonal": 26184,
    "▁piano": 8355,
    "displaced": 27762,
    "▁primul": 5488,
    "▁cabin": 7788,
    "▁Significant": 31417,
    "▁angel": 11831,
    "▁brand": 1056,
    "▁Mick": 25665,
    "▁rides": 14432,
    "▁asking": 3558,
    "▁Conclusion": 29197,
    "▁Watt": 18017,
    "▁height": 3902,
    "▁sus": 4324,
    "bourgeois": 30375,
    "6-4": 25618,
    "▁transport": 1855,
    "▁lettre": 16272,
    "▁Along": 8529,
    "▁ignite": 29444,
    "Darüber": 18103,
    "▁droite": 16872,
    "▁Maroc": 27420,
    "▁pur": 3990,
    "▁anyone": 1321,
    "14": 2534,
    "itty": 17132,
    "isant": 13625,
    "▁security": 1034,
    "▁Outdoor": 9876,
    "▁ottoman": 30100,
    "▁Petit": 13519,
    "wid": 12018,
    "▁configuration": 5298,
    "gang": 3810,
    "▁Tage": 5156,
    "▁Policy": 7587,
    "▁compétition": 24085,
    "▁locksmith": 15307,
    "▁Beat": 14117,
    "»,": 12512,
    "▁curent": 16389,
    "▁Lewis": 9765,
    "▁pana": 3418,
    "hir": 9288,
    "noch": 12555,
    "flexion": 31898,
    "▁Maison": 15194,
    "▁Drop": 14150,
    "▁component": 3876,
    "presedintele": 31500,
    "▁DAMAGE": 30061,
    "▁Umsatz": 25685,
    "▁ankle": 16594,
    "▁crap": 17081,
    "▁hervorragend": 18203,
    "IRE": 14132,
    "aveam": 23647,
    "meister": 13186,
    "QUI": 21672,
    "▁Although": 1875,
    "▁category": 3295,
    "8)": 13520,
    "modalité": 29707,
    "prompted": 18797,
    "Definitely": 21565,
    "▁rev": 5109,
    "▁satisfy": 11132,
    "Seite": 29805,
    "0.5": 12100,
    "▁posterior": 29928,
    "som": 10348,
    "▁mankind": 25575,
    "▁înregistrat": 18849,
    "ușor": 16165,
    "▁Bob": 5762,
    "1-0": 18930,
    "▁Bucuresti": 9435,
    "▁tunnel": 11916,
    "bene": 15719,
    "▁sigur": 7853,
    "▁apporte": 14015,
    "▁zeigt": 7773,
    "▁Spectrum": 29998,
    "▁Downtown": 19434,
    "▁serpent": 30890,
    "▁propane": 27948,
    "▁Okay": 16036,
    "▁Spark": 15036,
    "▁telefonisch": 28587,
    "▁promising": 12894,
    "▁outreach": 16866,
    "▁Beschäftigung": 31021,
    "Registr": 18752,
    "▁tissue": 6316,
    "▁Batch": 28133,
    "▁lounge": 9658,
    "▁Oui": 18926,
    "▁conquer": 24025,
    "▁plafon": 23271,
    "cid": 10812,
    "▁Gray": 13375,
    "▁Kleider": 31168,
    "▁enthusiasm": 14241,
    "▁bases": 14701,
    "▁Made": 6465,
    "▁Ben": 2798,
    "▁Ballet": 23366,
    "▁vingt": 26060,
    "▁appliance": 16307,
    "(6)": 18669,
    "▁Reform": 18490,
    "▁concepts": 6085,
    "profit": 6046,
    "einigen": 12199,
    "▁omul": 18381,
    "ounded": 14471,
    "▁faim": 27083,
    "▁verfüge": 23820,
    "▁unpredictable": 24810,
    "nötigen": 16437,
    "bu": 3007,
    "ôt": 10470,
    "sche": 3992,
    "▁realities": 24684,
    "inne": 14029,
    "▁Influen": 23636,
    "▁Portfolio": 24815,
    "▁zi": 3686,
    "▁violence": 4756,
    "▁Entspannung": 30988,
    "▁Mandarin": 31057,
    "▁gland": 20560,
    "▁GT": 10188,
    "▁Brass": 20154,
    "▁SUPER": 29640,
    "▁Produc": 22966,
    "▁sticky": 19885,
    "▁betroffen": 29237,
    "▁couleurs": 11521,
    "fahrer": 20531,
    "▁warned": 15240,
    "▁Investiga": 29382,
    "bindung": 24759,
    "▁musicians": 11424,
    "swept": 23426,
    "▁Broker": 20696,
    "cion": 20013,
    "▁ski": 5210,
    "interest": 19405,
    "▁internal": 3224,
    "▁Record": 11392,
    "▁Customer": 7327,
    "▁Automobil": 23468,
    "sky": 5352,
    "▁boite": 29550,
    "serv": 3473,
    "▁ivory": 29539,
    "▁$50": 13309,
    "▁answered": 9986,
    "▁confortabil": 25355,
    "▁fact": 685,
    "▁internationaux": 31548,
    "▁overcome": 8269,
    "▁sued": 19557,
    "urban": 19413,
    "▁unemployment": 17646,
    "▁refroidi": 31669,
    "pag": 11057,
    "▁incearca": 29824,
    "▁Purchase": 14839,
    "cul": 1497,
    "führung": 12367,
    "▁Fighting": 30979,
    "▁cloth": 10366,
    "machen": 21349,
    "▁1959": 22471,
    "▁Zug": 15962,
    "ke": 1050,
    "▁weave": 21938,
    "▁groß": 9223,
    "5,": 11116,
    "▁calendrier": 30048,
    "▁Rud": 17806,
    "▁Espa": 28774,
    "resistant": 17835,
    "▁consacré": 24050,
    "▁Ou": 10709,
    "▁Browse": 15373,
    "840": 26311,
    "weit": 8351,
    "▁modification": 12767,
    "stru": 6159,
    "▁adventurous": 23985,
    "▁hue": 18738,
    "▁mănânc": 31308,
    "▁lassen": 3363,
    "maschine": 11938,
    "leitet": 28172,
    "▁Cell": 7845,
    "▁Stadt": 3287,
    "registering": 23455,
    "▁gener": 11467,
    "▁gaming": 7081,
    "▁Create": 6357,
    "▁ON": 9191,
    "▁dauerhaft": 26027,
    "▁steak": 17718,
    "▁communicate": 4521,
    "▁Radio": 5061,
    "▁Leadership": 12665,
    "▁Census": 23086,
    "▁Na": 1823,
    "▁conexiun": 29735,
    "▁plants": 2677,
    "▁arbor": 22561,
    "tex": 10354,
    "Y": 476,
    "▁autobuz": 27672,
    "▁bă": 10110,
    "▁$50,000": 29788,
    "▁bewegt": 28399,
    "▁Femme": 28927,
    "▁issue": 962,
    "▁dureaz": 30231,
    "August": 26579,
    "▁farm": 3797,
    "sieg": 19247,
    "▁hint": 12037,
    "▁Instrument": 13507,
    "▁fichier": 13785,
    "▁Mul": 10094,
    "gefahren": 26997,
    "▁Whale": 30300,
    "▁intrat": 16076,
    "sweise": 15992,
    "▁Gleich": 18335,
    "▁carrier": 9568,
    "RI": 5593,
    "vision": 6610,
    "urging": 25414,
    "▁Cassi": 22889,
    "▁celebrate": 4036,
    "▁Pradesh": 22660,
    "ministru": 19135,
    "▁reduced": 3915,
    "▁underneath": 13483,
    "▁sportiv": 21014,
    "▁parte": 2359,
    "▁downward": 22032,
    "▁projects": 1195,
    "▁AD": 8502,
    "▁Seller": 19980,
    "▁Fact": 11543,
    "37": 4118,
    "nook": 22563,
    "▁commitment": 3148,
    "▁2018": 846,
    "▁staying": 6597,
    "SAT": 17517,
    "ques": 7771,
    "▁placut": 14285,
    "▁fehlen": 21156,
    "▁solutii": 23653,
    "▁Feuerwehr": 22528,
    "▁ermittelt": 30648,
    "▁breast": 6748,
    "▁practitioner": 19609,
    "▁availability": 5576,
    "▁Raymond": 22405,
    "technik": 11193,
    "dir": 12594,
    "▁lovely": 3061,
    "calming": 27303,
    "▁Links": 11368,
    "▁farmers": 7208,
    "▁procè": 29323,
    "▁Länder": 24886,
    "Gig": 20640,
    "consciously": 26355,
    "girl": 18722,
    "▁No": 465,
    "<extra_id_46>": 32053,
    "▁manger": 18837,
    "▁fabulous": 7284,
    "▁erhöht": 21724,
    "▁Force": 5205,
    "▁caractéris": 26561,
    "▁slow": 2684,
    "luta": 30881,
    "cro": 2771,
    "François": 14564,
    "▁matière": 8485,
    "▁fixtures": 14613,
    "▁seen": 894,
    "▁disrespect": 31973,
    "▁app": 1120,
    "▁Lego": 23249,
    "▁software": 889,
    "▁Rule": 17104,
    "town": 3540,
    "▁Olive": 16893,
    "Führer": 30560,
    "▁Engagement": 15557,
    "▁relationships": 3079,
    "▁acquainted": 29740,
    "▁cent": 3151,
    "▁copies": 8167,
    "▁chic": 8780,
    "fensiv": 23039,
    "▁announced": 2162,
    "▁tous": 1739,
    "▁Arad": 21702,
    "▁réussite": 24693,
    "▁generally": 2389,
    "▁16": 898,
    "▁agricultural": 10687,
    "▁folosind": 20018,
    "▁Fabulous": 31440,
    "GR": 8727,
    "▁entdecken": 22865,
    "▁Roh": 13087,
    "▁numerical": 25194,
    "njeux": 27153,
    "▁melting": 25308,
    "▁păcate": 23073,
    "▁commodity": 23070,
    "uncovered": 24530,
    "▁leben": 13180,
    "enden": 4596,
    "ggy": 9559,
    "192": 19978,
    "possesses": 26735,
    "▁repas": 16294,
    "▁emotions": 7848,
    "▁garde": 15408,
    "clav": 18780,
    "▁Nürnberg": 28211,
    "▁présenté": 18709,
    "ităţile": 21688,
    "FT": 6245,
    "Integrated": 22259,
    "▁Grau": 28112,
    "Internet": 22912,
    "▁demonstrate": 5970,
    "▁Edgar": 27151,
    "giving": 14259,
    "▁telescope": 27480,
    "th": 189,
    "wiesen": 24164,
    "▁client": 1188,
    "▁Rox": 26490,
    "▁couple": 1158,
    "▁yellow": 4459,
    "▁1000": 5580,
    "▁cet": 5160,
    "▁alien": 12430,
    "mediated": 26486,
    "▁Cotton": 19502,
    "▁Plymouth": 27043,
    "▁mobilis": 22609,
    "▁criterii": 28745,
    "▁Transit": 24885,
    "▁neuf": 20812,
    "▁francez": 19985,
    "▁incentives": 16844,
    "▁contamination": 21698,
    "niște": 21559,
    "remarkably": 24770,
    "▁rigorous": 17577,
    "Occupational": 29195,
    "▁Inc": 1542,
    "▁peinture": 18853,
    "tors": 5535,
    "850": 17246,
    "▁stripes": 24428,
    "one": 782,
    "procédé": 28386,
    "relevant": 30374,
    "ITY": 15296,
    "▁level": 593,
    "▁bike": 3724,
    "build": 16422,
    "coagul": 28286,
    "▁Coconut": 27238,
    "atur": 6010,
    "▁Testament": 15506,
    "▁Ann": 6206,
    "questioned": 21360,
    "▁licensed": 6681,
    "▁courageous": 29962,
    "▁Traian": 27423,
    "diluted": 28857,
    "église": 25628,
    "▁Cristina": 27800,
    "▁Belize": 28996,
    "▁LIMITED": 31351,
    "▁Ernest": 28031,
    "▁Sper": 17617,
    "▁canopy": 22580,
    "▁drept": 6072,
    "▁fulfill": 10044,
    "messe": 14401,
    "▁academia": 28506,
    "▁Chain": 18627,
    "▁disappeared": 19803,
    "▁Japan": 3411,
    "158": 26556,
    "▁inquire": 22374,
    "▁simultaneously": 11609,
    "▁protecting": 9932,
    "▁ale": 1240,
    "opera": 18140,
    "▁Woman": 18604,
    "▁Strength": 25243,
    "▁social": 569,
    "▁anything": 959,
    "bas": 4883,
    "▁Contest": 21537,
    "▁peripheral": 22586,
    "▁autre": 4538,
    "chor": 19220,
    "ACS": 26865,
    "▁depth": 4963,
    "ega": 12029,
    "▁answer": 1525,
    "▁Cheese": 21060,
    "▁2013": 2038,
    "▁planning": 1459,
    "▁Recomand": 29553,
    "PC": 4051,
    "▁Alan": 12453,
    "▁Amazon": 2536,
    "▁People": 2449,
    "▁throttle": 28731,
    "▁Globe": 20790,
    "▁eingeladen": 27846,
    "▁implications": 12418,
    "▁Baptist": 14849,
    "▁voie": 11771,
    "▁Oz": 15546,
    "▁Odyssey": 29964,
    "▁neighborhoods": 17383,
    "▁Rück": 6479,
    "▁superioara": 31502,
    "colored": 20340,
    "▁streng": 29406,
    "▁Stat": 7135,
    "▁gorgeous": 5296,
    "definite": 14339,
    "therapie": 21765,
    "▁cylindrical": 31881,
    "évolution": 13904,
    "▁Zhao": 30680,
    "RAC": 22034,
    "annon": 17805,
    "conduire": 31017,
    "chete": 17232,
    "adore": 10097,
    "living": 24257,
    "hör": 12782,
    "2-2": 22451,
    "▁sie": 680,
    "▁Additional": 11180,
    "▁glimpse": 15937,
    "▁jumatate": 21444,
    "▁strategy": 1998,
    "▁designation": 21767,
    "▁Forex": 16503,
    "Tech": 9542,
    "▁quarry": 24609,
    "▁Physics": 22139,
    "▁filmmaker": 21075,
    "▁Schnitt": 25397,
    "▁thrust": 25547,
    "▁exercit": 20284,
    "▁Printr": 31147,
    "Black": 20096,
    "▁Rechnung": 20242,
    "▁Research": 2200,
    "▁lively": 18399,
    "151": 26578,
    "Some": 19055,
    "Script": 18255,
    "▁speculation": 22547,
    "▁Editor": 11953,
    "▁Schiff": 19447,
    "▁Nouvelle": 25671,
    "▁alta": 8771,
    "▁nasty": 23147,
    "▁inadequate": 22666,
    "▁Auftrag": 15608,
    "lix": 17591,
    "▁weigh": 11385,
    "▁unravel": 30369,
    "▁WOW": 25847,
    "▁Moving": 15510,
    "▁Recently": 11757,
    "▁ZIP": 25844,
    "▁1982": 14505,
    "▁cand": 2988,
    "cov": 16745,
    "▁At": 486,
    "▁wins": 9204,
    "theater": 26731,
    "▁perturb": 29404,
    "Map": 25760,
    "▁decay": 18907,
    "▁überzeugt": 21778,
    "▁graduation": 14027,
    "▁versuchen": 21609,
    "▁2018,": 4323,
    "▁roller": 10866,
    "mented": 20138,
    "://": 1303,
    "▁trench": 28293,
    "▁started": 708,
    "▁necesar": 7492,
    "▁moon": 8114,
    "IAN": 21758,
    "geb": 13047,
    "▁kindergarten": 23872,
    "▁Edition": 7504,
    "▁végét": 30094,
    "▁180": 8003,
    "rate": 2206,
    "kla": 8142,
    "▁activist": 20622,
    "▁consume": 11037,
    "▁financement": 22275,
    "▁Drug": 11767,
    "▁sédui": 27909,
    "▁Compensation": 29052,
    "▁Production": 11114,
    "▁attraktiv": 22478,
    "▁Cum": 5469,
    "▁facut": 5198,
    "▁helfen": 10025,
    "▁resource": 3487,
    "▁#4": 24156,
    "RIC": 23503,
    "curi": 9659,
    "▁aștept": 17004,
    "▁lead": 991,
    "▁rénovation": 27391,
    "▁Change": 5968,
    "▁comes": 639,
    "▁einfach": 2080,
    "▁lăsa": 17514,
    "▁Fragen": 6906,
    "▁Einrichtung": 17460,
    "▁rush": 10505,
    "MEN": 22952,
    "▁Strategi": 22946,
    "▁Kontakt": 8228,
    "▁Horizon": 18718,
    "gewiesen": 20409,
    "mettez": 31587,
    "▁San": 1051,
    "à": 85,
    "▁negligence": 19360,
    "▁coffee": 1975,
    "prindere": 25482,
    "▁church": 2078,
    "▁seventeen": 30552,
    "iron": 17773,
    "▁exprimat": 28385,
    "▁thermostat": 22062,
    "▁decided": 1500,
    "▁konnten": 10478,
    "▁statistical": 11775,
    "▁Schä": 22880,
    "▁Unique": 16126,
    "▁WEBSITE": 31712,
    "▁Written": 22812,
    "▁Wir": 1185,
    "▁Binary": 29221,
    "▁knock": 7673,
    "▁proceed": 8669,
    "▁reconnaissance": 25643,
    "wächst": 30255,
    "▁enthalten": 14519,
    "rrell": 21290,
    "irri": 16827,
    "grün": 11059,
    "▁Consul": 11540,
    "limb": 9577,
    "▁inevitable": 17508,
    "▁Mi": 2133,
    "▁nécessit": 21433,
    "▁Mu": 4159,
    "▁what": 125,
    "sian": 10488,
    "▁Freiheit": 23002,
    "▁promoted": 14742,
    "▁Kredit": 16920,
    "▁Gallery": 7557,
    "▁gestaltet": 19946,
    "ambogia": 30140,
    "▁rugby": 22209,
    "▁Election": 19488,
    "▁stirring": 19104,
    "cir": 15357,
    "dauert": 22395,
    "▁surgical": 11685,
    "▁pretty": 1134,
    "Disp": 23664,
    "▁mijloace": 21928,
    "asia": 15974,
    "▁announce": 6456,
    "▁étape": 19909,
    "▁Kenya": 12605,
    "▁Echo": 21028,
    "agonist": 28839,
    "▁2006": 3581,
    "ов": 16811,
    "▁hashtag": 25354,
    "▁Heil": 18378,
    "▁Degree": 15125,
    "▁incidents": 15935,
    "shingles": 29673,
    "▁methodologies": 25984,
    "▁Panther": 21149,
    "▁Psychology": 18380,
    "tine": 4070,
    "▁popular": 1012,
    "▁gab": 7852,
    "pharma": 15288,
    "▁partly": 16509,
    "▁finishes": 13084,
    "▁wanted": 1114,
    "▁qualified": 4717,
    "▁vegeta": 19582,
    "OTA": 27976,
    "▁analytical": 18355,
    "▁Haus": 4598,
    "▁ausgewählt": 21561,
    "purely": 18760,
    "▁Caesar": 26218,
    "▁pay": 726,
    "▁mountains": 8022,
    "▁aider": 11582,
    "▁Harmon": 22113,
    "▁annoying": 16241,
    "▁organisiert": 25479,
    "▁Lehrer": 19670,
    "smelling": 31516,
    "▁Memorial": 9107,
    "▁publishers": 18902,
    "▁android": 17729,
    "▁shutter": 18094,
    "▁THIS": 12689,
    "finder": 19417,
    "look": 16800,
    "rescu": 21925,
    "▁celebrity": 17086,
    "turned": 24346,
    "▁repetition": 27351,
    "issement": 9343,
    "▁veröffentlicht": 15261,
    "▁Crisis": 29668,
    "▁Improve": 20825,
    "▁alerg": 17207,
    "▁Epi": 12741,
    "▁governments": 10524,
    "▁True": 10998,
    "bie": 4232,
    "▁bénéfici": 15972,
    "▁prestige": 28322,
    "▁Kids": 7148,
    "▁Fahrrad": 23900,
    "▁Solo": 20499,
    "▁Don": 1008,
    "▁supernatural": 28280,
    "Why": 17891,
    "▁embedded": 13612,
    "▁memorial": 15827,
    "▁country": 684,
    "Dienstleister": 31710,
    "▁Renault": 20493,
    "oul": 7115,
    "stabil": 19614,
    "▁High": 1592,
    "abil": 3587,
    "expériment": 21229,
    "pick": 17967,
    "voluntarily": 26704,
    "▁SharePoint": 27032,
    "les": 965,
    "▁Free": 1443,
    "▁monthly": 3718,
    "▁female": 3955,
    "▁Lock": 10039,
    "PU": 10744,
    "▁Belgium": 15575,
    "▁algorithms": 16783,
    "Veronica": 31873,
    "▁courts": 8773,
    "träger": 18210,
    "▁separate": 2450,
    "▁Die": 316,
    "handel": 10777,
    "toxins": 21703,
    "leaking": 26177,
    "▁spécialisé": 14275,
    "▁opioid": 23139,
    "▁beans": 8845,
    "symmetric": 23596,
    "▁adevărat": 11898,
    "▁Mädchen": 21644,
    "▁mess": 8090,
    "rov": 8843,
    "▁strawberries": 25661,
    "▁criteria": 6683,
    "jährige": 15903,
    "▁Zone": 11628,
    "sensor": 26052,
    "Video": 25838,
    "▁Roland": 22613,
    "▁>>": 14052,
    "fab": 12644,
    "composée": 29530,
    "▁erforderlich": 13512,
    "▁11:00": 25222,
    "▁spa": 4174,
    "▁Ki": 4320,
    "▁favorite": 1305,
    "▁Heroes": 26284,
    "RO": 4630,
    "▁Schaf": 27320,
    "ital": 9538,
    "▁glowing": 25738,
    "trăiesc": 31689,
    "▁powered": 10028,
    "▁precursor": 30073,
    "▁témoignage": 29068,
    "▁Krankheit": 19932,
    "▁Kra": 7356,
    "▁Child": 9364,
    "▁manufacturers": 5360,
    "▁suggests": 6490,
    "▁nicotine": 28459,
    "responsive": 31847,
    "▁Tin": 7138,
    "▁portions": 17622,
    "block": 10734,
    "▁boiling": 22151,
    "Line": 21022,
    "congratulat": 24615,
    "▁implemented": 6960,
    "▁Mine": 13743,
    "▁elektronische": 26523,
    "▁dissolve": 27157,
    "▁syndicat": 23608,
    "▁Chronic": 30393,
    "▁ajutor": 17333,
    "▁écr": 27128,
    "▁vara": 18040,
    "▁trains": 14053,
    "sitter": 27734,
    "▁socket": 16197,
    "▁peau": 13776,
    "▁oval": 17986,
    "Liviu": 25023,
    "▁Collaboration": 30438,
    "▁Columbus": 18751,
    "▁documented": 15552,
    "negotiating": 22469,
    "▁așa": 7941,
    "▁thrift": 30542,
    "▁clergy": 29228,
    "▁vermeiden": 25607,
    "▁renewable": 12475,
    "▁blood": 1717,
    "▁semnificativ": 21103,
    "▁strikes": 17613,
    "▁afterwards": 15627,
    "▁Olivia": 25051,
    "ALA": 23634,
    "▁Cathedral": 19977,
    "430": 25449,
    "visor": 24680,
    "▁maison": 4053,
    "VENT": 24992,
    "uben": 15804,
    "▁Tehran": 31238,
    "▁nation": 2982,
    "▁Works": 12826,
    "information": 6391,
    "▁riding": 7494,
    "▁refugi": 31985,
    "▁imi": 10590,
    "▁Grid": 23644,
    "prinz": 23538,
    "▁updates": 3864,
    "▁draws": 14924,
    "▁photos": 1302,
    "lexic": 30949,
    "vul": 12388,
    "DW": 20293,
    "▁about": 81,
    "EAT": 21613,
    "▁psychological": 11041,
    "▁crossed": 14602,
    "▁autant": 11785,
    "▁Fra": 10323,
    "▁sleeves": 19472,
    "ordained": 31917,
    "▁boyfriend": 18124,
    "ezimal": 21649,
    "▁lange": 6575,
    "itaire": 9862,
    "deprived": 30182,
    "▁Guidelines": 25090,
    "▁adjustments": 14346,
    "▁IP": 3857,
    "▁Proceed": 30869,
    "associe": 30675,
    "▁Mono": 17851,
    "▁crea": 11983,
    "läufig": 27590,
    "▁terrace": 11974,
    "▁replay": 27204,
    "▁Kä": 18585,
    "engraved": 27799,
    "<extra_id_90>": 32009,
    "▁stroke": 9529,
    "▁showing": 2924,
    "▁gallery": 4865,
    "▁milioane": 7350,
    "EMS": 20804,
    "▁Technique": 22222,
    "▁PM": 3246,
    "▁Six": 7643,
    "▁Neben": 7974,
    "са": 25945,
    "WI": 16785,
    "▁getting": 652,
    "bending": 27081,
    ",”": 642,
    "▁Bremen": 26594,
    "▁Fed": 10803,
    "appartement": 16498,
    "eklagte": 27457,
    "▁Este": 2972,
    "▁Domain": 13979,
    "äch": 10332,
    "▁Fund": 3563,
    "iva": 6823,
    "▁transfer": 2025,
    "▁classes": 2287,
    "▁unver": 13705,
    "▁math": 7270,
    "▁request": 1690,
    "▁ship": 4383,
    "▁texts": 14877,
    "▁economist": 20163,
    "▁calories": 10004,
    "side": 1583,
    "▁divorce": 7759,
    "Online": 24227,
    "▁CT": 8668,
    "▁considerable": 10710,
    "▁payroll": 18456,
    "▁artists": 3153,
    "▁Engineering": 5623,
    "▁kennen": 12997,
    "duction": 8291,
    "racking": 22499,
    "official": 20884,
    "▁hole": 6356,
    "achieving": 9582,
    "école": 8517,
    "arii": 3685,
    "▁détach": 31843,
    "west": 12425,
    "roc": 7818,
    "ст": 10458,
    "▁Storage": 10300,
    "▁Monsieur": 24517,
    "▁Tiger": 11804,
    "Aus": 14934,
    "masă": 23712,
    "▁reducere": 16277,
    "guru": 21184,
    "▁ubiquitous": 29840,
    "4-5": 18822,
    "▁Carroll": 26508,
    "▁fit": 1400,
    "▁Energie": 6901,
    "crumbs": 28146,
    "▁happen": 1837,
    "▁gemeinsam": 6602,
    "▁cancel": 9179,
    "usage": 18672,
    "▁fortunate": 14276,
    "243": 27730,
    "OB": 10539,
    "▁tomb": 10351,
    "▁sidewalk": 21393,
    "▁selbst": 2619,
    "▁spare": 8179,
    "▁Identification": 31474,
    "▁Rise": 24103,
    "▁twentieth": 28985,
    "Delete": 28141,
    "exception": 26286,
    "▁Aurora": 23861,
    "▁naturel": 13673,
    "▁highlights": 8285,
    "Feature": 16772,
    "▁lună": 24166,
    "▁Merri": 24330,
    "▁consulter": 21356,
    "effi": 23473,
    "schwarz": 12291,
    "▁sports": 2100,
    "▁securities": 16944,
    "rechtliche": 18785,
    "▁regl": 17186,
    "émi": 15845,
    "jumped": 16287,
    "▁renew": 18486,
    "▁Val": 3833,
    "▁remainder": 19321,
    "▁Warner": 20055,
    "▁area": 616,
    "▁pl": 4752,
    "▁hostel": 23107,
    "impuls": 27090,
    "tion": 1575,
    "▁Track": 8799,
    "▁sampling": 17222,
    "▁outline": 11052,
    "▁@": 3320,
    "▁se": 142,
    "heure": 9419,
    "avec": 20686,
    "▁pieces": 2161,
    "▁unexpected": 7544,
    "possessed": 27345,
    "BRA": 22899,
    "▁appeared": 4283,
    "hébergement": 26310,
    "▁Hotel": 2282,
    "▁suit": 3237,
    "▁chart": 5059,
    "läufe": 25788,
    "by": 969,
    "NP": 9082,
    "▁legislati": 24641,
    "▁stimulus": 26544,
    "▁cazuri": 15063,
    "▁trekking": 29026,
    "▁Presidential": 26230,
    "▁tried": 1971,
    "AMA": 21250,
    "▁ascuns": 24755,
    "hull": 22699,
    "Shop": 16450,
    "▁reset": 12262,
    "▁daca": 2183,
    "▁whiskey": 27971,
    "▁Wohl": 24535,
    "ин": 22420,
    "▁families": 1791,
    "▁Burg": 14343,
    "▁skating": 27033,
    "ive": 757,
    "▁chase": 15389,
    "▁dodge": 26841,
    "ridden": 28629,
    "▁Christ": 2144,
    "Bu": 7793,
    "▁Kur": 8333,
    "▁andere": 2903,
    "hock": 19076,
    "▁flowing": 15401,
    "coat": 18954,
    "▁spouse": 9911,
    "▁Write": 8733,
    "dose": 12051,
    "▁arrive": 3658,
    "▁Que": 7227,
    "▁brake": 9563,
    "emergence": 25120,
    "MED": 21357,
    "▁Sudan": 21986,
    "listen": 20368,
    "▁blender": 18942,
    "▁screaming": 25471,
    "▁perimeter": 26442,
    "▁amalgam": 31870,
    "▁Essential": 17135,
    "stair": 15303,
    "▁années": 5228,
    "▁macar": 16946,
    "▁vêtements": 24316,
    "▁showcase": 7193,
    "▁quarter": 2893,
    "▁competency": 30229,
    "▁manière": 7210,
    "▁montrer": 24311,
    "unci": 15254,
    "hren": 10655,
    "▁red": 1131,
    "▁cunoaște": 29708,
    "▁dependence": 24264,
    "ehr": 7392,
    "▁Estimat": 23621,
    "▁searches": 14397,
    "▁ever": 664,
    "iris": 24804,
    "▁nonprofit": 11069,
    "▁fabric": 3002,
    "▁Weise": 11627,
    "USA": 17663,
    "Democrat": 19679,
    "▁Fool": 31593,
    "▁dominant": 12613,
    "▁schlicht": 27537,
    "▁Valeri": 25996,
    "▁darüber": 9924,
    "oscopic": 23643,
    "▁fenomen": 23068,
    "205": 23201,
    "▁deviation": 25291,
    "▁happiness": 8800,
    "▁Coco": 20014,
    "schau": 8104,
    "GF": 15643,
    "▁urban": 4150,
    "deseori": 31969,
    "▁Unternehmens": 13750,
    "onne": 5993,
    "▁Commonwealth": 21260,
    "▁Module": 20137,
    "auxiliary": 31086,
    "▁parenting": 18929,
    "▁branches": 9678,
    "▁dating": 4134,
    "favored": 27433,
    "Developed": 31192,
    "▁Family": 3712,
    "▁Major": 9236,
    "▁hochwertige": 13174,
    "▁Nous": 2228,
    "stocked": 23378,
    "▁LI": 8729,
    "▁Publi": 31053,
    "▁cure": 10620,
    "<extra_id_78>": 32021,
    "▁sanctions": 17210,
    "pelled": 14528,
    "▁dream": 2461,
    "▁Hi": 2018,
    "▁bias": 14387,
    "▁cream": 3022,
    "▁efect": 14393,
    "▁increased": 1936,
    "▁glorious": 18020,
    "▁loss": 1453,
    "▁domestic": 4422,
    "▁pension": 8645,
    "▁team": 372,
    "atiei": 12067,
    "▁moves": 6914,
    "▁croire": 27368,
    "cli": 14758,
    "▁collect": 2868,
    "logue": 10384,
    "▁Lucr": 23727,
    "▁stint": 28388,
    "découvrez": 30921,
    "▁2000": 2766,
    "tric": 3929,
    "▁opini": 22524,
    "▁erstmal": 16610,
    "▁neural": 24228,
    "▁mesure": 6535,
    "▁Growth": 17435,
    "▁recover": 8303,
    "Psych": 21513,
    "physio": 21324,
    "▁gather": 7479,
    "▁permanence": 31119,
    "▁gefertigt": 28976,
    "▁vitesse": 19486,
    "cite": 8464,
    "▁participated": 10627,
    "▁machiaj": 30173,
    "▁recovered": 16599,
    "▁toute": 2633,
    "▁Management": 2159,
    "▁responsabilité": 16439,
    "▁coherent": 28911,
    "▁applies": 8275,
    "ennemi": 31025,
    "▁Vintage": 15988,
    "▁adăug": 27851,
    "▁Jeff": 8507,
    "▁travail": 2954,
    "chat": 16842,
    "boy": 7531,
    "vpn": 22760,
    "▁profitability": 21624,
    "▁dispus": 24903,
    "abs": 14623,
    "face": 4861,
    "▁Medicine": 6852,
    "▁Saturn": 24037,
    "▁Jon": 8178,
    "▁aranj": 28439,
    "▁bulk": 7942,
    "▁Us": 6952,
    "ADI": 27775,
    "isten": 7176,
    "▁fuzzy": 31089,
    "▁pancake": 21365,
    "▁faction": 26405,
    "▁enroll": 17990,
    "▁hanging": 7442,
    "▁Archiv": 17189,
    "▁Tarif": 18826,
    "uneori": 17170,
    "▁symbol": 6083,
    "▁worship": 7373,
    "task": 23615,
    "▁investigate": 9127,
    "▁injuries": 5157,
    "▁Craiova": 23315,
    "äng": 7423,
    "▁ein": 236,
    "generated": 29955,
    "wolves": 29219,
    "▁endlich": 17816,
    "▁poem": 14193,
    "▁comprehend": 21494,
    "▁kicke": 19206,
    "iji": 17279,
    "▁loop": 6494,
    "▁Meadow": 23302,
    "▁$100,000": 26954,
    "▁teaching": 2119,
    "reli": 19459,
    "▁Poll": 14457,
    "▁Wander": 12832,
    "▁Wur": 22977,
    "izant": 27499,
    "▁tread": 24735,
    "▁Tagen": 13657,
    "▁About": 4504,
    "▁polyester": 19243,
    "▁folded": 23166,
    "▁Revenue": 19764,
    "▁chambre": 9274,
    "▁century": 2646,
    "▁und": 64,
    "▁Versorgung": 24350,
    "accelerated": 26389,
    "▁modifications": 14172,
    "▁vue": 7207,
    "▁unic": 15344,
    "▁gradually": 11556,
    "▁atteint": 22294,
    "▁stitches": 27199,
    "edit": 11272,
    "▁droits": 12950,
    "<extra_id_25>": 32074,
    "▁Frühstück": 22925,
    "▁Riv": 23878,
    "▁Gain": 22097,
    "lays": 20244,
    "▁Bö": 24010,
    "/2": 13311,
    "▁scor": 14056,
    "▁plat": 5350,
    "▁Kennedy": 14532,
    "▁instinct": 16563,
    "▁compression": 16685,
    "▁hustle": 28372,
    "▁acknowledged": 16974,
    "▁sensitive": 6280,
    "▁5-": 7670,
    "▁Amanda": 21542,
    "▁Porter": 23091,
    "▁Bu": 4708,
    "▁Mail": 9614,
    "▁just": 131,
    "▁3-": 5354,
    "▁Separat": 22198,
    "▁détour": 30748,
    "▁sense": 1254,
    "imi": 4133,
    "ра": 7948,
    "▁foundation": 3361,
    "defining": 16123,
    "▁Stories": 20406,
    "▁réalisé": 13610,
    "▁invented": 20897,
    "▁cinq": 16109,
    "▁vorbe": 13812,
    "▁Rom": 12583,
    "▁personnage": 13989,
    "formation": 14678,
    "▁hypo": 10950,
    "func": 25322,
    "▁Character": 20087,
    "▁list": 570,
    "▁avea": 2563,
    "Diplom": 30905,
    "▁Am": 736,
    "▁passer": 7460,
    "urile": 1165,
    "method": 23152,
    "deem": 26102,
    "▁mercy": 20966,
    "▁Milwaukee": 21140,
    "▁Tab": 10456,
    "▁attractions": 10108,
    "▁profitieren": 25641,
    "▁Olympics": 17793,
    "▁Sinai": 29554,
    "halle": 18369,
    "460": 25991,
    "appar": 10198,
    "ados": 14073,
    "▁Freiburg": 30498,
    "▁recycled": 16402,
    "Apotheke": 29115,
    "config": 20303,
    "stating": 17211,
    "▁protecți": 23657,
    "▁provoke": 29245,
    "▁Prix": 12942,
    "▁expir": 8982,
    "VB": 22086,
    "▁sneak": 14801,
    "pulsion": 20567,
    "72": 5865,
    "▁inspirational": 18445,
    "▁Jacob": 9846,
    "lade": 14712,
    "▁souhaite": 15744,
    "▁proficient": 26314,
    "▁1941": 24822,
    "FB": 15586,
    "▁chapters": 16175,
    "▁roads": 7540,
    "▁horror": 12082,
    "▁demonstrated": 9028,
    "▁argue": 9409,
    "▁Kräfte": 31436,
    "▁vorlieg": 27291,
    "▁confused": 11319,
    "▁nuclear": 6414,
    "mystical": 31225,
    "▁Gourmet": 30419,
    "26": 2688,
    "because": 19112,
    "rect": 12621,
    "ulevard": 26394,
    "▁obsolete": 29451,
    "irii": 9494,
    "▁electro": 9281,
    "▁Cultural": 13432,
    "SN": 8544,
    "intégration": 26489,
    "▁impreuna": 14359,
    "roid": 8184,
    "▁$5": 6422,
    "scriere": 14554,
    "▁cocktails": 19005,
    "nez": 9645,
    "Agence": 30343,
    "▁unii": 14239,
    "Depuis": 11334,
    "185": 21594,
    "CH": 8360,
    "sorption": 15016,
    "▁aminte": 19941,
    "600": 6007,
    "▁constitu": 6439,
    "pig": 9905,
    "▁cow": 9321,
    "traditional": 26374,
    "▁Control": 4330,
    "model": 21770,
    "▁Acid": 18802,
    "outlines": 28896,
    "-8": 6039,
    "▁workspace": 26321,
    "▁Kent": 14599,
    "▁Von": 6560,
    "▁Eddie": 25227,
    "▁André": 24547,
    "▁erheblich": 27554,
    "icrobial": 27543,
    "▁Petru": 26839,
    "▁Heimat": 21335,
    "▁stones": 12906,
    "natal": 16978,
    "▁Alpha": 12503,
    "▁Authorities": 30336,
    "▁balance": 2109,
    "▁Twi": 12119,
    "▁modèle": 10554,
    "▁Gloria": 29678,
    "lip": 7446,
    "▁indem": 11468,
    "▁planted": 15359,
    "▁perpetrat": 28998,
    "▁produse": 5284,
    "ters": 4849,
    "lagen": 9096,
    "1.5": 16593,
    "▁Werk": 10373,
    "▁Submission": 29779,
    "▁Feel": 8979,
    "▁dezvolt": 11464,
    "Th": 8991,
    "▁fatigue": 13034,
    "organisation": 10832,
    "2.": 4416,
    "Finder": 26955,
    "wore": 15295,
    "▁termen": 8216,
    "▁removal": 4614,
    "▁Tru": 7953,
    "O": 667,
    "(4)": 10820,
    "▁packing": 12935,
    "▁watercolor": 27610,
    "▁vu": 9056,
    "▁fraîche": 31263,
    "▁Förderung": 24511,
    "ру": 23912,
    "▁noon": 18472,
    "conducerea": 27402,
    "▁wonder": 3337,
    "▁Masters": 14119,
    "feared": 27625,
    "▁dont": 2483,
    "contenan": 29047,
    "etic": 7578,
    "▁informal": 15347,
    "glu": 13492,
    "▁sezon": 14334,
    "▁informative": 11152,
    "conf": 9707,
    "▁jucător": 21882,
    "nati": 18530,
    "▁lady": 9360,
    "weiß": 18328,
    "▁Relations": 16541,
    "▁Securities": 20571,
    "▁Responsibility": 30848,
    "▁considéré": 25545,
    "▁noapte": 12155,
    "▁Play": 2911,
    "▁nowhere": 16715,
    "▁file": 1042,
    "analysis": 27557,
    "/01/": 29511,
    "spannung": 28279,
    "▁poisson": 22676,
    "▁factura": 27188,
    "▁Share": 7105,
    "▁cemetery": 26150,
    "rain": 6559,
    "founded": 23329,
    "▁Küche": 16011,
    "▁turistic": 20751,
    "▁abnormal": 17947,
    "ées": 1325,
    "▁propel": 24075,
    "▁assets": 4089,
    "gau": 20038,
    "fig": 15994,
    "▁MI": 8161,
    "▁via": 1009,
    "▁irgendwie": 26340,
    "▁Engine": 10612,
    "ären": 15540,
    ",000.": 20202,
    "▁Palm": 8005,
    "▁Alcohol": 21891,
    "▁exclusiv": 16288,
    "EPA": 13986,
    "▁offers": 704,
    "▁începe": 14363,
    "zhou": 25303,
    "▁Webseite": 12384,
    "▁viewpoint": 21897,
    "▁invité": 20271,
    "▁aber": 862,
    "▁balcon": 19615,
    "▁Protestant": 27060,
    "stellen": 5177,
    "▁Ottawa": 19809,
    "▁validation": 16148,
    "lasi": 27702,
    "▁Sicherheit": 11427,
    "▁viaţa": 18427,
    "▁fără": 3799,
    "▁Area": 5690,
    "▁stories": 1937,
    "▁suits": 11246,
    "▁massage": 6967,
    "▁isolation": 15997,
    "elected": 19971,
    "▁bio": 2392,
    "▁Rau": 22041,
    "bag": 7893,
    "▁flick": 19795,
    "▁less": 705,
    "▁guided": 10995,
    "▁proast": 30263,
    "▁Artificial": 24714,
    "▁automatique": 26437,
    "▁suivant": 10125,
    "CK": 10459,
    "nés": 15814,
    "▁pauvre": 24380,
    "▁phenomenal": 24230,
    "▁mele": 12442,
    "▁Bon": 4523,
    "▁Membership": 19428,
    "▁langfristig": 25805,
    "▁panic": 13647,
    "▁2.5": 10603,
    "nahmen": 18321,
    "▁External": 26241,
    "▁diligence": 23206,
    "▁diplomatic": 22535,
    "▁indicates": 9379,
    "▁stabilize": 21323,
    "▁doll": 14295,
    "einfachen": 29266,
    "NIC": 18830,
    "zustand": 27946,
    "▁steam": 7222,
    "▁piaţ": 24791,
    "ffer": 7010,
    "rig": 3380,
    "▁engine": 1948,
    "▁surface": 1774,
    "▁52": 9065,
    "▁TVA": 16806,
    "▁Kensington": 31556,
    "hit": 10536,
    "4.6": 25652,
    "▁livraison": 16913,
    "▁travelling": 10238,
    "▁Cinema": 17544,
    "eira": 15809,
    "▁Personen": 8801,
    "▁effectiveness": 9570,
    "hne": 12836,
    "▁Informationen": 4713,
    "▁TO": 3001,
    "▁Join": 5279,
    "resemble": 17083,
    "Metall": 16659,
    "▁berühmte": 27601,
    "▁furnishings": 19251,
    "▁scopuri": 27131,
    "▁Studierende": 27824,
    "▁agree": 2065,
    "▁states": 2315,
    "▁insect": 16304,
    "▁Spencer": 22577,
    "▁résistance": 24946,
    "▁Persian": 25518,
    "▁intellect": 30354,
    "▁Spiele": 14426,
    "▁hazards": 20992,
    "▁memorable": 10080,
    "▁tricks": 13258,
    "▁solar": 3693,
    "▁pense": 9790,
    "Germain": 31978,
    "litis": 24101,
    "▁afecteaz": 28251,
    "▁Debbie": 29120,
    "▁ventilation": 18426,
    "▁placeholder": 14107,
    "femi": 29480,
    "▁discovery": 9087,
    "Dimensiuni": 31894,
    "égal": 12542,
    "schi": 7074,
    "stacked": 24052,
    "Voilà": 25998,
    "kilometer": 31247,
    "▁Grundstück": 25498,
    "▁Fl": 5766,
    "▁75": 6374,
    "▁Implant": 28329,
    "▁Huang": 29034,
    "▁Nice": 8012,
    "call": 16482,
    "▁pallet": 23590,
    "uch": 2295,
    "glück": 27703,
    "▁opinions": 8479,
    "stan": 5627,
    "buck": 13863,
    "▁incredibil": 30293,
    "▁proprietor": 27966,
    "▁Internal": 18524,
    "▁Ka": 2209,
    "udder": 28002,
    "▁White": 1945,
    "lier": 3299,
    "▁Amy": 13349,
    "▁Village": 7305,
    "▁campus": 4730,
    "para": 6583,
    "AVE": 18111,
    "▁Mike": 4794,
    "▁Sheriff": 22119,
    "▁my": 82,
    "▁tensiune": 30541,
    "▁viewing": 7426,
    "▁racism": 21681,
    "▁Beta": 19696,
    "▁turned": 2120,
    "▁the": 8,
    "wolf": 19747,
    "▁Finland": 16458,
    "▁soldiers": 10838,
    "responsabilitate": 24640,
    "HB": 19990,
    "▁Off": 4395,
    "▁PRE": 22694,
    "▁juin": 11765,
    "▁séparé": 29131,
    "▁cartofi": 30299,
    "tasche": 24363,
    "▁Ed": 4857,
    "▁coursework": 27053,
    "▁Cruci": 30701,
    "▁Covenant": 29141,
    "nig": 7315,
    "▁rings": 10631,
    "günstig": 8169,
    "world": 7276,
    "▁suburban": 24711,
    "▁combustibil": 31948,
    "▁Window": 13621,
    "étaient": 9998,
    "▁aplica": 10589,
    "▁wheelchair": 19443,
    "▁cu": 123,
    "▁publications": 10142,
    "▁ușoar": 31631,
    "▁developments": 11336,
    "tapped": 27267,
    "adjusting": 21604,
    "▁product": 556,
    "▁collecting": 10858,
    "▁formatting": 26222,
    "▁downtown": 7092,
    "soft": 12369,
    "▁retrouv": 21407,
    "▁responses": 7216,
    "▁Harvest": 26204,
    "▁situated": 8382,
    "▁entstehen": 16871,
    "▁Jam": 11340,
    "▁nevoi": 8856,
    "▁fal": 12553,
    "Am": 8123,
    "▁Crack": 23291,
    "▁stream": 6093,
    "▁Positive": 24972,
    "▁Material": 7374,
    "▁gest": 7671,
    "▁regiuni": 27086,
    "▁snappe": 27871,
    "▁Ihre": 1197,
    "▁depending": 3345,
    "▁forgiveness": 22630,
    "▁unleash": 26000,
    "▁Quarter": 17610,
    "ul": 83,
    "forestry": 31197,
    "▁frigider": 28221,
    "▁Welcome": 5242,
    "▁believers": 22754,
    "ва": 16624,
    "▁CE": 9265,
    "industrie": 11623,
    "▁RSVP": 29347,
    "werk": 3458,
    "▁zuverlässig": 22331,
    "▁irit": 30886,
    "▁idle": 26592,
    "▁feature": 1451,
    "▁tips": 2316,
    "turn": 7535,
    "▁conjug": 26648,
    "mä": 15018,
    "▁Pest": 15161,
    "aged": 11438,
    "▁computational": 25850,
    "Luckily": 16996,
    "▁scale": 2643,
    "▁partially": 14610,
    "▁presence": 3053,
    "stone": 3009,
    "asigurarea": 27507,
    "▁fingertips": 26399,
    "▁unfold": 19152,
    "▁Pul": 10035,
    "▁übrig": 25349,
    "▁faced": 7865,
    "▁dorinț": 29722,
    "iker": 10109,
    "▁Witt": 22632,
    "▁disciples": 19424,
    "▁Minister": 3271,
    "▁start": 456,
    "770": 26920,
    "vil": 6372,
    "▁Ranking": 29153,
    "▁Milliarden": 27883,
    "frei": 9477,
    "▁DSLR": 28193,
    "▁Position": 14258,
    "ummies": 30885,
    "▁fine": 1399,
    "▁MAY": 27835,
    "▁McN": 26842,
    "▁dial": 10362,
    "▁good": 207,
    "▁considering": 4014,
    "scale": 6649,
    "▁attach": 9129,
    "▁Held": 26099,
    "▁cantitate": 26161,
    "▁continued": 2925,
    "uß": 6712,
    "▁nostru": 5662,
    "mals": 11014,
    "▁Conditioner": 24668,
    "▁viruses": 19601,
    "▁Chen": 15570,
    "▁cazul": 3824,
    "▁related": 1341,
    "▁Wort": 10507,
    "...": 233,
    "firm": 7001,
    "émission": 18032,
    "▁blend": 4764,
    "▁Beginn": 12847,
    "▁loans": 4724,
    "nd": 727,
    "▁bacteria": 8710,
    "▁Gesellschaft": 11580,
    "verständlich": 27628,
    "▁Gerade": 17411,
    "▁purposes": 3659,
    "age": 545,
    "▁9": 668,
    "plant": 14925,
    "She": 12736,
    "-16": 10892,
    "direct": 21241,
    "<extra_id_22>": 32077,
    "”)": 7058,
    "▁harmonious": 29938,
    "▁sous": 2539,
    "▁bus": 2601,
    "pho": 9553,
    "▁Accessories": 23681,
    "▁conecta": 27082,
    "vita": 12411,
    "▁invade": 24281,
    "▁Libya": 24533,
    "université": 21686,
    "▁technologique": 30009,
    "Palatul": 31554,
    "bitten": 26040,
    "▁younger": 5868,
    "Einen": 31445,
    "▁decorations": 13861,
    "▁Terri": 17495,
    "barkeit": 14487,
    "▁dolphin": 25903,
    "▁Sar": 9422,
    "pinion": 22441,
    "▁presă": 23807,
    "▁zinc": 19347,
    "regulating": 27321,
    "▁booking": 5038,
    "▁dezvoltat": 21718,
    "itori": 15467,
    "▁ideologi": 31001,
    "▁Tunis": 22564,
    "▁routes": 9729,
    "wirtschaft": 15119,
    "struktur": 17071,
    "vista": 17493,
    "cam": 6527,
    "▁stressed": 14718,
    "wissen": 22362,
    "Runner": 23572,
    "▁démocratie": 30962,
    "▁geographic": 20929,
    "▁revised": 15760,
    "▁lavender": 24787,
    "▁Théâtre": 31947,
    "▁uniquement": 16743,
    "uk": 1598,
    "▁firewall": 22462,
    "▁arrested": 10195,
    "▁missions": 14004,
    "▁warmth": 14826,
    "Fortunately": 13469,
    "▁intelege": 21918,
    "urlaub": 26345,
    "▁illegal": 6016,
    "▁podium": 22828,
    "▁Wash": 12429,
    "App": 9648,
    "▁stärker": 25690,
    "▁wastewater": 28735,
    "typ": 12575,
    "▁Einführung": 27007,
    "▁Canal": 18565,
    "▁meet": 942,
    "▁influences": 14780,
    "▁programme": 2486,
    "press": 4715,
    "▁corespund": 31966,
    "▁reinstate": 30861,
    "▁Bü": 21162,
    "SM": 4212,
    "Sollte": 15900,
    "▁slight": 9927,
    "▁vente": 7458,
    "▁Montreal": 17219,
    "Michel": 30123,
    "▁Polish": 16073,
    "▁warrior": 20614,
    "▁offices": 6036,
    "teaches": 11749,
    "▁collage": 24014,
    "▁firing": 19781,
    "▁dys": 16633,
    "▁manual": 3354,
    "▁magnet": 12212,
    "800": 6192,
    "Prof": 23057,
    "▁democracy": 14278,
    "▁basement": 9987,
    "▁Breast": 27206,
    "▁Senate": 7819,
    "▁From": 1029,
    "capacitatea": 21959,
    "▁bandwidth": 19703,
    "▁snap": 10075,
    "▁Alex": 5104,
    "▁not": 59,
    "bit": 2360,
    "▁Ucraina": 30190,
    "▁gluten": 11217,
    "▁110": 11190,
    "▁terrain": 7572,
    "▁nostri": 18212,
    "atoire": 13511,
    "▁humanitarian": 20386,
    "▁discretion": 12962,
    "▁bekannt": 7324,
    "HE": 6021,
    "▁Uttar": 31251,
    "▁Wolf": 9091,
    "▁Festival": 3397,
    "than": 6736,
    "▁Manager": 3440,
    "▁Removal": 21929,
    "CC": 2823,
    "Getting": 9349,
    "▁practice": 1032,
    "métiers": 29085,
    "200": 3632,
    "▁cabinet": 4566,
    "▁found": 435,
    "ignant": 19579,
    "▁inside": 1096,
    "▁maternal": 28574,
    "▁hygiene": 20105,
    "▁incorporate": 6300,
    "▁suprafete": 31507,
    "▁contains": 2579,
    "arbeit": 5269,
    "kredit": 26603,
    "équipement": 22010,
    "gât": 24915,
    "PL": 5329,
    "rushed": 18731,
    "zimmer": 11647,
    "ges": 2897,
    "▁£2": 17586,
    "fotograf": 26515,
    "▁electrical": 4850,
    "▁overtime": 22624,
    "▁direcți": 30088,
    "-19": 4481,
    "▁dépend": 21276,
    "pon": 5041,
    "▁initiative": 6121,
    "▁visage": 21687,
    "▁vide": 20177,
    "▁Ernst": 24625,
    "▁Venture": 19528,
    "öfte": 29863,
    "▁Delphi": 31205,
    "▁observat": 19200,
    "▁constitutional": 18896,
    "▁behalf": 6089,
    "▁Allah": 21329,
    "▁firmware": 20476,
    "▁Camping": 20443,
    "▁Legend": 13637,
    "nicht": 21646,
    "▁Cocktail": 27477,
    "▁swallow": 20370,
    "▁excessive": 10981,
    "▁Harper": 22792,
    "▁innocent": 16679,
    "▁Folk": 19848,
    "▁folos": 16206,
    "▁Basement": 24744,
    "6000": 21987,
    "▁Mobile": 4873,
    "▁Niagara": 27823,
    "▁write": 1431,
    "▁antagonist": 30619,
    "▁Käufer": 24389,
    "▁réduction": 19673,
    "▁compus": 24928,
    "▁etwas": 2800,
    "ended": 14550,
    "Her": 12636,
    "▁realize": 3384,
    "▁AG": 8859,
    "klu": 21355,
    "▁advert": 24118,
    "zahl": 8117,
    "▁départ": 12173,
    "▁Bud": 16440,
    "ouverture": 14398,
    "▁altern": 21934,
    "▁closely": 4799,
    "▁testosterone": 30776,
    "▁Ahmad": 28770,
    "▁spreading": 16436,
    "▁Treat": 16494,
    "▁frei": 6277,
    "▁major": 779,
    "▁clic": 23168,
    "177": 26793,
    "▁Circle": 15697,
    "Asadar": 29988,
    "▁Gin": 15079,
    "▁therapies": 19571,
    "▁LGBTQ": 30664,
    "zione": 26566,
    "▁diffuse": 17443,
    "▁yolk": 30321,
    "show": 10049,
    "Over": 23847,
    "▁Fahr": 12509,
    "bps": 24942,
    "▁Superior": 19463,
    "pregătire": 28729,
    "bodied": 29695,
    "▁restore": 7882,
    "▁villages": 12293,
    "cooled": 22964,
    "gard": 6390,
    "nav": 14128,
    "▁overlay": 25980,
    "▁Taliban": 28408,
    "▁Shiva": 28395,
    "▁grants": 11133,
    "▁article": 1108,
    "tiv": 5499,
    "▁sélection": 10474,
    "▁realizat": 8105,
    "matric": 20705,
    "OK": 13458,
    "▁haut": 7438,
    "▁verbessert": 23848,
    "▁Ski": 7409,
    "▁dentistry": 22721,
    "▁replacing": 11906,
    "următoarele": 29263,
    "arranged": 9741,
    "▁Provision": 28000,
    "pentru": 23198,
    "hnlich": 27723,
    "▁Board": 2086,
    "gefunden": 31202,
    "RED": 13729,
    "Institut": 9496,
    "atului": 8928,
    "Dr": 14561,
    "▁recorded": 4381,
    "▁exc": 11572,
    "cons": 8056,
    "environ": 19659,
    "verarbeitung": 28903,
    "<extra_id_52>": 32047,
    "▁iulie": 16338,
    "▁Quebec": 22649,
    "spritz": 31085,
    "▁Zahn": 15115,
    "▁Eco": 9064,
    "Royce": 30840,
    "cherished": 29720,
    "▁soutien": 15203,
    "▁compelling": 12803,
    "▁Aussage": 24567,
    "▁women": 887,
    "▁Schwerpunkt": 23660,
    "article": 8372,
    "▁informare": 27573,
    "▁Denmark": 18001,
    "▁bound": 8120,
    "▁pub": 11943,
    "aujourd": 29653,
    "▁investitii": 30752,
    "▁guys": 3413,
    "▁Angriff": 25717,
    "directional": 26352,
    "▁entire": 1297,
    "▁erinnern": 25902,
    "LC": 6480,
    "▁Künstler": 16322,
    "tags": 11659,
    "▁kon": 10447,
    "360": 19208,
    "...).": 16463,
    "gorge": 22310,
    "▁jeu": 6680,
    "▁Marseille": 22058,
    "▁Stand": 7351,
    "▁Algeria": 30805,
    "bank": 4739,
    "▁housing": 3499,
    "▁Continue": 13270,
    "▁Princess": 15615,
    "▁dépense": 23417,
    "▁Between": 13095,
    "▁killer": 14804,
    "▁Quand": 14976,
    "▁reguli": 24437,
    "▁Morocco": 25559,
    "▁Joy": 14988,
    "▁deploy": 17274,
    "fall": 2857,
    "▁crops": 15183,
    "▁Colombia": 18898,
    "▁sfârşit": 31854,
    "▁explanation": 7295,
    "poziție": 30532,
    ".\"": 535,
    "▁semifinal": 27504,
    "▁sodium": 19049,
    "▁lavish": 27165,
    "▁Help": 5090,
    "▁assembly": 7889,
    "▁Polar": 19052,
    "▁protéger": 21289,
    "▁Freitag": 17874,
    "▁conseiller": 19316,
    "▁Keith": 17017,
    "▁indépendant": 20346,
    "▁sorry": 8032,
    "Severin": 30814,
    "veti": 9287,
    "▁architects": 19186,
    "▁Linie": 17302,
    "▁Singer": 24366,
    "atsu": 23766,
    "▁realm": 15854,
    "DES": 18284,
    "▁situatie": 28163,
    "▁trouver": 4430,
    "▁Henry": 7780,
    "TZ": 25336,
    "▁Worcester": 26848,
    "▁Avoid": 15856,
    "▁contemporan": 26067,
    "▁Microsoft": 2803,
    "▁WILL": 16309,
    "raft": 10913,
    "▁formulate": 28156,
    "▁publicat": 18736,
    "ffentlich": 24425,
    "▁fotografi": 14624,
    "▁chorus": 26681,
    "▁chief": 5752,
    "ită": 5938,
    "▁destruction": 11203,
    "▁tub": 6244,
    "▁principe": 17361,
    "handed": 20391,
    "▁refreshing": 13132,
    "▁confess": 25613,
    "incarc": 14736,
    "▁extra": 996,
    "nahme": 8369,
    "▁weapons": 7749,
    "▁those": 273,
    "hausse": 22127,
    "nummer": 21676,
    "▁Eltern": 9971,
    "té": 2229,
    "▁mixer": 16188,
    "▁waste": 2670,
    "▁various": 796,
    "▁rebel": 16054,
    "▁Met": 8146,
    "▁instructions": 3909,
    "▁cursuri": 21769,
    "daran": 13702,
    "▁marques": 16577,
    "Download": 28380,
    "▁noir": 9691,
    "Added": 18769,
    "▁herzlich": 19044,
    "AB": 5359,
    "culturii": 26381,
    "▁munci": 16199,
    "merci": 26694,
    "fass": 12837,
    "▁crashed": 24679,
    "▁factor": 2945,
    "rück": 7733,
    "▁Teams": 16651,
    "720": 18517,
    "▁resurse": 18113,
    "▁Che": 2556,
    "▁HDMI": 25331,
    "▁biggest": 2630,
    "nage": 9761,
    "MG": 9306,
    "▁Cel": 9201,
    "▁Conserv": 20534,
    "▁degrab": 26348,
    "▁manifest": 6571,
    "▁NYC": 13465,
    "▁wrestling": 24754,
    "intérieur": 7890,
    "Obviously": 14116,
    "ност": 31585,
    "▁Scientist": 21166,
    "▁winds": 13551,
    "▁marathon": 17625,
    "▁volet": 15667,
    "▁crack": 5261,
    "▁sunrise": 25094,
    "clock": 17407,
    "▁Norton": 28331,
    "▁upgrades": 15694,
    "▁medici": 18170,
    "ließen": 21586,
    "▁conservator": 29341,
    "▁Non": 5388,
    "▁wicked": 25972,
    "▁stop": 1190,
    "schirm": 27912,
    "▁șans": 26931,
    "hausen": 18535,
    "▁distinctive": 11562,
    "▁Berg": 5581,
    "▁odata": 25135,
    "PAL": 28309,
    "omia": 30019,
    "accueil": 11134,
    "▁funcţiona": 31463,
    "▁Contract": 13328,
    "▁miserable": 27293,
    "▁item": 2118,
    "▁syrup": 15928,
    "▁sedan": 24926,
    "▁Card": 4955,
    "▁contrôle": 10418,
    "▁superbe": 20934,
    "verständnis": 31499,
    "deshalb": 13024,
    "▁gestern": 27411,
    "▁potassium": 26110,
    "▁gonfl": 31438,
    "During": 2092,
    "UR": 5905,
    "▁Lili": 29886,
    "▁implies": 18841,
    "only": 9926,
    "▁carcinoma": 31905,
    "▁evenly": 18756,
    "▁foil": 15779,
    "▁associated": 1968,
    "▁Dauer": 20122,
    "▁Communication": 12788,
    "▁posture": 16771,
    "▁Investigator": 24724,
    "nzo": 20547,
    "▁negotiations": 14302,
    "▁phénomène": 26457,
    "oph": 10775,
    "▁Gloucester": 30000,
    "▁skirt": 11028,
    "▁raffle": 28711,
    "▁dealing": 4945,
    "sons": 6577,
    "▁soumis": 27352,
    "▁beantworten": 30544,
    "▁Ancient": 22239,
    "Früh": 24495,
    "▁retract": 29118,
    "▁Oracle": 14617,
    "ell": 3820,
    "▁Trust": 5313,
    "▁pinch": 19785,
    "appareil": 10214,
    "▁Kategorie": 19501,
    "▁satisfaction": 5044,
    "blaze": 21020,
    "▁defence": 13613,
    "▁widespread": 14047,
    "▁gym": 7868,
    "▁phenomenon": 15037,
    "▁think": 317,
    "eptic": 14629,
    "▁Adult": 12318,
    "▁representing": 9085,
    "HM": 20611,
    "Produsul": 29923,
    "▁urinar": 25735,
    "prox": 20042,
    "▁FY": 23263,
    "-2": 4949,
    "▁Bla": 6942,
    "▁Competition": 15571,
    "▁coll": 8029,
    "▁albastru": 30487,
    "▁winter": 2265,
    "▁support": 380,
    "complexities": 30556,
    "▁Jose": 10854,
    "▁active": 1676,
    "30": 1458,
    "utilisent": 30208,
    "mini": 7619,
    "▁Constanţa": 30993,
    "148": 24748,
    "▁statistiques": 31167,
    "▁Ful": 17978,
    "▁recent": 1100,
    "▁vanzari": 29802,
    "cheie": 12686,
    "▁Bug": 16381,
    "▁Sir": 8627,
    "▁relativ": 13105,
    "▁nehmen": 9003,
    "WORLD": 30944,
    "tôt": 6953,
    "▁2002": 4407,
    "▁cottage": 12268,
    "▁20": 460,
    "▁partener": 15105,
    "▁mais": 971,
    "vi": 2099,
    "▁cerut": 19943,
    "▁promptly": 16487,
    "board": 1976,
    "▁condominium": 28354,
    "▁Agency": 7038,
    "causing": 5885,
    "▁burn": 5958,
    "▁toate": 1785,
    "arm": 6768,
    "▁negotiation": 21862,
    "▁merveille": 27015,
    "manned": 28556,
    "ally": 1427,
    "▁Tesla": 19939,
    "▁Need": 5882,
    "▁verdienen": 31289,
    "alternating": 30859,
    "▁Robot": 16574,
    "▁ebay": 22804,
    "▁mon": 1911,
    "▁gasit": 14368,
    "256": 19337,
    "▁algorithm": 12628,
    "Etwa": 29149,
    "▁braucht": 13545,
    "▁locati": 26086,
    "▁Architecture": 14706,
    "▁0,": 8014,
    "▁foto": 14042,
    "▁oferte": 16308,
    "<extra_id_7>": 32092,
    "▁47": 10635,
    "frage": 13137,
    "durant": 12620,
    "sighted": 31576,
    "bon": 5407,
    "▁Smash": 31059,
    "▁comfort": 2115,
    "▁Switzerland": 12527,
    "▁achieved": 5153,
    "ious": 2936,
    "GD": 18405,
    "▁Thank": 1562,
    "▁Foreign": 11957,
    "▁Fla": 7036,
    "lene": 14205,
    "Bru": 9465,
    "▁ultra": 6173,
    "▁Strom": 10969,
    "pé": 3890,
    "▁vessels": 12979,
    "▁représente": 18607,
    "medizin": 25940,
    "▁Teppich": 29333,
    "▁vizual": 28714,
    "▁desired": 5327,
    "▁prochaine": 15383,
    "▁Za": 4904,
    "▁Folge": 15463,
    "absorbed": 19402,
    "treiben": 19028,
    "▁mici": 6148,
    "sponsored": 27959,
    "▁Ron": 10297,
    "▁tribe": 14430,
    "▁vei": 6033,
    "▁chocolate": 3711,
    "process": 15056,
    "▁vederea": 15860,
    "▁simplify": 18356,
    "Firstly": 23559,
    "kar": 4031,
    "▁pairing": 22073,
    "exemplar": 26710,
    "▁acceptance": 11122,
    "-4": 4278,
    "▁harvested": 26048,
    "▁Plus": 2477,
    "complie": 29529,
    "tang": 8967,
    "▁Tor": 3794,
    "▁obligaţi": 29493,
    "▁preferat": 16231,
    "▁Movement": 19954,
    "▁cracked": 21185,
    "▁Tube": 21488,
    "11.": 10032,
    "licate": 26221,
    "▁why": 572,
    "▁manufacturing": 3732,
    "besuch": 27024,
    "personal": 17108,
    "▁cerinte": 30219,
    "▁dice": 20225,
    "engagement": 25123,
    "▁penetration": 25723,
    "security": 19361,
    "cône": 30799,
    "▁suddenly": 8247,
    "haupt": 16512,
    "▁crust": 14094,
    "▁spezielle": 17910,
    "aggregat": 31761,
    "▁determination": 11444,
    "▁anatomy": 27782,
    "proactively": 31256,
    "arranging": 22905,
    "▁2005": 3105,
    "▁grădini": 31915,
    "ains": 13676,
    "▁posibilitatea": 12099,
    "▁Continuous": 31295,
    "▁controlled": 6478,
    "▁formed": 5147,
    "▁landing": 9501,
    "▁riscuri": 29918,
    "▁desktop": 6555,
    "ied": 5973,
    "bestimmten": 20401,
    "▁Illustration": 28310,
    "▁Überblick": 25130,
    "▁(2006)": 28272,
    "participarea": 28937,
    "▁Ferguson": 27461,
    "▁Noir": 21751,
    "loid": 20253,
    "▁manifestation": 15867,
    "▁Découvrez": 19734,
    "One": 10723,
    "6-0": 28625,
    "rare": 11096,
    "rind": 13119,
    "▁zählt": 22422,
    "▁etape": 26301,
    "▁Domnul": 19618,
    "▁verändern": 28021,
    "▁Shin": 14215,
    "STAR": 19481,
    "▁freezing": 19275,
    "▁Cutting": 27473,
    "▁invest": 4032,
    "ple": 4788,
    "GV": 24403,
    "▁frunze": 28259,
    "partie": 25516,
    "▁sketches": 27294,
    "▁umfasst": 23246,
    "▁Hammer": 18812,
    "leni": 26532,
    "rat": 1795,
    "▁Ace": 16475,
    "▁assurance": 12203,
    "▁Relevan": 31484,
    "▁bachelor": 16428,
    "▁jeunesse": 27212,
    "▁Gather": 26945,
    "immer": 12174,
    "▁acquis": 25057,
    "ouette": 24043,
    "joutez": 28566,
    "▁systematic": 20036,
    "▁festgelegt": 28654,
    "▁products": 494,
    "▁contenu": 9449,
    "▁precedent": 17875,
    "▁Frau": 7672,
    "▁cannot": 1178,
    "▁wasn": 2088,
    "▁responded": 11318,
    "▁modest": 11306,
    "▁Farben": 14531,
    "▁DJ": 6920,
    "cept": 6873,
    "▁humiliat": 30880,
    "▁pm": 6366,
    "Störung": 30471,
    "▁Ende": 4925,
    "▁CH": 9302,
    "▁dispar": 8378,
    "▁Enforcement": 27075,
    "▁cale": 11404,
    "▁Ec": 16208,
    "LV": 15086,
    "▁LEGO": 23497,
    "▁Player": 12387,
    "versiune": 23730,
    "<extra_id_47>": 32052,
    "Chauffe": 31796,
    "▁arsenal": 29733,
    "▁Garage": 13778,
    "▁Layer": 22697,
    "▁presume": 26451,
    "▁IN": 3388,
    "▁truc": 22159,
    "wunsch": 30605,
    "▁Saving": 19063,
    "claimed": 20471,
    "zeci": 15933,
    "▁quantité": 20715,
    "▁doesn": 744,
    "▁Will": 2003,
    "▁usturoi": 31236,
    "/": 87,
    "rii": 2362,
    "▁Minneapolis": 23732,
    "▁attributes": 12978,
    "ço": 24065,
    "rcis": 21645,
    "▁Fitness": 12117,
    "ripping": 19160,
    "▁fiecărui": 28831,
    "▁supporters": 11172,
    "title": 21869,
    "▁drain": 7128,
    "▁abgeschlossen": 22846,
    "END": 14920,
    "▁Concrete": 18881,
    "phy": 6941,
    "KG": 18256,
    "▁Affairs": 12078,
    "TED": 11430,
    "mut": 4246,
    "▁chaud": 13025,
    "▁confruntă": 31565,
    "esc": 1579,
    "▁kernel": 20563,
    "▁temporarily": 18223,
    "▁începutul": 22378,
    "▁chances": 6209,
    "▁Martin": 3394,
    "▁doctor": 2472,
    "▁evaluated": 14434,
    "▁matelas": 31432,
    "▁Bond": 12528,
    "▁Russian": 4263,
    "▁Swedish": 16531,
    "▁Cook": 6176,
    "behält": 29880,
    "ibă": 17366,
    "rrière": 9317,
    "urteil": 21408,
    "▁Attorney": 10154,
    "▁Delivery": 15715,
    "DT": 12111,
    "▁hearing": 3507,
    "▁blouse": 29273,
    "ANN": 21478,
    "▁très": 1264,
    "lotte": 21538,
    "built": 16152,
    "curând": 28678,
    "▁earlier": 2283,
    "▁Johann": 19719,
    "CO": 5911,
    "▁Shah": 19669,
    "bed": 4143,
    "▁expanded": 8148,
    "nosti": 26587,
    "reflected": 12999,
    "ated": 920,
    "▁vorgestellt": 23943,
    "▁cargo": 15470,
    "▁serviciilor": 19550,
    "atic": 6049,
    "▁revealed": 5111,
    "▁appropriately": 18056,
    "ismul": 18385,
    "▁Techno": 25789,
    "▁încredere": 22892,
    "▁players": 1508,
    "pilot": 24650,
    "lor": 322,
    "IDENT": 29433,
    "▁Metallic": 29413,
    "▁crave": 27825,
    "▁déposé": 28321,
    "▁Siemens": 27124,
    "▁compress": 25294,
    "▁Maria": 6538,
    "▁Traffic": 19273,
    "▁breakdown": 15568,
    "▁Egal": 23581,
    "és": 899,
    "u": 76,
    "▁handled": 10298,
    "▁Crime": 16923,
    "▁pluralit": 29101,
    "▁serrure": 21663,
    "ième": 21193,
    "▁talked": 6812,
    "▁recognised": 14869,
    "▁quartet": 31395,
    "▁March": 1332,
    "▁sanatate": 18067,
    "▁Regulament": 29645,
    "▁Canadian": 4151,
    "▁contractors": 8392,
    "▁Camill": 28347,
    "▁Franchise": 30347,
    "▁Kings": 13913,
    "▁Wunsch": 14683,
    "▁ghid": 23104,
    "▁smartphone": 5626,
    "▁sweep": 17695,
    "▁Anteil": 23682,
    "hos": 11982,
    "▁slippery": 31071,
    "▁Shoes": 23548,
    "Q": 2247,
    "▁chapel": 23739,
    "wahrscheinlich": 20102,
    "CHI": 17226,
    "▁trend": 4166,
    "Innen": 7842,
    "▁repet": 17702,
    "▁Available": 8144,
    "anni": 14431,
    "▁hospitality": 13489,
    "▁Schokolade": 31267,
    "ographic": 16587,
    "▁Ort": 4366,
    "CSA": 24135,
    "▁indicat": 18492,
    "▁powder": 4926,
    "▁professionnelle": 16094,
    "depth": 10437,
    "HH": 23123,
    "W": 518,
    "▁maladie": 17197,
    "▁THE": 1853,
    "▁take": 240,
    "▁Sessions": 24984,
    "▁welcomed": 13001,
    "grund": 13583,
    "▁bien": 923,
    "▁electricity": 6373,
    "▁census": 23087,
    "▁prototype": 14402,
    "izing": 2610,
    "/6": 18656,
    "▁Reference": 17881,
    "▁Sub": 3325,
    "▁pare": 5448,
    "échapp": 26464,
    "▁Macedon": 26076,
    "▁accesibil": 21860,
    "erzeugen": 30301,
    "stepped": 14417,
    "▁neighbor": 10678,
    "▁hooked": 20949,
    "synthesis": 17282,
    "▁Andere": 26538,
    "bringing": 3770,
    "ske": 11049,
    "▁revenu": 19278,
    "▁linguri": 22376,
    "▁sought": 7803,
    "▁Permanent": 23996,
    "▁Islamic": 11117,
    "▁contemplat": 14017,
    "branded": 16108,
    "▁MS": 5266,
    "Fiind": 28863,
    "▁thank": 2763,
    "▁projets": 11387,
    "▁bible": 26996,
    "faudra": 18068,
    "▁hearts": 9812,
    "▁violation": 12374,
    "acy": 4710,
    "▁consulting": 9157,
    "isson": 12661,
    "Fraktion": 31002,
    "▁consciousness": 13645,
    "consuming": 10862,
    "▁réaliser": 12138,
    "▁opposition": 8263,
    "tägliche": 28129,
    "auraient": 29738,
    "▁Peel": 26290,
    "▁nothing": 1327,
    "▁elastic": 15855,
    "▁Fantastic": 21737,
    "▁anonym": 19581,
    "objets": 18803,
    "D": 308,
    "▁determined": 4187,
    "▁jährlich": 24489,
    "▁crystal": 6884,
    "▁comment": 1670,
    "▁ludique": 31850,
    "▁newspapers": 16265,
    "griff": 11442,
    "▁patterns": 4264,
    "ler": 1171,
    "▁beobachten": 30493,
    "lie": 1896,
    "mba": 18015,
    "▁vaccine": 12956,
    "érence": 21887,
    "▁Step": 5021,
    "▁filter": 4191,
    "▁wild": 3645,
    "▁Speech": 26351,
    "▁Pilates": 28724,
    "<extra_id_40>": 32059,
    "▁amenajat": 28446,
    "/03/": 31064,
    "▁Recommended": 28374,
    "▁poarta": 26293,
    "▁supplements": 11717,
    "ssen": 4932,
    "lic": 2176,
    "▁protein": 3619,
    "▁Pan": 4266,
    "▁Sri": 8642,
    "wertig": 26034,
    "énergie": 9447,
    "▁Montana": 16751,
    "▁sang": 9965,
    "▁Sol": 5175,
    "▁Patient": 17656,
    "▁trainee": 25768,
    "▁other": 119,
    "▁optional": 9042,
    "▁stagn": 24720,
    "▁wichtig": 7308,
    "▁acesteia": 16916,
    "▁vacances": 13941,
    "▁préparer": 22278,
    "voy": 9845,
    "▁Harbor": 17590,
    "gestalt": 30012,
    "▁locale": 8522,
    "▁strings": 18705,
    "▁glucose": 17320,
    "▁crazy": 6139,
    "rgic": 26730,
    "▁Mill": 4185,
    "▁réflexion": 21713,
    "mov": 7168,
    "▁amazed": 16579,
    "▁Château": 27029,
    "▁skiing": 18483,
    "▁ravi": 20217,
    "vedem": 18491,
    "lamp": 17121,
    "scape": 12002,
    "▁pipe": 7119,
    "▁Christopher": 14702,
    "Reilly": 31668,
    "▁F": 377,
    "arising": 14739,
    "62": 4056,
    "▁lawyers": 9196,
    "▁factors": 2580,
    "ari": 1665,
    "410": 24175,
    "▁nevoie": 3894,
    "itatile": 17669,
    "▁Egypt": 10438,
    "▁transit": 11811,
    "▁effective": 1231,
    "▁misleading": 23828,
    "cular": 4866,
    "▁encode": 23734,
    "▁printing": 5361,
    "▁legislature": 25606,
    "▁Transmission": 28074,
    "▁released": 1883,
    "▁imperi": 19896,
    "gedruckt": 30717,
    "▁cataract": 31472,
    "pping": 5341,
    "Historically": 31806,
    "â": 1439,
    "▁Ranch": 17743,
    "▁succ": 22247,
    "Union": 19011,
    "hiver": 15123,
    "ţia": 8504,
    "2:30": 21876,
    "▁His": 978,
    "phen": 19017,
    "▁fiind": 2439,
    "▁redesign": 22819,
    "▁textbook": 19533,
    "▁asfalt": 31930,
    "ography": 5984,
    "räumt": 28647,
    "▁montagne": 20004,
    "▁$300": 21431,
    "▁cumpără": 28422,
    "TING": 21089,
    "▁trail": 5032,
    "nnie": 11113,
    "rouvent": 30220,
    "▁Pur": 7333,
    "▁prochain": 14597,
    "▁Mama": 14200,
    "3.5": 9285,
    "▁papers": 5778,
    "▁1987": 12701,
    "intele": 9755,
    "▁answering": 18243,
    "▁kontrolliert": 29222,
    "▁Emerg": 25579,
    "▁retention": 14344,
    "▁Universe": 20713,
    "Tek": 27508,
    "▁CD": 3190,
    "▁Sunset": 26818,
    "▁Bundesliga": 28117,
    "▁chilled": 27290,
    "▁mince": 27404,
    "empfindlich": 30913,
    "cloud": 23742,
    "▁următoare": 25358,
    "▁părţi": 30505,
    "▁luxe": 21558,
    "▁meaningful": 7892,
    "▁joint": 4494,
    "inverse": 23536,
    "▁$200": 19503,
    "▁dirty": 13086,
    "▁Panorama": 28573,
    "ubb": 21207,
    "based": 390,
    "▁competition": 2259,
    "▁Thailand": 10508,
    "▁world": 296,
    "▁Xiaomi": 27002,
    "such": 4415,
    "illes": 11348,
    "▁leider": 10868,
    "▁Meghan": 30455,
    "fuhr": 21638,
    "Mitglied": 11806,
    "▁beloved": 11479,
    "▁thousands": 2909,
    "credited": 16473,
    "▁vene": 23082,
    "Sync": 24863,
    "my": 2258,
    "▁Wände": 30806,
    "▁al": 491,
    "▁BA": 8145,
    "?”": 4697,
    "▁Everyone": 6656,
    "asse": 3974,
    "▁walkway": 27094,
    "▁Rules": 16060,
    "▁max": 9858,
    "▁voices": 13256,
    "▁absolut": 11162,
    "▁natura": 19913,
    "adia": 17327,
    "▁Poland": 14354,
    "▁Gift": 8510,
    "▁Rajasthan": 28967,
    "▁vom": 1226,
    "▁ermöglicht": 14713,
    "mony": 21208,
    "▁shoe": 9585,
    "▁genug": 16535,
    "▁médecin": 13707,
    "▁kindness": 18333,
    "▁Benutzer": 22137,
    "äl": 14921,
    "▁artistic": 7235,
    "▁Standort": 18391,
    "▁persistence": 29486,
    "chy": 11971,
    "▁defend": 11220,
    "▁livestock": 22167,
    "▁francophone": 31165,
    "▁clear": 964,
    "▁ligament": 27588,
    "▁AM": 5422,
    "▁toilette": 24888,
    "▁hotels": 5694,
    "▁Zustand": 20693,
    "Cu": 15784,
    "▁optical": 14171,
    "▁Desi": 17447,
    "judeţul": 26995,
    "constructing": 24246,
    "▁monumental": 28046,
    "▁Gerald": 28431,
    "0.3": 19997,
    "▁Drew": 24348,
    "▁Hawaiian": 24221,
    "▁LNG": 28323,
    "▁rendering": 18968,
    "▁devote": 19612,
    "▁ecosystem": 10789,
    "▁passenger": 10837,
    "▁biodiversity": 27347,
    "▁maestr": 31544,
    "▁conflicts": 17824,
    "▁Patienten": 14055,
    "tractors": 29676,
    "Opti": 9546,
    "▁Poor": 21309,
    "▁sharing": 2178,
    "▁scientists": 7004,
    "▁Schüler": 12242,
    "▁$0.": 20324,
    "▁airplane": 20527,
    "ließ": 10325,
    "▁Tasmania": 28020,
    "▁(3": 6918,
    "▁grec": 22904,
    "▁Pun": 18266,
    "▁performanț": 29267,
    "▁Thermal": 29556,
    "DN": 12145,
    "tip": 11537,
    "ştii": 18285,
    "valorile": 29235,
    "▁librarian": 27533,
    "CA": 4490,
    "▁belt": 6782,
    "▁sailing": 16132,
    "▁ședinț": 29614,
    "▁railroad": 21666,
    "▁ME": 7934,
    "▁Motivation": 25279,
    "sparen": 16210,
    "anglais": 15336,
    "sting": 11026,
    "▁buyer": 8001,
    "▁MLB": 26497,
    "▁Devi": 24434,
    "▁another": 430,
    "▁Conf": 11847,
    "geteilt": 25180,
    "▁Chambre": 25774,
    "▁miraculous": 30484,
    "▁longer": 1200,
    "▁dual": 7013,
    "▁notamment": 5863,
    "Trebuie": 16300,
    "held": 14796,
    "gol": 7579,
    "bwohl": 29366,
    "▁ieşi": 27018,
    "▁Z": 1027,
    "▁mărturi": 26055,
    "top": 2916,
    "dus": 8655,
    "▁Tub": 24005,
    "▁Shri": 22805,
    "▁blue": 1692,
    "private": 26881,
    "▁décor": 11780,
    "FIN": 17630,
    "▁imagination": 9675,
    "▁from": 45,
    "▁numerous": 2724,
    "▁brothers": 10740,
    "▁UAE": 17487,
    "therapy": 10896,
    "▁5": 305,
    "▁со": 24697,
    "▁Blue": 2419,
    "▁intro": 16728,
    "leg": 5772,
    "▁dental": 4814,
    "▁Tätigkeit": 24110,
    "▁Arbor": 27560,
    "▁cuptor": 21421,
    "▁zic": 15728,
    "▁Burger": 23324,
    "▁Henderson": 25253,
    "kir": 18413,
    "▁Sil": 10221,
    "fought": 13973,
    "▁Üb": 29324,
    "▁recruit": 11474,
    "▁Sach": 13547,
    "▁precizat": 22291,
    "Etat": 15890,
    "▁swap": 15959,
    "▁complete": 743,
    "▁Direct": 7143,
    "open": 8751,
    "tackling": 26074,
    "▁producing": 5874,
    "▁HAVE": 21490,
    "maz": 18983,
    "▁erfolgreich": 10200,
    "▁violent": 9674,
    "▁Geo": 10107,
    "▁page": 543,
    "schluss": 8756,
    "▁Bri": 7834,
    "bru": 9052,
    "▁maker": 13762,
    "▁Stadium": 12750,
    "▁plăti": 29051,
    "langen": 11265,
    "▁Beau": 12433,
    "▁*******": 25825,
    "Vielleicht": 20092,
    "▁urmatoare": 27146,
    "new": 5534,
    "▁Conservative": 23053,
    "▁Snake": 31072,
    "▁Muslims": 16932,
    "▁spital": 16192,
    "moos": 31062,
    "▁conference": 2542,
    "lage": 4855,
    "▁zwölf": 31185,
    "▁shepherd": 28743,
    "berater": 29217,
    "▁frequent": 8325,
    "▁Unterkunft": 31061,
    "Darren": 29367,
    "▁work": 161,
    "▁considère": 31424,
    "▁percentage": 5294,
    "IMA": 26330,
    "▁boug": 25818,
    "▁FUN": 26280,
    "▁conduit": 13389,
    "▁money": 540,
    "▁straight": 2541,
    "▁majestic": 25941,
    "dissolved": 27106,
    "▁langsam": 20194,
    "ești": 5501,
    "▁pupil": 26913,
    "▁célèbre": 20140,
    "▁visually": 17307,
    "▁effects": 1951,
    "amine": 8721,
    "though": 11841,
    "▁Bord": 21572,
    "▁Laura": 10591,
    "▁Word": 4467,
    "luc": 11525,
    "your": 13055,
    "▁(2011)": 25163,
    "▁Academie": 30358,
    "▁Vodafone": 26259,
    "ANA": 15610,
    "▁metalic": 24750,
    "▁protocols": 18870,
    "▁remodeling": 16915,
    "▁wohl": 6713,
    "▁chili": 19245,
    "▁kilometers": 20325,
    "▁rutier": 24115,
    "▁beforehand": 23735,
    "▁davon": 7655,
    "▁Roast": 27648,
    "▁alin": 15032,
    "attribution": 28768,
    "etch": 24335,
    "▁Dal": 10729,
    "▁1930": 15559,
    "ify": 4921,
    "▁Packers": 26698,
    "▁Graphic": 16297,
    "tocmai": 15435,
    "▁spam": 13655,
    "▁Funktion": 12731,
    "synchronous": 30373,
    "▁eröffnet": 25104,
    "▁Rettungs": 30720,
    "▁Filial": 31621,
    "ch": 524,
    "▁Ausstellung": 18060,
    "▁sistem": 6517,
    "▁worries": 17168,
    "▁événements": 24243,
    "éclat": 28091,
    "▁Manhattan": 15630,
    "Celui": 28824,
    "▁IRS": 17615,
    "▁oficial": 11343,
    "▁doctors": 6659,
    "▁étudié": 31809,
    "▁Jü": 28576,
    "▁gasi": 16357,
    "▁basketball": 8498,
    "▁promis": 21674,
    "▁already": 641,
    "▁Duncan": 25108,
    "▁Peace": 11128,
    "▁Burton": 28316,
    "▁Wohnzimmer": 28235,
    "▁winner": 4668,
    "▁Sweet": 11168,
    "▁launch": 3289,
    "▁dau": 10216,
    "▁insurer": 15421,
    "kö": 15898,
    "▁Einblick": 26785,
    "▁Select": 6185,
    "athlon": 21774,
    "▁desperate": 18337,
    "▁Affiliate": 24003,
    "▁asphalt": 20158,
    "chromat": 25620,
    "▁vermute": 31525,
    "▁deine": 5922,
    "liquid": 29721,
    "änd": 16186,
    "▁WE": 9664,
    "▁royal": 11268,
    "▁Fritz": 28748,
    "▁asparagus": 31513,
    "▁sellers": 14857,
    "▁common": 1017,
    "▁means": 598,
    "feature": 30844,
    "▁fehlt": 23275,
    "metru": 18578,
    "▁indicated": 7972,
    "▁Camp": 4594,
    "▁birouri": 30357,
    "▁progres": 24343,
    "▁Index": 11507,
    "▁Freunde": 14385,
    "▁legacy": 9837,
    "▁bring": 830,
    "▁unterscheide": 24465,
    "▁veterinarian": 26111,
    "werte": 11870,
    "▁cheveux": 18348,
    "▁symptoms": 3976,
    "▁Beverly": 26393,
    "food": 12437,
    "▁Spirit": 5876,
    "▁distraction": 18805,
    "▁confidentiality": 23979,
    "▁problemlos": 26549,
    "▁educators": 16530,
    "rott": 14369,
    "▁linii": 26620,
    "▁approached": 15319,
    "▁Polk": 27706,
    "pod": 11410,
    "Office": 22098,
    "▁Ber": 5653,
    "▁choice": 1160,
    "211": 27278,
    "(2)": 16426,
    "▁Dan": 2744,
    "habitation": 24472,
    "▁aggregate": 12955,
    "ATT": 24642,
    "▁destul": 8790,
    "gewicht": 20124,
    "containing": 6443,
    "biz": 19000,
    "▁contradict": 21454,
    "tant": 3672,
    "▁termination": 18739,
    "▁mower": 28727,
    "regulă": 31955,
    "▁compute": 29216,
    "▁Mari": 10149,
    "cha": 3441,
    "▁cât": 3364,
    "ministerium": 27663,
    "▁rub": 9641,
    "▁Third": 9879,
    "▁serene": 28362,
    "kräfte": 16657,
    "GP": 8049,
    "▁diferite": 7062,
    "emelle": 29241,
    "▁WordPress": 6410,
    "Louis": 28365,
    "gam": 8758,
    "▁Lloyd": 21847,
    "▁Laden": 23019,
    "argued": 15585,
    "▁Ellen": 20990,
    "▁tail": 9891,
    "▁Panasonic": 28695,
    "▁both": 321,
    "▁Nouveau": 28016,
    "'": 31,
    "▁pills": 19584,
    "▁saddle": 23922,
    "hydr": 10656,
    "▁Pair": 25072,
    "rance": 5219,
    "▁teaspoon": 21776,
    "▁fighting": 6237,
    "3": 519,
    "▁payable": 19608,
    "espère": 20768,
    "otro": 24497,
    "▁précisément": 30912,
    "▁petrecut": 23191,
    "▁connais": 20714,
    "▁leverage": 11531,
    "▁Ya": 4701,
    "▁Council": 2063,
    "oids": 19721,
    "▁Language": 10509,
    "lege": 7883,
    "Adapt": 14808,
    "▁Jen": 9101,
    "▁partage": 16762,
    "iunile": 15080,
    "▁stratégique": 28840,
    "7.0": 26346,
    "▁men": 1076,
    "▁supervise": 28917,
    "wirk": 22645,
    "▁funcționa": 21354,
    "▁used": 261,
    "▁balcony": 16940,
    "▁survive": 7905,
    "bell": 7708,
    "▁altor": 14699,
    "kov": 9789,
    "▁holders": 14733,
    "hin": 2907,
    "legt": 9202,
    "arian": 6855,
    "custom": 25697,
    "▁1957": 24011,
    "ERT": 24203,
    "▁intrigued": 27906,
    "▁Breakfast": 16014,
    "VR": 13556,
    "▁inseamna": 14197,
    "▁phrase": 9261,
    "escu": 5152,
    "▁Disease": 14326,
    "4-6": 20445,
    "▁claimed": 7760,
    "stream": 8103,
    "▁complète": 17534,
    "Biserica": 21287,
    "▁Christianity": 19013,
    "▁fertility": 25646,
    "▁Kno": 10624,
    "▁24,": 14320,
    "▁profesională": 30128,
    "▁vizitat": 22762,
    "▁shortcut": 21931,
    "genie": 23891,
    "▁Einkauf": 21040,
    "projekt": 15527,
    "▁Radu": 23632,
    "▁hin": 3811,
    "▁Babylon": 30622,
    "▁associate": 7573,
    "▁Bath": 11247,
    "▁gravit": 23189,
    "▁Pro": 749,
    "▁refined": 16097,
    "▁Comisi": 20251,
    "loppy": 29209,
    "▁nasal": 26612,
    "▁colors": 2602,
    "▁Cushion": 31997,
    "▁county": 5435,
    "▁classement": 27059,
    "▁disputes": 18126,
    "▁Christie": 26035,
    "▁Configur": 25306,
    "mig": 10673,
    "▁attitude": 7525,
    "▁duties": 9353,
    "dict": 12194,
    "glued": 27950,
    "ADA": 16759,
    "lick": 10095,
    "▁struggles": 16562,
    "ambul": 20866,
    "fenced": 31037,
    "fic": 4638,
    "<extra_id_27>": 32072,
    "▁accessories": 5513,
    "▁bo": 3005,
    "rom": 3522,
    "▁Brussels": 20501,
    "▁File": 7344,
    "▁Medicare": 10757,
    "▁rid": 5413,
    "nderungen": 21960,
    "▁minimise": 25733,
    "stroke": 24790,
    "▁nearby": 4676,
    "mili": 5952,
    "▁(1": 4077,
    "▁perioada": 4584,
    "dependable": 23094,
    "′": 17774,
    "▁Carol": 12526,
    "▁meditate": 31125,
    "raum": 6340,
    "▁surgeon": 12177,
    "▁oppos": 10720,
    "▁$15": 15287,
    "▁measured": 8413,
    "enfant": 7776,
    "existence": 22597,
    "▁Indian": 2557,
    "▁spatiu": 18977,
    "▁Netz": 8266,
    "▁Grey": 12630,
    "▁random": 6504,
    "zeichnet": 18152,
    "▁tumour": 29851,
    "▁fenêtre": 25301,
    "▁Original": 8465,
    "ifying": 8587,
    "187": 25828,
    "▁handsome": 22989,
    "▁nurture": 20564,
    "▁voltage": 10594,
    "▁gymnas": 23379,
    "▁Cad": 15562,
    "▁consolidation": 16690,
    "▁November": 1671,
    "▁Weiterbildung": 27044,
    "▁Normal": 16612,
    "▁evrei": 30458,
    "▁could": 228,
    "▁professionalism": 18655,
    "▁Eclipse": 30547,
    "▁spați": 27763,
    "uş": 8812,
    "vient": 8518,
    "clu": 10562,
    "hlen": 11286,
    "idad": 15644,
    "tron": 6255,
    "▁haine": 18635,
    "▁dat": 3927,
    "paid": 12760,
    "▁exerciți": 31524,
    "▁Wie": 2739,
    "▁Leg": 18978,
    "▁urgency": 27844,
    "▁Insul": 22615,
    "million": 17030,
    "▁sport": 2600,
    "▁jazz": 9948,
    "▁tanar": 30697,
    "OnePlus": 30733,
    "▁relaxare": 26023,
    "▁dicke": 31149,
    "▁burning": 9706,
    "▁rue": 11902,
    "ifiziert": 18856,
    "540": 25379,
    "▁récolt": 29362,
    "▁underway": 18953,
    "▁Smok": 14627,
    "▁feu": 8703,
    "▁(2014)": 24373,
    "cuit": 21560,
    "ly": 120,
    "▁seem": 1727,
    "Judith": 30875,
    "▁benefic": 17503,
    "▁whom": 4068,
    "▁prezent": 4592,
    "ancies": 28704,
    "▁Mac": 2143,
    "▁umbrella": 18598,
    "lot": 3171,
    "▁forma": 8066,
    "▁persoană": 19355,
    "▁liking": 23340,
    "▁électrique": 13437,
    "▁guests": 2554,
    "▁diameter": 9260,
    "▁tablets": 11676,
    "▁editors": 18008,
    "▁Vlad": 24379,
    "kraut": 31145,
    "▁Soon": 14902,
    "perfect": 22588,
    "▁Eindruck": 24000,
    "iding": 12469,
    "▁Danny": 19445,
    "▁Patch": 21825,
    "▁portable": 6262,
    "▁exp": 8116,
    "▁enamel": 26383,
    "▁destructive": 24439,
    "▁Magic": 9222,
    "această": 3401,
    "85%": 25832,
    "▁Fa": 1699,
    "▁employment": 4311,
    "▁kurzfristig": 30160,
    "▁Deux": 20523,
    "▁mountain": 4180,
    "▁Flü": 24516,
    "▁soins": 18342,
    "2)": 7318,
    "▁Bingo": 26837,
    "▁Lau": 18465,
    "▁trouvai": 31903,
    "▁greed": 30337,
    "Using": 3626,
    "▁Homepage": 23603,
    "▁nützlich": 30001,
    "▁Nokia": 16887,
    "▁parties": 2251,
    "aucune": 13373,
    "popped": 24478,
    "/1": 14785,
    "▁practices": 2869,
    "ddy": 8155,
    "▁mirror": 5432,
    "▁aerospace": 28674,
    "▁approaches": 6315,
    "▁Blind": 21465,
    "willig": 20494,
    "hen": 3225,
    "▁erfolgen": 23298,
    "▁créateur": 29931,
    "▁350": 10239,
    "▁Sac": 22050,
    "▁Avengers": 29999,
    "▁menschliche": 26292,
    "▁gleich": 3848,
    "▁dimensiune": 27443,
    "▁adversar": 23210,
    "ân": 3398,
    "Australia": 31971,
    "▁autovehicul": 27316,
    "▁Schmuck": 29185,
    "▁scholar": 24662,
    "<extra_id_2>": 32097,
    "▁Aufbau": 22523,
    "▁situatii": 25550,
    "▁NC": 9187,
    "▁attacks": 6032,
    "▁revisit": 20442,
    "▁Maß": 14680,
    "▁Juan": 15597,
    "▁acute": 12498,
    "▁1989": 9975,
    "▁produsului": 22972,
    "geordnet": 19522,
    "▁Träger": 29129,
    "<extra_id_41>": 32058,
    "▁Coast": 5458,
    "▁misconduct": 28742,
    "▁Gratuit": 29031,
    "stätte": 19225,
    "▁obstacles": 14637,
    "▁B": 272,
    "▁realizeaz": 25339,
    "baum": 18088,
    "▁Vent": 13713,
    "▁2.": 1682,
    "rial": 12042,
    "Fab": 17477,
    "▁bientôt": 21707,
    "▁obligatoire": 21115,
    "▁parents": 1362,
    "euer": 11294,
    "▁scam": 13236,
    "▁Nelson": 14448,
    "Aceste": 10526,
    "spanning": 25754,
    "▁cauza": 7044,
    "▁Te": 2255,
    "▁definition": 4903,
    "▁opaque": 30297,
    "▁Cruz": 17714,
    "étage": 23540,
    "▁To": 304,
    "▁Bur": 4152,
    "▁numbers": 2302,
    "hingeg": 31373,
    "TU": 9968,
    "▁decrease": 6313,
    "<extra_id_44>": 32055,
    "▁Corner": 15143,
    "▁Oscar": 13892,
    "ESP": 26130,
    "▁Eintritt": 27955,
    "▁martial": 22526,
    "▁tranche": 27822,
    "combining": 13275,
    "▁le": 90,
    "▁groceries": 28472,
    "paving": 28477,
    "▁ergeben": 25624,
    "▁parallèle": 29874,
    "▁suspended": 14840,
    "▁Billy": 17724,
    "▁Evan": 22743,
    "▁Shell": 16040,
    "▁consideration": 4587,
    "▁ausgezeichnet": 23072,
    "▁Noi": 14445,
    "▁foam": 6910,
    "▁erstellen": 21239,
    "▁doorstep": 26929,
    "▁executive": 4297,
    "ration": 2661,
    "EST": 6038,
    "▁modèles": 15567,
    "helm": 17757,
    "▁800": 8640,
    "▁Verbindung": 13053,
    "spring": 14662,
    "deleting": 31874,
    "inscrit": 17968,
    "cci": 9920,
    "▁Tag": 3284,
    "conscious": 25098,
    "▁Therefore": 4063,
    "▁Steven": 9316,
    "▁Building": 5450,
    "spire": 13101,
    "▁Schle": 19461,
    "▁athlete": 17893,
    "▁benötigt": 14664,
    "main": 7484,
    "▁Republicii": 26009,
    "▁volontaire": 29285,
    "▁marking": 15285,
    "▁Countries": 30763,
    "▁developed": 1597,
    "▁Fly": 8223,
    "▁Nano": 20556,
    "▁bamboo": 20272,
    "▁athletic": 12217,
    "▁mentor": 9380,
    "▁healthy": 1695,
    "▁disturb": 31738,
    "▁divide": 14514,
    "▁Proceedings": 24569,
    "▁Division": 6022,
    "▁Eintrag": 28420,
    "▁attempts": 9048,
    "▁Finish": 17578,
    "▁Praxis": 13088,
    "▁dresses": 12754,
    "▁muscles": 7654,
    "wett": 19322,
    "▁Shan": 12077,
    "ager": 9754,
    "▁idéal": 13220,
    "▁titre": 8349,
    "▁roast": 14238,
    "▁conclude": 12692,
    "faktor": 28944,
    "omato": 23926,
    "▁Georg": 20916,
    "CIA": 16805,
    "▁plin": 10996,
    "▁briefly": 16964,
    "▁webinar": 19661,
    "accelerating": 30819,
    "▁https": 4893,
    "nic": 2532,
    "▁studied": 7463,
    "▁meeting": 1338,
    "▁îm": 6169,
    "▁Tom": 3059,
    "▁bedrooms": 8458,
    "▁Transformation": 25008,
    "▁suitcase": 27622,
    "Elect": 21543,
    "▁Lille": 27389,
    "▁garbage": 12937,
    "149": 24816,
    "voice": 23235,
    "▁applying": 6247,
    "ologie": 4137,
    "▁1978": 14834,
    "▁steht": 4186,
    "▁sichtbar": 24201,
    "▁concierge": 31111,
    "▁Liberty": 16553,
    "▁Barbara": 13163,
    "▁Bentley": 29262,
    "▁fac": 3257,
    "czy": 21955,
    "▁regulament": 28428,
    "▁technician": 17730,
    "englische": 29207,
    "▁arterial": 27970,
    "vâr": 21460,
    "fahrt": 8255,
    "aktuellen": 12309,
    "▁showroom": 19458,
    "▁pest": 6256,
    "▁Stanford": 19796,
    "▁surgeries": 27503,
    "▁Weapon": 30785,
    "▁Joel": 22943,
    "▁facture": 25497,
    "▁subject": 1426,
    "avand": 13244,
    "▁viral": 16686,
    "▁Küste": 28669,
    "án": 12916,
    "AIR": 18375,
    "▁Sim": 6619,
    "▁Texas": 2514,
    "▁Mal": 2148,
    "▁pied": 9630,
    "schließlich": 13259,
    "▁Einwohner": 26890,
    "▁Be": 493,
    "vaut": 22458,
    "▁apărut": 20719,
    "ieuse": 19331,
    "räu": 14674,
    "10": 1714,
    "kind": 9519,
    "den": 537,
    "▁OEM": 18430,
    "▁Amsterdam": 14305,
    "▁hundred": 6189,
    "▁Oder": 15584,
    "steuer": 11199,
    "▁Cardiff": 26911,
    "▁foreclosure": 22353,
    "▁Chance": 8622,
    "▁stranger": 13037,
    "▁prepared": 2657,
    "When": 10555,
    "▁search": 960,
    "iez": 12523,
    "▁part": 294,
    "▁cortex": 29942,
    "stiinta": 28938,
    "▁Guest": 14252,
    "▁8": 505,
    "professional": 24318,
    "▁sheer": 17224,
    "<extra_id_67>": 32032,
    "ș": 1198,
    "▁avertiz": 28813,
    "▁pierre": 16425,
    "etty": 16142,
    "▁symposium": 29607,
    "delt": 24876,
    "lapse": 16543,
    "▁needle": 11769,
    "autre": 6304,
    "▁Ganz": 12960,
    "▁experience": 351,
    "▁Comments": 16243,
    "ffle": 10105,
    "struct": 7593,
    "▁Beatles": 27615,
    "lien": 10487,
    "▁annoncé": 19907,
    "▁simplified": 24687,
    "▁sechs": 15516,
    "▁pleine": 15819,
    "(2003)": 31210,
    "Advisory": 17037,
    "▁incremental": 28351,
    "tique": 4325,
    "éra": 10864,
    "▁Tempe": 26396,
    "shipments": 30645,
    "▁bord": 9665,
    "greasy": 31799,
    "▁Figur": 26607,
    "mount": 11231,
    "▁Vermieter": 29524,
    "▁12": 586,
    "rutsch": 29454,
    "▁Winnipeg": 28517,
    "▁dome": 22161,
    "▁séance": 18028,
    "▁vegetation": 21780,
    "▁achievable": 30238,
    "▁lectur": 22111,
    "▁storytelling": 20362,
    "gekommen": 13273,
    "▁acela": 11249,
    "“,": 4600,
    "▁Madame": 27328,
    "▁focal": 15949,
    "▁législat": 31435,
    "erie": 4074,
    "▁placing": 9308,
    "▁Sur": 3705,
    "▁descendants": 28962,
    "▁Cit": 11224,
    "▁Ab": 891,
    "oaring": 26605,
    "▁răspuns": 15466,
    "hört": 20740,
    "▁pasageri": 31052,
    "ntă": 19213,
    "uck": 4636,
    "forged": 30679,
    "▁dass": 602,
    "schuldig": 30054,
    "aji": 17815,
    "▁zile": 3872,
    "▁reap": 22993,
    "kamera": 28867,
    "▁Mineral": 15684,
    "▁Logan": 22227,
    "înt": 13623,
    "▁Între": 22351,
    "artisan": 15304,
    "▁Recruitment": 24255,
    "▁propos": 8028,
    "▁vizită": 30891,
    "▁agent": 3102,
    "ties": 3010,
    "3-6": 25342,
    "▁Benefit": 14513,
    "gler": 12683,
    "▁enforce": 13321,
    "conom": 12036,
    "▁Patriot": 20109,
    "▁efecte": 21307,
    "▁Coming": 18354,
    "▁comunicat": 17964,
    "EF": 9976,
    "▁rythme": 22419,
    "soient": 14749,
    "330": 17225,
    "▁Jun": 10745,
    "▁Aufenthalt": 23362,
    "▁beau": 9743,
    "▁zusammen": 4196,
    "blatt": 23897,
    "wick": 5981,
    "▁Ever": 6381,
    "▁genomic": 29082,
    "▁Arbeits": 4827,
    "SCO": 11151,
    "▁stet": 14099,
    "▁ideas": 912,
    "▁returning": 7646,
    "▁Why": 1615,
    "▁lucrative": 26428,
    "▁contraire": 18029,
    "▁Fried": 17561,
    "▁adéquat": 30708,
    "▁companion": 9663,
    "▁sacrifice": 10811,
    "▁schön": 9685,
    "▁documentation": 7192,
    "ceapa": 27299,
    "outhwestern": 31380,
    "DIA": 24605,
    "▁Stell": 13879,
    "▁embarrassed": 29773,
    "39": 3288,
    "faire": 16795,
    "erem": 17106,
    "▁collateral": 25028,
    "riya": 26038,
    "▁gospel": 15491,
    "2017": 9887,
    "▁9:00": 23239,
    "▁Chang": 24187,
    "hay": 12687,
    "▁arm": 2939,
    "▁Receiv": 31665,
    "▁Technology": 3669,
    "▁spirituel": 28098,
    "▁alle": 1854,
    "▁bag": 2182,
    "▁serves": 4657,
    "▁revelation": 20022,
    "▁pump": 5013,
    "▁Electrical": 18419,
    "▁Beautiful": 7622,
    "usziehbar": 28852,
    "▁théorie": 30365,
    "Introducing": 30586,
    "▁salt": 3136,
    "rrington": 27636,
    "▁coeur": 17317,
    "▁magnif": 27751,
    "▁Lane": 11834,
    "65": 4122,
    "▁faza": 26799,
    "cri": 2685,
    "▁well": 168,
    "OUS": 17854,
    "oasă": 10492,
    "▁comprises": 13009,
    "▁gradual": 26079,
    "ably": 3834,
    "India": 22126,
    "probiert": 31450,
    "▁9/11": 27581,
    "univers": 7846,
    "▁soirée": 15104,
    "înd": 12516,
    "▁Ausgangs": 29251,
    "▁Party": 3450,
    "LIN": 20931,
    "▁among": 859,
    "▁estimated": 5861,
    "▁Rap": 15052,
    "psy": 19819,
    "ediglich": 17343,
    "▁benign": 31144,
    "withstand": 23361,
    "intègre": 30385,
    "▁confession": 26838,
    "hang": 9270,
    "▁Kath": 23906,
    "au": 402,
    "kilometre": 20656,
    "▁Forest": 6944,
    "reading": 20316,
    "bildung": 14365,
    "1.9": 22493,
    "▁resident": 8141,
    "▁phone": 951,
    "▁Comic": 15175,
    "▁Brand": 4688,
    "uite": 8431,
    "▁simulate": 26032,
    "▁structural": 8649,
    "▁backgrounds": 15902,
    "goutte": 31956,
    "▁turtle": 29151,
    "▁flawed": 28607,
    "▁gift": 1876,
    "##": 30345,
    "▁roof": 2955,
    "▁Punch": 29837,
    "380": 22671,
    "▁programming": 6020,
    "▁Hope": 6000,
    "▁affinity": 30352,
    "▁realization": 23543,
    "▁littérature": 31533,
    "whereas": 10339,
    "85": 4433,
    "▁Our": 421,
    "▁format": 1910,
    "lucrează": 26888,
    "LINK": 27472,
    "6-3": 24262,
    "▁bouche": 23462,
    "▁Blend": 17693,
    "▁tweeted": 27975,
    "▁WITH": 11951,
    "▁famous": 2581,
    "▁măsura": 25146,
    "iţi": 5663,
    "▁Tradition": 16418,
    "▁courier": 27961,
    "▁gentil": 29693,
    "▁portion": 4149,
    "▁manner": 3107,
    "▁leisure": 12595,
    "▁Gluten": 30843,
    "▁believing": 19960,
    "▁scuz": 30402,
    "▁imperfections": 31475,
    "artige": 17288,
    "planetary": 30351,
    "ité": 1257,
    "schein": 7837,
    "Warum": 17499,
    "▁Dept": 25734,
    "▁champagne": 22116,
    "▁Touch": 11031,
    "Purchasing": 31700,
    "▁încheiat": 25861,
    "▁mechanisms": 12009,
    "▁Chapel": 18823,
    "▁violat": 27857,
    "▁Motion": 18833,
    "gru": 9667,
    "▁director": 2090,
    "ACC": 14775,
    "▁Pull": 17039,
    "▁fois": 2529,
    "▁autorisé": 27309,
    "kindly": 21914,
    "▁adequately": 22538,
    "Lizenz": 28118,
    "▁permitting": 27039,
    "lase": 25718,
    "▁homo": 13503,
    "▁individuell": 20729,
    "oppel": 24160,
    "▁exklusive": 29658,
    "▁engraving": 30957,
    "iness": 6096,
    "▁roughly": 10209,
    "▁water": 387,
    "▁anschließend": 17739,
    "iterführende": 26408,
    "▁aucun": 10349,
    "▁adjunct": 28542,
    "Decizi": 30999,
    "▁while": 298,
    "▁bruit": 25586,
    "58": 3449,
    "▁Kinder": 2758,
    "elte": 18920,
    "▁lowest": 7402,
    "▁GA": 10615,
    "nam": 13363,
    "vers": 2660,
    "CP": 4184,
    "SEL": 23143,
    "Manager": 27272,
    "▁absorb": 8074,
    "▁cheap": 2877,
    "gehoben": 27261,
    "▁Taiwan": 14441,
    "▁countries": 1440,
    "▁III": 6289,
    "▁rôle": 11799,
    "expected": 31643,
    "▁équipe": 12168,
    "▁fluctu": 23460,
    "PASS": 30317,
    "▁Aufgabe": 18215,
    "ffin": 20434,
    "▁2016,": 5123,
    "▁legitimate": 12372,
    "anbieter": 24053,
    "droht": 29015,
    "▁Controller": 23105,
    "erode": 29145,
    "werfen": 24390,
    "▁inklusive": 23605,
    "▁Forschung": 13764,
    "▁34": 6154,
    "▁blogs": 9407,
    "▁would": 133,
    "▁continua": 8568,
    "▁fight": 2870,
    "▁shortage": 16316,
    "▁cease": 18682,
    "▁Mold": 21338,
    "▁experienţ": 25234,
    "▁priority": 5734,
    "▁law": 973,
    "▁eigentlich": 7926,
    "Davidson": 23268,
    "▁Economic": 9071,
    "circ": 15776,
    "▁forecast": 7555,
    "lux": 8387,
    "RIGHT": 27262,
    "INCLUD": 27450,
    "leicht": 25521,
    "LT": 9012,
    "oricine": 29012,
    "▁orasului": 28069,
    "▁Optimization": 29044,
    "ney": 3186,
    "kunst": 23928,
    "▁Level": 7166,
    "2011": 13907,
    "ugg": 13917,
    "▁opposite": 6401,
    "▁beschrieben": 24958,
    "▁păstr": 15346,
    "download": 26036,
    "1700": 26774,
    "char": 4059,
    "GG": 21320,
    "▁coloring": 7089,
    "▁salari": 6457,
    "rechnet": 24847,
    "literatur": 22973,
    "auftrag": 26157,
    "gegen": 20094,
    "coli": 9044,
    "▁beraten": 19860,
    "▁unanimous": 25141,
    "mittel": 5401,
    "▁detection": 10664,
    "▁functioning": 11850,
    "▁malaria": 29466,
    "▁urmează": 20738,
    "èvre": 22491,
    "▁shelving": 29741,
    "▁Kraft": 10756,
    "▁Cincinnati": 20862,
    "etter": 15583,
    "▁poetry": 10773,
    "LP": 6892,
    "▁prince": 22277,
    "nsonsten": 23892,
    "▁Kunden": 3207,
    "laden": 9514,
    "▁rivet": 27063,
    "▁penalties": 17524,
    "▁Medi": 11816,
    "voc": 6117,
    "▁simplu": 8368,
    "▁financiar": 16194,
    "letzt": 13761,
    "Sie": 23357,
    "<extra_id_21>": 32078,
    "▁Avant": 17536,
    "Sense": 19003,
    "*****": 21905,
    "EMENT": 21221,
    "My": 7008,
    "▁Douglas": 14154,
    "▁Sherman": 29485,
    "▁sensation": 9118,
    "▁pediatric": 18325,
    "▁UCLA": 28685,
    "▁LORD": 24023,
    "▁Later": 10511,
    "ierung": 3194,
    "▁baseball": 9600,
    "Suntem": 21757,
    "▁Einstellung": 22605,
    "ittlerweile": 16122,
    "▁Frühjahr": 29488,
    "▁Exercise": 21414,
    "401": 20016,
    "101": 19621,
    "extinction": 29570,
    "▁breath": 6522,
    "▁expectations": 4454,
    "Speed": 28328,
    "▁Metropolitan": 20074,
    "Fiecare": 18326,
    "▁torture": 20269,
    "ou": 1063,
    "▁lap": 14941,
    "▁versch": 10020,
    "▁covenant": 26404,
    "▁susţinut": 30857,
    "Pourtant": 27186,
    "▁Marble": 28122,
    "▁them": 135,
    "has": 10293,
    "▁contaminants": 30264,
    "▁Aqua": 11154,
    "▁Wright": 16634,
    "▁dust": 5784,
    "▁(8": 13642,
    "▁marked": 7027,
    "monetiz": 30267,
    "▁întâlnire": 30007,
    "UL": 4254,
    "▁chaussure": 24825,
    "▁attack": 3211,
    "▁accuracy": 7452,
    "▁greatly": 6891,
    "▁maps": 8111,
    "pid": 12417,
    "▁Alma": 26861,
    "supposedly": 24309,
    "▁Spitze": 17894,
    "▁Q": 1593,
    "▁Pitt": 22042,
    "▁florist": 27460,
    "schä": 12470,
    "▁renseignements": 28467,
    "▁Around": 16140,
    "▁themselves": 1452,
    "▁absence": 8605,
    "▁différent": 21174,
    "▁1960": 8754,
    "▁Carbon": 14335,
    "RB": 12108,
    "▁outbreak": 22494,
    "▁output": 3911,
    "▁belongs": 16952,
    "flamm": 19381,
    "▁Gérard": 31555,
    "▁drumuri": 26434,
    "▁organizat": 9833,
    "equate": 25875,
    "▁jeder": 6175,
    "▁Open": 2384,
    "realised": 19007,
    "▁loading": 12115,
    "▁wireless": 5419,
    "▁Abu": 15392,
    "cloth": 21974,
    "▁Trek": 20350,
    "ământ": 20285,
    "▁la": 50,
    "▁moving": 1735,
    "▁Rocket": 22176,
    "▁Daten": 2679,
    "▁certain": 824,
    "glas": 16985,
    "▁(17": 18360,
    "▁fear": 2971,
    "▁Lo": 1815,
    "▁grain": 8273,
    "▁Beg": 10129,
    "▁balls": 11607,
    "▁sauce": 3837,
    "▁few": 360,
    "Wettbewerb": 19745,
    "▁dig": 9799,
    "▁impact": 1113,
    "▁besuchen": 22199,
    "▁smart": 2592,
    "uploads": 29778,
    "▁Android": 3054,
    "▁scenarios": 13911,
    "▁față": 10910,
    "▁Metal": 9276,
    "▁moindre": 24835,
    "▁vivid": 18744,
    "▁technicians": 11225,
    "roasted": 17408,
    "▁university": 3819,
    "employment": 29056,
    "NAT": 25271,
    "▁outfit": 6468,
    "▁folk": 12702,
    "ensuring": 5833,
    "vapeur": 30951,
    "Stunning": 29742,
    "▁beginner": 19529,
    "▁Project": 2786,
    "▁peers": 13359,
    "▁trunk": 17041,
    "▁Nepal": 17029,
    "▁$25": 14685,
    "▁strong": 1101,
    "speed": 9993,
    "▁gateway": 17090,
    "▁clase": 25062,
    "▁fired": 12744,
    "druck": 7355,
    "▁salvage": 29071,
    "▁vorgesehen": 28973,
    "▁Goose": 30462,
    "▁Junior": 10243,
    "▁Viertel": 30639,
    "AY": 15029,
    "▁vorher": 13952,
    "▁contine": 17156,
    "▁Vineyard": 29913,
    "▁default": 4647,
    "litz": 13668,
    "▁concerts": 14635,
    "slept": 25726,
    "▁virtuelle": 25405,
    "elecommunication": 18329,
    "▁juice": 5143,
    "alter": 8818,
    "▁emerge": 13591,
    "▁Custom": 6150,
    "integrating": 20030,
    "▁Allen": 10618,
    "▁consumer": 3733,
    "▁laughing": 20692,
    "autres": 3722,
    "Arrangement": 31895,
    ",\"": 976,
    "fed": 19565,
    "▁commonly": 5871,
    "▁stores": 3253,
    "ä": 1864,
    "▁Sunny": 26827,
    "▁TOP": 17533,
    "ère": 2970,
    "▁favoris": 16615,
    "▁sustainable": 5086,
    "▁bleeding": 19021,
    "▁succulent": 29566,
    "schätzung": 28910,
    "Lab": 18506,
    "▁golden": 7069,
    "gre": 3584,
    "▁nib": 30203,
    "scribed": 22573,
    "▁forum": 5130,
    "ways": 6415,
    "▁amestec": 11088,
    "▁roll": 3812,
    "▁insane": 21070,
    "▁übernehmen": 21704,
    "▁Spieler": 11142,
    "▁dealership": 17603,
    "vis": 3466,
    "riti": 13224,
    "▁soft": 1835,
    "▁passage": 5454,
    "▁actiuni": 27544,
    "Regulatory": 31056,
    "patient": 10061,
    "Exactly": 27888,
    "▁problema": 13130,
    "sized": 5120,
    "▁trapped": 19779,
    "ble": 2296,
    "mă": 6474,
    "▁apparel": 21067,
    "▁engage": 4082,
    "▁pla": 9564,
    "▁repar": 12243,
    "ändig": 17026,
    "▁echipei": 23520,
    "▁Frankreich": 25344,
    "▁intr": 2155,
    "▁Jeder": 19399,
    "▁doved": 25603,
    "▁inflammation": 13386,
    "▁Radi": 14501,
    "▁utilization": 21961,
    "trieb": 13835,
    "▁théâtre": 23466,
    "▁publishing": 9002,
    "▁Chr": 18106,
    "▁Toyota": 11509,
    "rophy": 29006,
    "-30": 10086,
    "wang": 17789,
    "▁lösen": 26949,
    "ige": 3077,
    "▁distribu": 11266,
    "▁time": 97,
    "eks": 16789,
    "UNT": 17161,
    "▁Vanessa": 30003,
    "nik": 4953,
    "▁beta": 12637,
    "▁How": 571,
    "▁certificat": 18564,
    "▁résidence": 22949,
    "woo": 14952,
    "▁suffer": 5696,
    "▁newsletter": 7288,
    "▁Daniel": 4173,
    "▁qualifying": 18002,
    "▁necesita": 22799,
    "sell": 12019,
    "semblent": 31827,
    "tourism": 30712,
    "▁entitlement": 30053,
    "▁unfair": 18216,
    "▁rhyme": 31294,
    "▁Beast": 26695,
    "group": 10739,
    "▁Asphalt": 30523,
    "dog": 10169,
    "Toate": 13532,
    "172": 27156,
    "▁couch": 6452,
    "▁shirt": 8677,
    "▁Projekt": 6593,
    "▁willing": 4403,
    "▁métier": 18412,
    "▁Motto": 24699,
    "▁Zum": 8083,
    "▁teoretic": 30743,
    "▁folosi": 8971,
    "▁capacitate": 24033,
    "▁Arab": 9217,
    "▁frame": 2835,
    "▁prospective": 11735,
    "phra": 28698,
    "▁Annual": 7389,
    "▁pericol": 23227,
    "bin": 4517,
    "(2009)": 25812,
    "SON": 10466,
    "▁souffr": 21062,
    "▁altfel": 12459,
    "▁throwing": 13049,
    "▁reg": 5925,
    "▁refrigerator": 11042,
    "▁Solid": 12974,
    "▁driver": 2535,
    "of": 858,
    "▁airport": 3761,
    "▁easier": 1842,
    "▁Magnetic": 29648,
    "620": 26898,
    "Archived": 25771,
    "▁ausschließlich": 17300,
    "▁Scha": 11450,
    "▁Reg": 7777,
    "▁targeted": 7774,
    "bleib": 24196,
    "▁Aug": 6128,
    "uzi": 12030,
    "▁downloaded": 11081,
    "▁currencies": 22628,
    "▁Shade": 25186,
    "▁reicht": 19505,
    "▁evolve": 15824,
    "▁rar": 18927,
    "▁Kong": 7807,
    "▁I": 27,
    "tory": 10972,
    "▁glaube": 18946,
    "ит": 22682,
    "▁liquor": 24138,
    "▁Philippine": 27233,
    "▁puţin": 12241,
    "aching": 12076,
    "▁headquarters": 13767,
    "▁sit": 2561,
    "nui": 17965,
    "wolle": 22569,
    "kha": 18276,
    "▁Attend": 22497,
    "▁triangle": 19938,
    "kol": 11292,
    "▁identificat": 27979,
    "▁Pai": 14697,
    "Syndic": 31715,
    "▁jurisdiction": 10185,
    "▁Territory": 30110,
    "▁miercuri": 22740,
    "umb": 5937,
    "▁Finanz": 15156,
    "31": 3341,
    "▁Safari": 20082,
    "▁Joomla": 30567,
    "▁Personally": 21069,
    "▁equity": 8408,
    "▁Tennessee": 12976,
    "▁ignore": 9751,
    "tub": 14535,
    "readable": 27785,
    "▁conversation": 3634,
    "have": 7965,
    "nstruire": 28457,
    "▁principale": 12596,
    "▁Comme": 8192,
    "wirken": 15188,
    "▁Carolyn": 31943,
    "▁eclectic": 24939,
    "▁complicated": 6446,
    "▁helping": 2022,
    "auer": 12668,
    "▁superior": 4784,
    "▁Border": 17600,
    "▁recherche": 3895,
    "▁cleaning": 2327,
    "kultur": 21528,
    "zzi": 21607,
    "▁klar": 8330,
    "▁Isle": 19723,
    "▁Süd": 11242,
    "▁Business": 1769,
    "▁interne": 12652,
    "▁eggplant": 30898,
    "▁tax": 1104,
    "ansprüche": 31485,
    "▁Bend": 22435,
    "TV": 4562,
    "Roofing": 23116,
    "historic": 28005,
    "▁da": 836,
    "aider": 18900,
    "▁déplacement": 23976,
    "▁urma": 4085,
    "▁photographs": 7194,
    "▁Lieblings": 21046,
    "▁Flexible": 29621,
    "Sphere": 31722,
    "▁afecta": 18993,
    "▁Grundlage": 15604,
    "▁Palace": 12530,
    "▁elimin": 15964,
    "▁răspunde": 23060,
    "▁Medium": 16938,
    "▁adaptation": 14340,
    "▁iPad": 6250,
    "▁MORE": 23207,
    "Deine": 16177,
    "asteptam": 27893,
    "▁formule": 20233,
    "▁PR": 6045,
    "vik": 21346,
    "▁citizen": 13008,
    "▁Repair": 7057,
    "▁Th": 5791,
    "kämpfe": 20854,
    "▁magnitude": 20722,
    "▁Situ": 18498,
    "Pop": 27773,
    "encies": 11573,
    "▁colleague": 19774,
    "▁Sustainable": 21224,
    "▁carrière": 21526,
    "#": 4663,
    "▁Es": 1122,
    "▁Euro": 2430,
    "plain": 18689,
    "▁Dou": 17159,
    "euses": 14784,
    "sicherheit": 20170,
    "▁Planet": 12601,
    "▁celebration": 5216,
    "▁Format": 12439,
    "▁Risiko": 19725,
    "TEC": 23933,
    "without": 23016,
    "▁Collective": 25273,
    "fälle": 15410,
    "ement": 1194,
    "▁Wedding": 9057,
    "▁foc": 13479,
    "▁visualize": 25086,
    "▁Down": 7309,
    "▁catastrophic": 26926,
    "▁ansamblu": 25476,
    "▁Vogel": 26329,
    "▁discounted": 19077,
    "▁Vehicle": 15095,
    "▁thought": 816,
    "▁exist": 3223,
    "/4": 13572,
    "▁praise": 11308,
    "▁nostalgia": 30099,
    "shalb": 14737,
    "▁bolnav": 25170,
    "Orice": 24519,
    "▁vague": 15986,
    "▁Raspberry": 25672,
    "▁frightening": 28830,
    "▁upgrading": 21066,
    "▁promised": 11130,
    "▁rupture": 24954,
    "▁meilleure": 12975,
    "▁Chiropractic": 29618,
    "▁reciproc": 22882,
    "▁truly": 1892,
    "▁limit": 2006,
    "▁Effect": 14247,
    "▁triple": 12063,
    "▁Going": 15312,
    "▁mimic": 22336,
    "▁Sun": 3068,
    "▁Bühne": 21552,
    "▁stupid": 13721,
    "▁homeowners": 11634,
    "encompassing": 30595,
    "▁Miller": 9429,
    "zer": 2558,
    "▁Blo": 12861,
    "▁loved": 1858,
    "▁Capitol": 18808,
    "chal": 12654,
    "INS": 14750,
    "iers": 4518,
    "▁shading": 31788,
    "▁suport": 10637,
    "▁Alpen": 27902,
    "▁100": 910,
    "▁marché": 6183,
    "▁spécial": 18733,
    "▁zilnic": 13232,
    "▁femmes": 9382,
    "▁sweater": 19469,
    "▁réponse": 11017,
    "Image": 29979,
    "ston": 4411,
    "likewise": 15340,
    "frying": 28455,
    "anz": 4557,
    "rea": 864,
    "▁Belarus": 28608,
    "▁domin": 10138,
    "▁proper": 2757,
    "pos": 2748,
    "▁atmosphere": 4643,
    "fähig": 13718,
    "dimension": 31987,
    "▁SMS": 12780,
    "▁Literary": 30621,
    "▁obsessed": 22875,
    "▁validate": 16742,
    "▁half": 985,
    "▁Royal": 3671,
    "▁Piece": 21177,
    "▁opposed": 8560,
    "ILE": 20129,
    "▁enterprise": 5399,
    "laud": 12513,
    "linie": 13794,
    "ionat": 8796,
    "▁know": 214,
    "ARE": 7451,
    "All": 6838,
    "▁UPS": 21317,
    "▁lock": 6081,
    "▁kits": 11945,
    "▁sausage": 18567,
    "cati": 16461,
    "▁suppression": 23059,
    "▁stem": 6269,
    "▁dispute": 11044,
    "ending": 9303,
    "▁urme": 22025,
    "hop": 10776,
    "▁blessed": 11320,
    "▁likely": 952,
    "Med": 20123,
    "derived": 9942,
    "▁ferment": 21434,
    "▁eclipse": 25759,
    "LB": 16976,
    "▁divine": 13429,
    "▁remplacement": 29419,
    "▁synthetic": 13699,
    "▁payday": 19555,
    "conceivabl": 30932,
    "▁relatives": 12867,
    "offrent": 26375,
    "▁crede": 13189,
    "▁described": 3028,
    "Detect": 31636,
    "▁bénévole": 30143,
    "▁zipper": 22245,
    "Erkrankung": 24394,
    "risti": 22061,
    "▁Gonzalez": 31403,
    "▁cyst": 26530,
    "▁Rug": 18675,
    "geräte": 21143,
    "▁end": 414,
    "watt": 11876,
    "vin": 2494,
    "ologi": 11697,
    "mill": 12415,
    "▁lider": 18793,
    "▁tire": 10577,
    "traces": 24834,
    "▁structura": 19444,
    "▁Olympic": 11548,
    "omb": 8038,
    "▁Holz": 8589,
    "▁resonance": 28914,
    "geld": 13022,
    "▁Newport": 24260,
    "▁infestation": 30607,
    "tanz": 14137,
    "53": 4867,
    "▁epi": 9241,
    "▁confi": 12845,
    "▁Cambodia": 25585,
    "▁atenție": 30222,
    "▁bin": 2701,
    "impacted": 18229,
    "▁Current": 12892,
    "▁pan": 2131,
    "dite": 10700,
    "chaffung": 24635,
    "Mail": 7098,
    "▁Joan": 20950,
    "▁dignity": 21377,
    "honoured": 29977,
    "▁attempted": 13090,
    "▁dividend": 12190,
    "▁réception": 22544,
    "▁acestor": 10359,
    "▁condiţii": 18482,
    "▁Parallel": 27535,
    "▁oil": 1043,
    "Par": 13212,
    "▁print": 2281,
    "▁methodology": 15663,
    "embracing": 24209,
    "über": 6638,
    "smoked": 24198,
    "▁Command": 13901,
    "Er": 10575,
    "ific": 3286,
    "▁Lup": 23776,
    "▁Durham": 25215,
    "vati": 24991,
    "▁Bestellung": 19878,
    "▁lendemain": 28791,
    "▁Oriental": 27401,
    "▁ecran": 18173,
    "jean": 26459,
    "▁Sicherheits": 15978,
    "eaza": 1802,
    "▁journal": 6378,
    "▁nu": 206,
    "▁entschieden": 21901,
    "▁radiant": 26305,
    "▁6,": 8580,
    "adapt": 13376,
    "▁Leistungen": 17866,
    "▁excerpt": 29603,
    "allons": 16951,
    "▁College": 1888,
    "▁Vet": 20495,
    "▁posséd": 28690,
    "dietary": 16640,
    "bekannt": 27570,
    "▁Dakota": 16711,
    "▁pronounce": 29786,
    "Act": 23312,
    "▁participant": 8344,
    "▁chasse": 23301,
    "Default": 29509,
    "▁Kai": 17654,
    "▁further": 856,
    "▁won": 751,
    "▁lymph": 25049,
    "▁server": 2460,
    "pulmonary": 26836,
    "▁Marie": 9541,
    "▁cell": 2358,
    "▁cadou": 21747,
    "▁Bolivia": 31271,
    "▁Cop": 10400,
    "▁Irvine": 30411,
    "scended": 28394,
    "hôpital": 30394,
    "▁Spo": 8927,
    "▁above": 756,
    "08.": 15000,
    "▁2019.": 4144,
    "▁please": 754,
    "▁smoothly": 14000,
    "wordpress": 28234,
    "▁by": 57,
    "▁reached": 3495,
    "abila": 15588,
    "maßnahmen": 26540,
    "▁pics": 14352,
    "▁Frei": 8671,
    "▁Kultur": 11058,
    "▁Titan": 13622,
    "written": 14973,
    "De": 2962,
    "▁commander": 17604,
    "varies": 15550,
    "▁Midwest": 22576,
    "▁continuation": 25192,
    "▁Bangkok": 20301,
    "▁articulate": 21610,
    "▁refreshed": 27740,
    "c": 75,
    "<extra_id_63>": 32036,
    "5.3": 26627,
    "▁Ger": 5744,
    "TAR": 28588,
    "▁customers": 722,
    "supplying": 19327,
    "feier": 14178,
    "starken": 24733,
    "▁July": 1718,
    "ле": 19229,
    "▁Größe": 12622,
    "▁Community": 3092,
    "ubi": 8371,
    "▁meine": 3494,
    "ó": 4922,
    "care": 2864,
    "arme": 13451,
    "▁fur": 4223,
    "▁splash": 16500,
    "walk": 12539,
    "▁stopped": 4910,
    "▁18": 507,
    "▁avut": 3330,
    "▁Imaging": 27684,
    "è": 5115,
    "▁Leave": 11339,
    "▁oriental": 25890,
    "▁70": 2861,
    "▁magician": 31412,
    "97": 4327,
    "▁sad": 6819,
    "Z": 956,
    "▁carbon": 4146,
    "▁unnecessary": 12592,
    "▁Terre": 18925,
    "▁Vorlage": 29399,
    "▁seit": 3646,
    "führen": 14186,
    "▁funds": 2731,
    "▁Omaha": 29518,
    "▁Nach": 1985,
    "frunt": 21733,
    "▁Parish": 21954,
    "Europe": 11351,
    "▁been": 118,
    "hafen": 31425,
    "plate": 17628,
    "drin": 19161,
    "▁parler": 13135,
    "brow": 14853,
    "▁prescribe": 27766,
    "flakes": 26174,
    "ecunoscut": 21790,
    "▁Ap": 5085,
    "▁mijloc": 13169,
    "▁hatred": 27983,
    "001": 17465,
    "occupy": 20817,
    "▁Cloud": 5713,
    "GES": 25617,
    "fish": 6779,
    "▁douche": 23568,
    "▁pui": 15075,
    "▁$2": 3771,
    "▁Processing": 19125,
    "▁Size": 8941,
    "▁laisse": 14660,
    "▁choose": 854,
    "▁grandchildren": 18638,
    "guer": 19645,
    "▁Eu": 4491,
    "▁Golf": 7063,
    "▁ultrasound": 23486,
    "▁Frontier": 23285,
    "▁specialty": 11355,
    "▁Kapitel": 31130,
    "▁Cour": 13579,
    "MRC": 27396,
    "▁window": 2034,
    "▁Mazda": 24730,
    "▁scanner": 19083,
    "▁Partner": 5793,
    "▁term": 1657,
    "▁stimulate": 14954,
    "▁proprie": 18282,
    "ächtig": 16580,
    "Această": 17749,
    "which": 3339,
    "▁spite": 17912,
    "▁Bottle": 25921,
    "▁permits": 14079,
    "flect": 26303,
    "▁gets": 2347,
    "ulph": 27786,
    "▁party": 1088,
    "annual": 30627,
    "▁MySQL": 27563,
    "rob": 5840,
    "rseits": 23218,
    "▁sociale": 7787,
    "▁treac": 23968,
    "▁echo": 20747,
    "▁activitatea": 13493,
    "▁gone": 2767,
    "contamin": 23753,
    "▁exhibitors": 31285,
    "▁scharf": 30770,
    "▁play": 577,
    "<extra_id_39>": 32060,
    "che": 1033,
    "ips": 15432,
    "extending": 16878,
    "▁Arbitr": 30413,
    "▁continuing": 6168,
    "▁vermitteln": 28041,
    "▁distract": 15980,
    "streit": 26591,
    "nnen": 8772,
    "affecting": 13403,
    "▁Highway": 11428,
    "▁Copenhagen": 27591,
    "▁cardio": 16216,
    "niei": 26757,
    "▁Preview": 28398,
    "▁télé": 12362,
    "▁adaug": 20852,
    "sortiment": 31114,
    "▁observa": 17404,
    "▁feeding": 10795,
    "étudiant": 24045,
    "▁conțin": 23088,
    "▁pixels": 15386,
    "verkehr": 17105,
    "▁Technical": 10728,
    "ango": 17934,
    "▁usual": 4680,
    "ragged": 28581,
    "▁altogether": 16889,
    "▁Dem": 10007,
    "Quite": 22147,
    "étapes": 29473,
    "wal": 5380,
    "believable": 31733,
    "liber": 10661,
    "▁considér": 20228,
    "▁Ich": 1674,
    "▁groundbreaking": 29009,
    "▁lecture": 7177,
    "mos": 3972,
    "dging": 12720,
    "▁Look": 3568,
    "▁weekend": 1851,
    "▁Commissioner": 14595,
    "▁faithful": 13855,
    "▁Trouve": 31388,
    "UE": 5078,
    "▁Gegner": 24574,
    "▁environment": 1164,
    "▁narrow": 5658,
    "utz": 9282,
    "oraşului": 31853,
    "▁arrange": 8031,
    "▁160": 11321,
    "▁commencer": 17322,
    "▁Cart": 11533,
    "rous": 8283,
    "▁mariage": 16850,
    "▁excavation": 29634,
    "rose": 8115,
    "sofern": 20448,
    "▁mecanic": 28441,
    "▁tract": 13499,
    "▁throughout": 1019,
    "▁anzu": 12964,
    "▁Properties": 21098,
    "pli": 5900,
    "▁saptamani": 23245,
    "▁Tony": 9137,
    "▁orizont": 31393,
    "▁tant": 6584,
    "BR": 6934,
    "▁thumbnail": 30250,
    "▁OS": 6328,
    "▁Timișoara": 28481,
    "▁vegetable": 12065,
    "▁smile": 3993,
    "▁along": 590,
    "▁naissance": 23056,
    "▁gandi": 18048,
    "viennent": 12943,
    "▁pantofi": 29508,
    "▁cookbook": 23410,
    "▁profiter": 14044,
    "▁vérité": 28178,
    "▁sticking": 20145,
    "waschen": 30900,
    "▁double": 1486,
    "▁LED": 4429,
    "Serviciul": 30883,
    "▁Cliff": 22352,
    "▁perpetu": 31324,
    "▁central": 2069,
    "▁contre": 3386,
    "employé": 23688,
    "époque": 14971,
    "▁Dezember": 17900,
    "▁insects": 19127,
    "▁oportun": 20514,
    "▁boost": 4888,
    "▁API": 6429,
    "ACT": 9262,
    "zeig": 15522,
    "▁reading": 1183,
    "▁Campus": 15201,
    "ön": 11431,
    "▁Classic": 6744,
    "▁consommation": 17035,
    "▁pagina": 13684,
    "▁Bedien": 29028,
    "arni": 23403,
    "soweit": 19151,
    "▁thermal": 11499,
    "tered": 11196,
    "halb": 9049,
    "dreh": 14468,
    "▁father": 2353,
    "▁Abbott": 31592,
    "▁Pad": 10683,
    "polita": 21631,
    "▁fait": 1094,
    "▁entreprises": 8713,
    "▁facility": 3064,
    "▁works": 930,
    "▁apropiere": 20652,
    "▁Xbox": 14480,
    "ти": 18352,
    "▁tea": 2198,
    "▁calitatea": 17365,
    "Sacred": 24756,
    "ANS": 16897,
    "School": 29364,
    "▁Tur": 7538,
    "▁Dich": 14787,
    "▁taxpayer": 15375,
    "▁okay": 8957,
    "viteză": 31891,
    "▁spre": 3752,
    "▁sum": 4505,
    "▁leak": 7653,
    "▁marketers": 17855,
    "▁retour": 7268,
    "▁platform": 1585,
    "▁Tanzania": 24677,
    "▁optimiz": 19769,
    "▁Cancer": 9520,
    "▁bon": 2682,
    "▁misconception": 28518,
    "▁üblich": 28421,
    "▁tailor": 13766,
    "▁jaune": 22475,
    "▁building": 740,
    "▁helmet": 18691,
    "▁crusher": 4121,
    "▁wrench": 27553,
    "bur": 5808,
    "89": 3914,
    "▁impossible": 4586,
    "Normally": 23079,
    "▁Sexual": 30908,
    "▁renovat": 23923,
    "▁Maryland": 10271,
    "▁Pride": 24252,
    "blin": 21746,
    "▁Gran": 12102,
    "Tutor": 28676,
    "duce": 12160,
    "▁singura": 15338,
    "▁Promise": 28844,
    "▁goal": 1288,
    "NH": 15743,
    "▁disability": 10050,
    "▁Dubai": 9959,
    "во": 19414,
    "▁Kumar": 23400,
    "▁meci": 20665,
    "▁Februar": 17480,
    "modernen": 30437,
    "centered": 12809,
    "▁us": 178,
    "entre": 9578,
    "hhh": 24303,
    "▁patches": 18892,
    "▁Prozent": 7145,
    "▁mobilier": 18553,
    "▁(7": 13649,
    "DER": 11300,
    "Happy": 31141,
    "noticing": 28482,
    "▁reflect": 3548,
    "stütze": 29975,
    "strict": 20066,
    "▁hormone": 11932,
    "▁lift": 5656,
    "▁spices": 15771,
    "▁hergestellt": 22108,
    "▁libér": 27549,
    "▁amoureux": 30065,
    "▁totally": 3536,
    "schönsten": 28067,
    "▁Distance": 27370,
    "▁sorgen": 15655,
    "ALL": 12126,
    "▁lumina": 12777,
    "fini": 5582,
    "▁brownie": 28427,
    "▁accord": 4408,
    "▁sera": 2707,
    "▁Mark": 2185,
    "effectuer": 18725,
    "▁opus": 26872,
    "vases": 31776,
    "▁futur": 12885,
    "▁1970": 7434,
    "▁establish": 4797,
    "▁Individual": 10963,
    "▁Certified": 10178,
    "aliment": 8972,
    "▁General": 2146,
    "▁activitati": 16251,
    "▁souffle": 29108,
    "▁prépar": 18047,
    "inland": 25948,
    "▁Mel": 5049,
    "▁whatever": 2891,
    "▁inspirat": 23121,
    "horizon": 12158,
    "▁application": 917,
    "▁emblem": 26919,
    "▁beliebt": 14199,
    "▁fish": 2495,
    "▁capabilities": 5644,
    "augmenter": 22981,
    "adherence": 28909,
    "Name": 23954,
    "▁debut": 5695,
    "▁Simpson": 21965,
    "▁încet": 23408,
    "▁négoci": 27152,
    "▁breeding": 18995,
    "▁Qualcomm": 30628,
    "▁întâmplat": 28136,
    "▁played": 1944,
    "▁Dinner": 18428,
    "▁capital": 1784,
    "CAM": 21907,
    "▁creative": 1812,
    "educating": 23251,
    "▁applicable": 5383,
    "rote": 14919,
    "▁HR": 8383,
    "▁Catch": 22570,
    "▁Crazy": 25199,
    "▁registration": 3816,
    "zug": 5131,
    "lbstverständlich": 18287,
    "▁Dort": 16819,
    "abide": 24864,
    "▁Dorothy": 29039,
    "▁Prä": 13796,
    "▁Orange": 7311,
    "▁Național": 15681,
    "▁Scholar": 23229,
    "▁itself": 1402,
    "▁ciuda": 18224,
    "sorgt": 9143,
    "▁variables": 11445,
    "▁Ga": 2776,
    "15": 1808,
    "Ultimately": 19494,
    "▁larger": 2186,
    "cheapest": 14575,
    "▁Highly": 20600,
    "ARN": 24947,
    "ancienne": 16240,
    "▁Mathematics": 23516,
    "carbon": 17089,
    "▁Antarctic": 26461,
    "▁intersection": 15415,
    "American": 8778,
    "▁Bedford": 27393,
    "Sadly": 19832,
    "▁mad": 11454,
    "▁verbindet": 31088,
    "meciul": 29638,
    "▁college": 1900,
    "bezogen": 22753,
    "▁statistic": 19720,
    "▁pierdere": 23158,
    "kot": 15414,
    "▁newspaper": 8468,
    "▁Duck": 19998,
    "▁remember": 1423,
    "▁postal": 19085,
    "pecializing": 26253,
    "▁apar": 9072,
    "Pay": 19702,
    "▁Huawei": 18590,
    "▁direkt": 4235,
    "rij": 22276,
    "▁situat": 13921,
    "▁sneakers": 27550,
    "▁obviously": 6865,
    "▁soothe": 27335,
    "▁chance": 1253,
    "▁Compatible": 31879,
    "▁fulfillment": 24013,
    "▁ends": 5542,
    "grove": 20254,
    "be": 346,
    "▁educational": 3472,
    "▁multiply": 30333,
    "▁courrier": 27732,
    "▁plâng": 27498,
    "▁orientation": 12602,
    "LAR": 22492,
    "Until": 12282,
    "▁suffering": 5706,
    "▁junk": 11797,
    "▁paiement": 16703,
    "▁once": 728,
    "▁conception": 13061,
    "kabel": 24606,
    "▁transform": 3343,
    "▁sympa": 17024,
    "▁Pirate": 18667,
    "▁importanț": 30580,
    "▁spill": 15487,
    "▁Acces": 25679,
    "▁Fountain": 30566,
    "▁pătrun": 31913,
    "INFO": 29478,
    "itatii": 9167,
    "▁Violet": 28866,
    "▁MBA": 15751,
    "Blue": 22530,
    "▁conversion": 6113,
    "▁commands": 16565,
    "tearing": 30846,
    "mentioning": 27492,
    "▁régional": 22305,
    "▁condition": 1706,
    "▁plant": 1475,
    "л": 6588,
    "▁Moto": 18668,
    "ziehen": 7376,
    "interroge": 30809,
    "con": 1018,
    "gul": 6106,
    "pier": 8343,
    "2-4": 21432,
    "▁Ian": 15498,
    "default": 31026,
    "tipp": 19441,
    "▁Diagram": 19641,
    "▁stolz": 28152,
    "bewertungen": 21998,
    "▁descoperit": 16066,
    "▁scène": 12739,
    "▁decision": 1357,
    "▁Gericht": 16419,
    "Custom": 30067,
    "explains": 9453,
    "▁Detail": 20760,
    "▁Customers": 16423,
    "▁naturii": 31347,
    "▁stimul": 12682,
    "command": 13695,
    "BRE": 25582,
    "▁navigate": 7939,
    "▁PV": 16303,
    "zar": 7061,
    "▁volatile": 25359,
    "▁associations": 10906,
    "▁Experience": 7187,
    "▁Darstellung": 27054,
    "▁FM": 13409,
    "Spr": 14562,
    "▁Ralph": 21171,
    "▁Poly": 7945,
    "▁î": 1889,
    "lub": 11158,
    "▁soluţi": 22436,
    "▁assume": 5344,
    "▁permanent": 3574,
    "▁Rat": 6455,
    "199": 19479,
    "▁alleviat": 18807,
    "▁schimbat": 17895,
    "▁explicat": 22171,
    "▁uniform": 7117,
    "stoffe": 13600,
    "▁desfăşur": 23743,
    "égalité": 26638,
    "▁religion": 5562,
    "Carlton": 30339,
    "▁sophomore": 23659,
    "kämpft": 28875,
    "▁RSS": 14348,
    "▁corners": 13518,
    "pub": 9188,
    "established": 24109,
    "▁skincare": 26309,
    "▁Papa": 17822,
    "▁translation": 7314,
    "▁Med": 8067,
    "▁predictions": 20099,
    "▁Dies": 9654,
    "▁fascinated": 24631,
    "▁peur": 20581,
    "▁Zweck": 14306,
    "▁Nan": 15206,
    "▁ambasad": 31261,
    "▁journée": 7530,
    "▁Mé": 10598,
    "▁dupa": 3045,
    "▁Home": 1210,
    "▁procurement": 19339,
    ";": 117,
    "▁leopard": 30782,
    "▁Ordin": 21983,
    "▁Who": 2645,
    "▁Companies": 11239,
    "lid": 8130,
    "▁trait": 10152,
    "▁tend": 2134,
    "▁Manitoba": 28834,
    "▁wo": 2275,
    "auto": 8010,
    "▁wirklich": 5409,
    "ouvre": 16514,
    "▁voyage": 6232,
    "▁agencies": 4299,
    "extrêmement": 27666,
    "▁cleanliness": 31582,
    "▁malicious": 22326,
    "Boost": 16481,
    "▁putut": 14861,
    "▁moral": 4854,
    "▁saying": 2145,
    "▁speed": 1634,
    "▁Brett": 21203,
    "▁Shoot": 20450,
    "denkt": 29180,
    "▁their": 70,
    "▁Hy": 5555,
    "▁sort": 1843,
    "▁organization": 1470,
    "▁Premier": 6552,
    "inclin": 20246,
    "<extra_id_65>": 32034,
    "▁Administrator": 18420,
    "▁Kann": 19304,
    "usch": 14220,
    "▁outside": 1067,
    "mastered": 25588,
    "EEP": 28367,
    "41": 4853,
    "▁cré": 8261,
    "▁cadeau": 17811,
    "cuprinse": 30412,
    "▁•": 1697,
    "hak": 15416,
    "▁supplies": 4471,
    "▁tiny": 5103,
    "▁approved": 3754,
    "▁Walter": 13171,
    "4,000": 13161,
    "▁Independence": 23381,
    "▁obtine": 17369,
    "voller": 19688,
    "▁warrant": 11741,
    "cock": 12105,
    "accéder": 21697,
    "▁hexagon": 30060,
    "▁werden": 404,
    "4\"": 20364,
    "▁funded": 11264,
    "icide": 9440,
    "▁suspicious": 21641,
    "▁palate": 22775,
    "▁screen": 1641,
    "▁Entertainment": 12694,
    "▁Summer": 5550,
    "▁clearly": 3133,
    "▁pencil": 13966,
    "▁Filipino": 27422,
    "▁disabled": 10860,
    "▁Digitalisierung": 29934,
    "▁ajut": 27164,
    "▁finanziell": 27088,
    "▁sponge": 23216,
    "▁withdrawal": 11905,
    "gezahlt": 31872,
    "▁wieder": 1403,
    "atorium": 28755,
    "suing": 17180,
    "▁foremost": 19839,
    "▁geo": 9502,
    "▁Plant": 6041,
    "▁Governance": 29650,
    "▁Read": 3403,
    "▁besondere": 7537,
    "▁Chicago": 3715,
    "▁Ferien": 16849,
    "▁prison": 5714,
    "circulating": 30715,
    "gearbeitet": 21791,
    "OR": 2990,
    "▁Diver": 22264,
    "▁treptat": 30284,
    "▁Racing": 16046,
    "▁reimburse": 29560,
    "▁Mars": 11856,
    "▁1974": 17184,
    "scalable": 24079,
    "starred": 29029,
    "tauchen": 30038,
    "▁NEW": 8747,
    "▁processes": 2842,
    "▁fingers": 10518,
    "▁flirt": 26522,
    "haus": 2989,
    "fashion": 31692,
    "▁farming": 13293,
    "ification": 2420,
    "▁sauvegarde": 31741,
    "▁universitaire": 29558,
    "▁Prague": 23564,
    "▁Muzic": 30555,
    "trimmed": 29293,
    "Allied": 26454,
    "liés": 22263,
    "▁Carolina": 5089,
    "▁agility": 29647,
    "▁visiting": 3644,
    "▁flap": 23050,
    "▁Durch": 5117,
    "▁avatar": 27374,
    "fair": 14881,
    "▁zip": 10658,
    "▁Dixon": 30368,
    "▁best": 200,
    "▁precis": 29434,
    "▁Fifth": 26729,
    "Suddenly": 28643,
    "▁disput": 24955,
    "plugged": 24429,
    "ств": 24832,
    "▁Legi": 17357,
    "▁Blut": 15995,
    "ständ": 17955,
    "▁audio": 2931,
    "ște": 7689,
    "▁practitioners": 14194,
    "▁installation": 2545,
    "▁soul": 3668,
    "blo": 4672,
    "▁Bet": 7912,
    "▁Pflege": 11524,
    "channel": 19778,
    "▁out": 91,
    "▁fan": 1819,
    "▁piata": 13852,
    "▁Nancy": 17117,
    "▁Coaching": 19767,
    "▁ensure": 766,
    "russia": 26165,
    "US": 3063,
    "▁règle": 27276,
    "▁ceramic": 8949,
    "ough": 4607,
    "▁Erfüllung": 28881,
    "▁method": 1573,
    "ător": 7090,
    "rooted": 19471,
    "▁reflux": 29377,
    "▁compléter": 30633,
    "gri": 3496,
    "▁Zoom": 24900,
    "vii": 14553,
    "▁detailed": 3117,
    "▁cancelled": 18454,
    "▁emb": 10960,
    "tim": 2998,
    "▁educator": 23449,
    "▁NHL": 22313,
    "▁utiliza": 18187,
    "▁Brock": 26349,
    "▁Atlas": 21635,
    "▁puppet": 26141,
    "▁contextual": 28131,
    "▁saptamana": 20057,
    "▁Wilson": 9439,
    "▁volatility": 24868,
    "▁Wick": 18602,
    "▁métallique": 29902,
    "▁complaint": 10394,
    "▁erklären": 24728,
    "hésit": 26431,
    "▁Portuguese": 21076,
    "▁contract": 1696,
    "▁combinations": 15617,
    "ticket": 26639,
    "▁inițial": 31173,
    "▁pelvi": 29106,
    "lighted": 28858,
    "▁square": 2812,
    "▁Collins": 16517,
    "▁Italy": 5308,
    "▁cunoscut": 9432,
    "hiel": 16219,
    "▁learn": 669,
    "berry": 7418,
    "▁Servicii": 28682,
    "▁spiritual": 3428,
    "▁loyal": 14020,
    "▁exceptional": 5916,
    "▁Munte": 29523,
    "▁authorize": 27765,
    "▁Gene": 6939,
    "enceinte": 28572,
    "▁psihic": 28812,
    "▁hypothetical": 31754,
    "▁digestion": 24893,
    "▁Marsh": 21614,
    "▁bid": 6894,
    "▁monarch": 28397,
    "bătut": 29747,
    "▁nautical": 30997,
    "züglich": 26879,
    "éri": 5134,
    "▁Hus": 13674,
    "put": 2562,
    "▁demeure": 23212,
    "far": 5544,
    "▁Agenda": 25353,
    "▁signature": 5483,
    "miss": 11502,
    "VERY": 20329,
    "▁bless": 12606,
    "▁carriers": 16642,
    "375": 22954,
    "▁dried": 11549,
    "▁Devon": 23130,
    "▁knowing": 4265,
    "▁chien": 17826,
    "▁Both": 2867,
    "▁Success": 16581,
    "3/": 15020,
    "Walk": 29873,
    "0.1": 16029,
    "▁Tha": 16118,
    "▁Utiliz": 20156,
    "▁Sound": 7047,
    "▁snuggl": 30800,
    "Akt": 19066,
    "▁halloween": 31949,
    "▁Appeal": 25024,
    "card": 6043,
    "▁contrast": 4656,
    "rack": 16729,
    "zzo": 16692,
    "▁Charm": 20330,
    "Smart": 24656,
    "▁is": 19,
    "bone": 12269,
    "▁erweitert": 24137,
    "▁continental": 23639,
    "nsgesamt": 24509,
    "row": 3623,
    "▁subtract": 31836,
    "acco": 21007,
    "▁înțeles": 30606,
    "▁Frankfurt": 13077,
    "▁liber": 5486,
    "unk": 6513,
    "▁Kindern": 14745,
    "▁popcorn": 26229,
    "▁Pattern": 20918,
    "▁unknown": 7752,
    "▁Warm": 18171,
    "▁chef": 6380,
    "ress": 9377,
    "ères": 12449,
    "▁scr": 14667,
    "▁gender": 7285,
    "▁Sell": 16922,
    "k": 157,
    "▁chains": 16534,
    "▁premi": 11707,
    "▁NBA": 14512,
    "▁spun": 5955,
    "laub": 14802,
    "▁executives": 13510,
    "▁Governor": 10510,
    "▁jumătate": 19391,
    "▁consistency": 12866,
    "ept": 6707,
    "elle": 693,
    "▁unten": 17023,
    "▁declined": 14833,
    "▁times": 648,
    "▁ordered": 5563,
    "fug": 14165,
    "▁Things": 9171,
    "▁sfârșit": 24353,
    "▁Mandel": 26353,
    "teilung": 10830,
    "▁Jews": 11896,
    "▁Lab": 8100,
    "▁susținut": 28535,
    "▁scooter": 22685,
    "▁reasonable": 4360,
    "▁stated": 4568,
    "Vreau": 30590,
    "▁Echipa": 25944,
    "▁spirits": 16370,
    "▁previously": 3150,
    "▁questionnaire": 19144,
    "▁upfront": 25440,
    "ensemble": 7408,
    "ogen": 5255,
    "▁développer": 16710,
    "▁LinkedIn": 14225,
    "▁aspect": 2663,
    "gian": 22898,
    "▁Boc": 18372,
    "riot": 12884,
    "▁additive": 20541,
    "▁recipes": 5459,
    "▁aşez": 31410,
    "▁books": 1335,
    "October": 28680,
    "▁true": 1176,
    "▁around": 300,
    "prevenirea": 31097,
    "FE": 6392,
    "aient": 5635,
    "tting": 6031,
    "▁fil": 5375,
    "▁instructors": 18166,
    "weis": 13206,
    "▁naţionale": 31228,
    "▁Hospice": 29889,
    "▁centrale": 17798,
    "▁illusion": 19178,
    "consulted": 29087,
    "▁recreational": 14863,
    "▁motivation": 6620,
    "▁piece": 1466,
    "▁Aktivitäten": 24480,
    "▁Domnului": 20323,
    "feder": 16812,
    "▁Verfügung": 7182,
    "▁Wang": 18102,
    "spiegel": 19177,
    "OD": 7039,
    "▁überrascht": 31670,
    "▁cinéma": 21534,
    "Smith": 30077,
    "▁brainstorm": 26463,
    "▁Tri": 2702,
    "▁protecţi": 28634,
    "▁Domino": 31757,
    "3.8": 26195,
    "▁Tai": 17612,
    "äger": 27399,
    "▁sugar": 2656,
    "▁kept": 2697,
    "ante": 1841,
    "▁Haushalt": 21068,
    "▁locuri": 10828,
    "▁remake": 28994,
    "REM": 26051,
    "▁arrangements": 8281,
    "works": 13631,
    "▁rack": 7782,
    "▁haute": 10797,
    "share": 12484,
    "▁athletes": 9227,
    "▁Madagascar": 30616,
    "▁Plumbing": 27349,
    "▁Gold": 2540,
    "▁manually": 12616,
    "▁delicat": 30915,
    "▁vendeur": 29654,
    "dung": 8646,
    "formează": 26616,
    "White": 25571,
    "▁articles": 2984,
    "▁Bien": 10520,
    "▁récompense": 31705,
    "▁Literatur": 15019,
    "erii": 5218,
    "fession": 17585,
    "▁PAR": 17917,
    "▁Gregory": 25431,
    "Ray": 25619,
    "▁Volunteer": 15740,
    "▁entendu": 21481,
    "▁Stephen": 7872,
    "erlebnis": 28336,
    "▁Move": 15711,
    "NS": 7369,
    "▁réservé": 28341,
    "talk": 18092,
    "▁politicieni": 31464,
    "mac": 11101,
    "▁Lee": 5531,
    "▁olive": 7994,
    "▁libertate": 23432,
    "▁computers": 7827,
    "▁blonde": 27363,
    "▁shrine": 30258,
    "▁keyword": 15693,
    "▁civic": 18671,
    "▁baisse": 21709,
    "▁over": 147,
    "▁uninterrupted": 29574,
    "▁Hearing": 26651,
    "Lösung": 31160,
    "ACK": 15339,
    "▁recens": 29960,
    "▁keynote": 22720,
    "▁teacher": 3145,
    "▁Thema": 6240,
    "5.2": 24342,
    "2-1": 17234,
    "▁reusit": 17889,
    "ient": 4741,
    "▁26,": 13597,
    "▁pursue": 6665,
    "▁Protect": 12714,
    "gehende": 26447,
    "▁vacuum": 10019,
    "fordern": 21390,
    "▁Mini": 4533,
    "▁Widerstand": 31785,
    "▁draft": 6488,
    "▁daher": 8301,
    "▁snug": 30614,
    "▁which": 84,
    "▁rectangle": 26439,
    "▁vreo": 11744,
    "▁Stud": 12567,
    "▁Registration": 13571,
    "▁gib": 31257,
    "▁Jesus": 1850,
    "▁Weihnachts": 16809,
    "▁Lieb": 24149,
    "▁OR": 4674,
    "▁did": 410,
    "oane": 8086,
    "▁differentiate": 18231,
    "▁filament": 29394,
    "▁reverse": 7211,
    "căci": 24280,
    "▁trouvé": 15831,
    "▁Albania": 29316,
    "▁class": 853,
    "▁cerveau": 30262,
    "▁frequency": 7321,
    "▁lancer": 22515,
    "▁formă": 19389,
    "▁fotbal": 18934,
    "▁Guillaume": 31441,
    "▁détect": 24807,
    "▁Spin": 10792,
    "sagt": 27913,
    "▁dealt": 15228,
    "▁at": 44,
    "conductive": 29187,
    "▁price": 594,
    "▁supervision": 15520,
    "▁appointments": 14936,
    "▁await": 19902,
    "und": 1106,
    "extra": 25666,
    "productive": 27408,
    "▁striv": 25213,
    "▁verfolgt": 30788,
    "▁oraş": 21373,
    "▁naval": 25105,
    "▁Graf": 20475,
    "▁neu": 5854,
    "▁Toshiba": 30148,
    "▁Gam": 19871,
    "▁appearance": 3179,
    "disciplinary": 15471,
    "▁bitcoin": 16623,
    "▁buddies": 28548,
    "▁Früchte": 31550,
    "▁Familien": 10187,
    "commanded": 31583,
    "CT": 6227,
    "pflege": 13906,
    "anii": 10365,
    "nji": 21391,
    "▁membres": 9584,
    "▁installment": 20345,
    "importance": 23673,
    "ashi": 17155,
    "▁commencé": 22244,
    "▁Green": 1862,
    "▁does": 405,
    "▁große": 4859,
    "▁vice": 6444,
    "Serie": 12106,
    "▁automatiquement": 27418,
    "▁tenu": 17636,
    "▁Sprech": 24027,
    "billed": 26438,
    "seront": 6430,
    "▁dozen": 9611,
    "▁Straight": 28044,
    "occasion": 9059,
    "▁whisper": 23874,
    "cyto": 14578,
    "bot": 4045,
    "▁sehen": 6052,
    "Virus": 27837,
    "Plugin": 23232,
    "▁LTD": 27004,
    "▁cricket": 18096,
    "▁Industry": 9036,
    "▁Hug": 11560,
    "▁sliding": 13441,
    "▁mould": 19094,
    "▁sustained": 14399,
    "▁Set": 2821,
    "ECT": 14196,
    "▁automated": 10069,
    "system": 3734,
    "facets": 27841,
    "▁Mary": 3790,
    "▁whatsoever": 19842,
    "pak": 16864,
    "▁Blog": 5039,
    "▁representative": 6978,
    "▁dynamic": 4896,
    "java": 27578,
    "▁murit": 23286,
    "▁județ": 23972,
    "▁bloggers": 16787,
    "▁bargain": 13435,
    "▁Dow": 21236,
    "pra": 5319,
    "▁Podcast": 21966,
    "elul": 20938,
    "▁visit": 719,
    "runner": 10806,
    "▁activitate": 14606,
    "FC": 5390,
    "▁rechtzeitig": 29409,
    "tech": 3470,
    "▁makeup": 9244,
    "▁packet": 13531,
    "quette": 15913,
    "▁suggesting": 15495,
    "▁concentrate": 11345,
    "▁Persönlichkeit": 30291,
    "▁recomandă": 25539,
    "▁Gil": 12798,
    "▁districts": 14126,
    "Authentic": 23320,
    "▁vulnerable": 9930,
    "illage": 17614,
    "▁Klo": 26087,
    "▁perioadă": 14682,
    "▁gut": 1806,
    "quickest": 31051,
    "▁Instant": 18882,
    "hair": 19176,
    "kleinen": 7647,
    "net": 1582,
    "▁initial": 2332,
    "▁Chandler": 31154,
    "cent": 3728,
    "certify": 31492,
    "▁literally": 6672,
    "▁pédagogique": 30958,
    "▁Lind": 14482,
    "and": 232,
    "▁Nu": 1174,
    "▁disposable": 26139,
    "▁înregistrare": 31449,
    "▁castle": 13243,
    "▁Driver": 10546,
    "▁crisp": 12008,
    "▁rail": 6579,
    "▁Naturally": 24624,
    "▁entspannt": 26967,
    "▁judiciaire": 30239,
    "▁studenți": 29710,
    "▁applicant": 13322,
    "benso": 28162,
    "▁servir": 19456,
    "▁Achtung": 30936,
    "▁bebelus": 27511,
    "▁tras": 12656,
    "▁tourist": 8548,
    "▁am": 183,
    "▁elaborate": 16224,
    "▁Inside": 9014,
    "▁meal": 3506,
    "▁couldn": 2654,
    "accumulated": 22148,
    "▁».": 4841,
    "▁sovereign": 26800,
    "▁compt": 20248,
    "▁Smooth": 23128,
    "▁émerg": 31953,
    "crafted": 8810,
    "ezi": 3680,
    "▁Highland": 16816,
    "verein": 8907,
    "▁Paint": 13915,
    "▁mor": 8030,
    "▁historian": 18637,
    "▁profit": 3199,
    "▁folder": 6625,
    "shortened": 31887,
    "ban": 3478,
    "▁nave": 26542,
    "▁franchise": 7884,
    "ost": 3481,
    "▁activists": 19053,
    "▁presiune": 23402,
    "▁accompaniment": 31662,
    "supplementary": 31505,
    "▁noise": 4661,
    "deci": 24223,
    "▁clips": 16234,
    "▁presentations": 9972,
    "▁microwave": 13333,
    "▁murdered": 26313,
    "▁forms": 2807,
    "aiming": 19874,
    "L": 434,
    "▁2030": 23939,
    "▁schlimm": 27125,
    "▁discurs": 29599,
    "ideally": 20690,
    "▁experienta": 15720,
    "▁câ": 10541,
    "▁Büro": 15833,
    "▁coco": 11530,
    "-22": 16149,
    "▁protège": 31139,
    "determin": 16372,
    "▁Meinung": 14897,
    "▁typing": 21321,
    "▁ships": 10911,
    "▁mobil": 11047,
    "Back": 21106,
    "▁bathtub": 23835,
    "témoin": 31039,
    "▁IS": 6827,
    "▁Such": 3900,
    "▁troop": 28784,
    "▁merchandise": 12649,
    "▁rezultate": 16301,
    "ED": 2326,
    "▁collected": 4759,
    "▁Armenia": 18715,
    "▁antreprenor": 27400,
    "▁Wildlife": 18868,
    "22": 2884,
    "▁Rund": 10480,
    "▁generosity": 23721,
    "▁DNA": 6642,
    "▁immunity": 26510,
    "publicate": 31808,
    "requisite": 24966,
    "exécut": 25428,
    "▁Shore": 16002,
    "Générale": 31718,
    "▁scop": 16190,
    "▁pretul": 20911,
    "▁2008": 2628,
    "▁analyses": 15282,
    "▁buffalo": 30964,
    "▁un": 73,
    "▁nowadays": 18811,
    "▁Shelter": 30415,
    "viction": 29797,
    "lane": 8102,
    "▁inquiry": 15736,
    "▁É": 7983,
    "lash": 8058,
    "Când": 14933,
    "▁glace": 29598,
    "▁brief": 4456,
    "éné": 15369,
    "▁Asian": 6578,
    "▁flash": 4923,
    "▁Mall": 13552,
    "▁tandem": 26947,
    "video": 17241,
    "▁muffin": 20943,
    "ssel": 9816,
    "▁windows": 3196,
    "▁transcend": 23080,
    "simplest": 21120,
    "through": 11258,
    "▁gestalten": 19733,
    "▁Des": 2973,
    "▁Verantwortung": 22282,
    "▁Fixed": 21378,
    "▁composite": 13723,
    "▁rocks": 12288,
    "▁Sky": 5643,
    "▁sharp": 4816,
    "▁irritating": 31727,
    "▁clash": 21500,
    "▁shipping": 3365,
    "▁methods": 2254,
    "▁stink": 29704,
    "▁valley": 10645,
    "▁inch": 5913,
    "▁Timber": 25045,
    "▁gagner": 18576,
    "▁tau": 7151,
    "RING": 21034,
    "▁2020": 6503,
    "▁Ott": 12881,
    "cini": 20694,
    "▁10": 335,
    "▁lawyer": 6297,
    "ê": 8202,
    "▁liefern": 23849,
    "▁hilarious": 21566,
    "▁Saint": 2788,
    "▁outsourcing": 25367,
    "▁collectif": 23199,
    "▁nastere": 29193,
    "▁Centre": 2969,
    "▁stup": 28913,
    "▁shower": 2898,
    "ло": 21044,
    "▁tendance": 16746,
    "▁Ferrari": 21945,
    "veranstaltung": 26140,
    "▁visuel": 20440,
    "▁supplied": 8794,
    "▁doamn": 20161,
    "▁neîn": 28525,
    "▁Thousand": 27828,
    "▁Kickstarter": 28546,
    "▁Post": 1844,
    "error": 17262,
    "Park": 26163,
    "▁Venez": 27889,
    "▁Griff": 26173,
    "cho": 3995,
    "izează": 16991,
    "▁Manufacturer": 15248,
    "501": 20176,
    "▁bucurie": 22659,
    "▁Poli": 6907,
    "▁America": 1371,
    "▁surprins": 30111,
    "▁continuu": 23945,
    "▁Inventory": 31040,
    "▁Christchurch": 30453,
    "▁Nutrition": 16525,
    "▁aid": 3052,
    "▁târziu": 22745,
    "▁revere": 26236,
    "▁shortly": 10545,
    "judging": 24331,
    "Daddy": 26306,
    "▁respectively": 6898,
    "Paket": 21745,
    "▁track": 1463,
    "▁Acoustic": 31614,
    "▁concern": 2410,
    "12.": 9368,
    "cyan": 27386,
    "▁studi": 16962,
    "▁Rapid": 13836,
    "▁nest": 9190,
    "4.9": 27336,
    "▁Bear": 9034,
    "▁Associates": 14996,
    "nah": 8607,
    "Pentru": 30953,
    "▁Correct": 28223,
    "▁pockets": 12746,
    "▁Nikola": 28584,
    "high": 6739,
    "▁bisher": 10254,
    "▁Surface": 18884,
    "▁distributor": 13473,
    "vraient": 30107,
    "▁cucumber": 24395,
    "▁FC": 7914,
    "▁preparat": 19620,
    "▁planète": 27003,
    "▁Peugeot": 31288,
    "▁Nordic": 24207,
    "scene": 22886,
    "▁comentarii": 27392,
    "▁Sprint": 23818,
    "▁vorbesc": 25849,
    "0.00": 10667,
    "▁Slam": 29291,
    "▁Sure": 10625,
    "1%": 4704,
    "Occasionally": 29804,
    "▁baza": 4860,
    "▁Joshua": 20169,
    "DB": 9213,
    "▁contient": 24060,
    "▁Höchst": 30137,
    "▁Christmas": 1619,
    "▁mushrooms": 20047,
    "▁tractor": 21242,
    "▁organiza": 11310,
    "▁mandatory": 13488,
    "▁nourri": 24069,
    "▁Enterprise": 8526,
    "ionen": 20869,
    "▁Manila": 25432,
    "▁erreichbar": 29727,
    "▁wife": 2512,
    "▁doing": 692,
    "▁war": 615,
    "writer": 12756,
    "▁heroic": 29917,
    "▁melody": 27832,
    "▁reagieren": 31124,
    "▁sophisticated": 8732,
    "ventricular": 31695,
    "▁compete": 5978,
    "▁Crăciun": 26722,
    "PG": 7861,
    "▁warfare": 28229,
    "е": 1757,
    "varying": 14177,
    "▁stylish": 7695,
    "▁Platinum": 20954,
    "termes": 25814,
    "imprimer": 29379,
    "therapist": 9962,
    "Against": 20749,
    "▁Kirk": 17839,
    "▁crumbl": 22854,
    "енн": 31483,
    "DS": 3592,
    "mettant": 13083,
    "▁surprise": 4158,
    "mécanisme": 28874,
    "ON": 4170,
    "drum": 17870,
    "▁Lim": 10908,
    "▁Acum": 12003,
    "▁allegations": 20265,
    "▁Polyester": 23825,
    "▁SC": 6508,
    "newest": 10909,
    "topped": 12403,
    "▁inceput": 9985,
    "<extra_id_38>": 32061,
    "▁Dress": 12169,
    "filtration": 18974,
    "6.3": 27865,
    "▁shout": 14314,
    "▁urmat": 13407,
    "▁broken": 4335,
    "▁nausea": 25808,
    "torilor": 10704,
    "produire": 21296,
    "▁complémentaire": 26520,
    "▁Kaffee": 14854,
    "sti": 2248,
    "▁Schatten": 30632,
    "tätigkeit": 31170,
    "▁pourquoi": 10714,
    "▁meantime": 16350,
    "▁Privacy": 17865,
    "▁Hersteller": 13406,
    "▁territoire": 13784,
    "▁regroup": 21214,
    "ovi": 9881,
    "▁Kirche": 17264,
    "▁logo": 3554,
    "▁Polit": 17708,
    "▁Partnership": 17406,
    "▁Uganda": 22093,
    "▁After": 621,
    "▁obiecte": 20436,
    "▁15,": 10725,
    "▁persönlich": 18314,
    "▁iTunes": 14963,
    "▁energy": 827,
    "▁(18": 9323,
    "▁Path": 12465,
    "▁fond": 3036,
    "▁Mont": 5788,
    "▁gray": 9954,
    "▁workout": 7203,
    "▁kleiner": 14071,
    "▁appraise": 29119,
    "▁SW": 12222,
    "▁bath": 3827,
    "ndererseits": 29655,
    "▁couleur": 11234,
    "vada": 16716,
    "aves": 16001,
    "CAL": 21605,
    "▁Heck": 25743,
    "▁sorts": 10549,
    "▁cookie": 7364,
    "▁Frage": 6973,
    "▁Vertrieb": 26189,
    "▁acts": 6775,
    "▁EVERY": 24218,
    "▁Tail": 22285,
    "▁Rod": 8222,
    "▁vorbereitet": 28930,
    "schiff": 26453,
    "▁nickname": 24649,
    "▁célébr": 26456,
    "abili": 14237,
    "▁advertise": 17123,
    "▁gesucht": 27479,
    "▁niedrig": 23005,
    "▁immense": 14968,
    "▁Restaurant": 6233,
    "existent": 13957,
    "▁piscine": 17314,
    "▁activism": 30241,
    "▁bucur": 10408,
    "▁investigations": 17032,
    "bul": 6724,
    "▁Schu": 6824,
    "▁praying": 20877,
    "stead": 11931,
    "▁Crystal": 12961,
    "▁Ihr": 2310,
    "▁Bristol": 17836,
    "▁année": 7822,
    "▁Software": 4300,
    "ISE": 19056,
    "▁din": 176,
    "▁Province": 19573,
    "5,000": 5898,
    "co": 509,
    "Roo": 22778,
    "▁achiziţi": 29536,
    "imagin": 6487,
    "▁Pont": 13886,
    "Mobile": 22162,
    "▁swirl": 25466,
    "▁Eugen": 18281,
    "▁bait": 21261,
    "▁Tribunal": 24910,
    "|": 9175,
    "SV": 7416,
    "▁begleitet": 25193,
    "▁colonne": 28954,
    "In": 1570,
    "▁inject": 15823,
    "insta": 21246,
    "Algérie": 30790,
    "▁connectivity": 12841,
    "▁Champion": 16127,
    "collect": 22153,
    "settlers": 29547,
    "connect": 19532,
    "may": 13726,
    "▁consequence": 17009,
    "▁car": 443,
    "▁Hol": 5838,
    "geschafft": 27551,
    "NN": 17235,
    "▁Tanz": 20780,
    "▁comparat": 24219,
    "AK": 12396,
    "-1": 2292,
    "motiv": 17732,
    "▁Experten": 20939,
    "▁Rh": 11092,
    "▁brown": 4216,
    "▁air": 799,
    "▁interesel": 31860,
    "Har": 15537,
    "▁Healthcare": 16254,
    "▁comme": 1011,
    "emprunt": 25889,
    "give": 17935,
    "▁downstream": 26804,
    "vine": 8402,
    "itatea": 2813,
    "▁storm": 5536,
    "EU": 12062,
    "▁Vid": 19575,
    "▁proof": 5594,
    "▁patent": 7432,
    "▁(...)": 23430,
    "▁Clar": 9908,
    "transport": 26803,
    "▁slots": 9653,
    "▁Cher": 16028,
    "▁Sage": 21429,
    "▁finally": 2031,
    "▁empowerment": 26518,
    "stände": 14634,
    "▁distinct": 6746,
    "▁Planung": 17306,
    "zeichen": 16549,
    "▁prices": 1596,
    "für": 7465,
    "îl": 5410,
    "▁Universal": 12489,
    "▁clarity": 12428,
    "▁Swimming": 27223,
    "▁sticker": 22385,
    "▁hosts": 9855,
    "▁oferta": 17803,
    "▁categories": 5897,
    "▁cilantro": 29714,
    "▁tightly": 20994,
    "▁recital": 30731,
    "chu": 8019,
    "▁dry": 2192,
    "chan": 8694,
    "sound": 17481,
    "▁scoop": 19382,
    "<extra_id_97>": 32002,
    "▁reteta": 24777,
    "KET": 27481,
    "▁Hernandez": 31765,
    "▁land": 1322,
    "▁leap": 14527,
    "▁limitation": 14130,
    "▁cabbage": 25883,
    "▁airline": 11545,
    "verted": 19825,
    "4.2": 19765,
    "▁sagt": 11865,
    "some": 5529,
    "ivă": 15217,
    "enfin": 13722,
    "Service": 15260,
    "merk": 12458,
    "fect": 4075,
    "▁Vest": 20970,
    "SCH": 20557,
    "▁Bruce": 13800,
    "acordare": 31426,
    "▁shut": 6979,
    "▁connu": 12382,
    "▁HVAC": 16572,
    "▁etwa": 6239,
    "▁acolo": 6673,
    "cativa": 29463,
    "hard": 5651,
    "▁seam": 13846,
    "EACH": 29027,
    "gren": 16677,
    "elia": 13240,
    "1.8": 16253,
    "▁Verbesserung": 24021,
    "▁final": 804,
    "tons": 8057,
    "▁tehnologie": 26875,
    "▁addictive": 26678,
    "ku": 2729,
    "eigenen": 5758,
    "▁Istanbul": 20958,
    "migrated": 27467,
    "▁beliefs": 11393,
    "nes": 1496,
    "erton": 24471,
    "▁Former": 18263,
    "▁rooms": 2801,
    "summe": 23541,
    "▁detect": 8432,
    "▁airfare": 31793,
    "▁introduction": 5302,
    "”": 153,
    "▁Put": 5306,
    "▁Ach": 14217,
    "▁Million": 14625,
    "pens": 3801,
    "▁Motorola": 27209,
    "▁signifie": 16558,
    "▁avantages": 24401,
    "▁handmade": 15231,
    "company": 29179,
    "▁Gau": 12520,
    "▁asistent": 26904,
    "▁Duft": 29257,
    "Min": 12858,
    "000": 2313,
    "nennt": 30626,
    "▁continent": 10829,
    "▁chlorine": 29879,
    "▁sometime": 17078,
    "▁Lost": 19576,
    "histoire": 5474,
    "▁différents": 7626,
    "▁jackpot": 20984,
    "sourcing": 19035,
    "schritt": 15755,
    "mindestens": 13772,
    "crest": 21443,
    "▁Verwendung": 17928,
    "cal": 1489,
    "▁Details": 9487,
    "▁duminică": 25371,
    "Ang": 8365,
    "kow": 19855,
    "tină": 29133,
    "èrent": 18402,
    "KM": 23815,
    "▁Draw": 19183,
    "character": 31886,
    "▁litri": 27991,
    "▁elektrisch": 31517,
    "▁breakfast": 3688,
    "▁thunder": 26783,
    "▁Londres": 28036,
    "ți": 654,
    "UMP": 28468,
    "▁holiday": 2297,
    "▁blast": 11925,
    "▁Verizon": 23908,
    "▁Please": 863,
    "▁erlebt": 25961,
    "ambele": 19591,
    "],": 13679,
    "▁booked": 13007,
    "▁Grund": 4086,
    "w": 210,
    "brush": 23932,
    "▁Wahl": 8403,
    "Dia": 23770,
    "▁Monaten": 19530,
    "hal": 3828,
    "▁Special": 3608,
    "▁représent": 20457,
    "microsoft": 30574,
    "Ohne": 24370,
    "▁predecessor": 21654,
    "▁Camera": 12148,
    "▁hoping": 6055,
    "GI": 7214,
    "Especially": 14232,
    "GHz": 18944,
    "bian": 12032,
    "▁dreapta": 20453,
    "empowering": 23988,
    "▁Rewards": 26197,
    "Link": 15272,
    "▁BMW": 8764,
    "▁Herbst": 21073,
    "que": 835,
    "▁mainland": 25531,
    "▁dintre": 1700,
    "▁Age": 7526,
    "▁tehnic": 17775,
    "▁malheureusement": 30602,
    "lassen": 10764,
    "▁vertical": 5857,
    "▁trials": 10570,
    "▁Dr": 707,
    "▁Marshall": 17410,
    "▁sufletul": 19651,
    "▁inaugur": 22035,
    "▁YouTube": 5343,
    "▁antrenor": 27683,
    "▁pile": 9872,
    "ich": 362,
    "phag": 25173,
    "Build": 24752,
    "pas": 8020,
    "third": 14965,
    "▁printable": 12354,
    "▁preced": 20799,
    "▁monatlich": 28438,
    "torului": 15317,
    "rmaßen": 27987,
    "▁africa": 24040,
    "▁neam": 28533,
    "▁cookies": 5081,
    "Con": 4302,
    "▁capable": 3919,
    "▁cider": 23119,
    "▁fizice": 19288,
    "sign": 6732,
    "▁scump": 23287,
    "▁quand": 4679,
    "▁flute": 27928,
    "▁underwater": 22409,
    "▁frustrating": 16591,
    "▁embed": 25078,
    "metri": 8180,
    "▁lodging": 24881,
    "▁cord": 7496,
    "GEN": 18464,
    "▁inappropriate": 21001,
    "jihad": 29516,
    "societal": 27908,
    "▁weren": 9355,
    "▁mammals": 30041,
    "▁gutter": 16019,
    "EN": 5332,
    "▁shed": 12478,
    "spitze": 27933,
    "Business": 26269,
    "software": 25650,
    "▁ordinance": 24417,
    "▁Namen": 10016,
    "flop": 23588,
    "▁Midland": 24914,
    "▁verpflichtet": 22976,
    "MIN": 17684,
    "Doar": 22241,
    "▁Ok": 8872,
    "offenen": 27379,
    "▁Chase": 17096,
    "▁auditor": 17271,
    "nuit": 11201,
    "▁torque": 19527,
    "▁inhabitants": 21155,
    "▁welche": 2727,
    "Div": 21313,
    "▁perceive": 21505,
    "ATP": 26758,
    "▁Boat": 17733,
    "▁principalement": 23433,
    "grâce": 6160,
    "▁Städte": 25505,
    "▁Aviation": 22102,
    "▁imprisonment": 30823,
    "▁rights": 2166,
    "▁gelungen": 22847,
    "▁Ceramic": 25457,
    "▁Prüfung": 19430,
    "▁sufficient": 6684,
    "▁archive": 13269,
    "▁patient": 1868,
    "scriu": 21030,
    "▁lip": 10219,
    "▁amp": 11483,
    "▁reduc": 27353,
    "▁familia": 9346,
    "▁ascunde": 31787,
    "▁precaution": 21059,
    "specific": 9500,
    "▁devenit": 11569,
    "▁invoice": 10921,
    "crit": 12563,
    "▁own": 293,
    "▁candidates": 4341,
    "▁200": 2382,
    "▁published": 1790,
    "owed": 9200,
    "▁awareness": 4349,
    "schuhe": 21026,
    "▁distribute": 10973,
    "▁historically": 20160,
    "▁Township": 20381,
    "▁Dip": 23177,
    "▁précision": 27395,
    "smith": 16331,
    "▁reminde": 13617,
    "▁coal": 8416,
    "▁wider": 6281,
    "▁Hughes": 21512,
    "▁Iaşi": 27680,
    "▁Precision": 28464,
    "SEA": 25542,
    "gno": 6715,
    "▁managers": 5903,
    "▁Tempo": 27695,
    "▁gratuite": 16673,
    "ANG": 19775,
    "▁könnt": 17998,
    "▁named": 2650,
    "final": 12406,
    "▁behaviors": 15400,
    "formally": 19448,
    "▁cerere": 23101,
    "▁gigantic": 30478,
    "),": 201,
    "▁stable": 5711,
    "▁zu": 170,
    "▁deal": 1154,
    "▁précis": 16586,
    "▁Pierre": 11867,
    "▁breathing": 10882,
    "▁beautifully": 8538,
    "expression": 20940,
    "▁pottery": 27177,
    "▁Surprise": 31237,
    "▁Booth": 26739,
    "geleitet": 25426,
    "directorul": 28526,
    "▁Summary": 20698,
    "▁relat": 12650,
    "▁compatibil": 14235,
    "▁Arizona": 7601,
    "▁insight": 6574,
    "▁Kh": 13495,
    "▁brochure": 15535,
    "ultimi": 17828,
    "▁lifting": 14931,
    "▁ver": 548,
    "▁respectful": 22542,
    "▁look": 320,
    "zentrum": 16476,
    "»": 3704,
    "▁conform": 4535,
    "abhängig": 19006,
    "▁shield": 13128,
    "▁masura": 16374,
    "50": 1752,
    "▁mindfulness": 26360,
    "▁Les": 622,
    "▁alimente": 16368,
    "HU": 17861,
    "▁Blatt": 30155,
    "zi": 702,
    "▁Strawberry": 31344,
    "▁früher": 15555,
    "▁décidé": 16939,
    "▁departe": 11585,
    "▁dates": 5128,
    "verhältnisse": 28453,
    "866": 26750,
    "wobe": 21984,
    "▁harvest": 10515,
    "▁savings": 5051,
    "▁cliché": 27319,
    "normal": 12110,
    "cellular": 10791,
    "wag": 15238,
    "▁diplomat": 23661,
    "▁rating": 5773,
    "du": 1259,
    "makers": 8910,
    "Press": 24313,
    "▁Ho": 1546,
    "▁Mai": 2636,
    "▁konnte": 5831,
    "maker": 8337,
    "▁vreme": 10831,
    "▁acesta": 4465,
    "▁magnificent": 12044,
    "▁containers": 10827,
    "▁statt": 6594,
    "warm": 14522,
    "niveau": 30491,
    "Hopefully": 12599,
    "▁difficile": 11166,
    "▁Într": 24503,
    "▁provides": 795,
    "blich": 19249,
    "▁animé": 26406,
    "▁Modell": 8731,
    "▁expired": 24909,
    "▁Hon": 11772,
    "intensive": 28135,
    "lipid": 19437,
    "52": 5373,
    "▁situație": 29349,
    "▁Full": 4043,
    "bedingt": 25658,
    "▁sourire": 29336,
    "▁Alkohol": 28139,
    "▁furniture": 1991,
    "▁Dreh": 21127,
    "multi": 23829,
    "<extra_id_54>": 32045,
    "esque": 18538,
    "ații": 9556,
    "drepturile": 25015,
    "▁background": 2458,
    "▁solicitat": 22936,
    "▁creek": 25153,
    "▁Emerald": 29424,
    "▁sou": 7236,
    "---": 14817,
    "jou": 8921,
    "▁snorkel": 24568,
    "foreseeable": 31677,
    "connection": 28102,
    "▁Karriere": 28023,
    "▁hopefully": 8858,
    "▁Netflix": 11894,
    "▁fall": 1590,
    "▁angajat": 15947,
    "versuch": 27085,
    "iza": 5584,
    "Cathy": 29769,
    "▁England": 2789,
    "▁ensuite": 9166,
    "▁excellent": 1287,
    "▁wallpaper": 7045,
    "COM": 6657,
    "secret": 27527,
    "▁walking": 3214,
    "▁Run": 7113,
    "▁Pin": 8050,
    "▁psiho": 30125,
    "▁amplasat": 29200,
    "▁preparation": 4537,
    "▁claw": 27331,
    "▁cells": 2640,
    "▁énergétique": 24529,
    "▁Silver": 5642,
    "/15": 20376,
    "▁proposition": 12491,
    "▁Oh": 3359,
    "bericht": 16734,
    "tels": 13408,
    "▁singer": 7634,
    "▁high": 306,
    "▁glamour": 27939,
    "frequent": 30740,
    "▁PSD": 11090,
    "berger": 16170,
    "▁cosmic": 28332,
    "▁diary": 25933,
    "▁dominate": 19314,
    "deserved": 21348,
    "pourraient": 24892,
    "▁rescue": 9635,
    "▁cancellation": 15565,
    "▁Warriors": 24499,
    "▁eaten": 16929,
    "▁sq": 11820,
    "Emmanuel": 20587,
    "vor": 1967,
    "egi": 11097,
    "grin": 18363,
    "▁Jenny": 24244,
    "▁noroc": 21550,
    "▁consilier": 20574,
    "installation": 14790,
    "▁smooth": 3050,
    "▁excitement": 10147,
    "RCA": 25404,
    "▁customized": 8444,
    "▁avid": 21667,
    "▁wurde": 1177,
    "bei": 5358,
    "NL": 18207,
    "▁parameter": 15577,
    "▁styl": 22437,
    "prevailing": 29370,
    "UCH": 20314,
    "Basically": 16970,
    "▁Java": 10318,
    "▁everywhere": 6531,
    "urgence": 16786,
    "leagă": 26446,
    "▁1999": 5247,
    "▁connaît": 27897,
    "hara": 14888,
    "thereby": 12550,
    "vascular": 15100,
    "▁Row": 11768,
    "▁tactile": 28358,
    "▁Drive": 5894,
    "▁training": 761,
    "▁nord": 9532,
    "▁audiences": 11209,
    "Arg": 16627,
    "▁surveys": 13484,
    "▁Car": 1184,
    "▁discovering": 17452,
    "▁prophet": 19421,
    "▁Deluxe": 23355,
    "▁industry": 681,
    "▁Dé": 4829,
    "▁implique": 30917,
    "▁facult": 16888,
    "▁Standards": 14451,
    "▁ethno": 31065,
    "▁wi": 11064,
    "Posted": 10288,
    "▁soleil": 15542,
    "▁Used": 12504,
    "iți": 7399,
    "▁Massiv": 29973,
    "leuchte": 16941,
    "▁lectures": 16603,
    "▁vollständig": 18877,
    "▁dough": 8553,
    "Food": 30672,
    "▁miros": 21138,
    "▁Kiel": 30326,
    "▁fu": 7683,
    "▁political": 1827,
    "▁Batman": 20644,
    "▁driving": 2191,
    "RF": 8556,
    "bre": 1999,
    "▁aduc": 13749,
    "▁Pension": 21539,
    "▁truth": 2827,
    "duct": 7472,
    "▁SSL": 19207,
    "▁echipamente": 22629,
    "leigh": 23260,
    "▁näher": 19875,
    "▁flood": 8347,
    "▁variability": 27980,
    "▁ports": 13897,
    "negotiated": 26262,
    "▁symbols": 13619,
    "Ecole": 29956,
    "▁Dating": 16719,
    "scented": 30420,
    "▁Marathon": 19012,
    "▁greet": 22428,
    "greifen": 14917,
    "▁worse": 4131,
    "▁von": 193,
    "▁substantive": 31046,
    "▁four": 662,
    "▁tension": 7012,
    "Physio": 23009,
    "▁Randy": 25966,
    "▁paradise": 21691,
    "prepaid": 29832,
    "▁pachet": 17412,
    "▁combine": 5148,
    "▁Achievement": 29038,
    "truction": 26853,
    "▁minister": 6323,
    "watch": 9237,
    "▁knew": 2124,
    "▁reconstruct": 29814,
    "▁Bat": 8897,
    "Sig": 22582,
    "▁cheval": 26105,
    "▁Ad": 1980,
    "▁pricing": 5769,
    "▁19,": 12370,
    "▁circumstance": 24062,
    "▁collaborate": 11194,
    "mad": 11374,
    "▁skilled": 6847,
    "présentent": 29595,
    "Ex": 5420,
    "▁physically": 10034,
    "cute": 15835,
    "Oh": 15046,
    "▁transported": 20626,
    "▁shades": 11215,
    "▁apărare": 30635,
    "▁nouă": 13314,
    "▁singing": 8782,
    "▁payment": 1942,
    "▁rotate": 17377,
    "▁children": 502,
    "kk": 8511,
    "▁Sibiu": 19128,
    "▁Atlantic": 9640,
    "scher": 11575,
    "kenntnis": 22416,
    "▁nineteenth": 30209,
    "▁contradiction": 27252,
    "langage": 29098,
    "▁box": 1367,
    "mediocr": 28595,
    "<extra_id_94>": 32005,
    "▁award": 2760,
    "▁duration": 8659,
    "▁perform": 1912,
    "▁adidas": 28084,
    "▁addict": 23261,
    "▁Eigenschaften": 22790,
    "▁contractual": 20032,
    "▁gentleman": 26266,
    "▁momentul": 7976,
    "▁false": 6136,
    "▁Greek": 6781,
    "Unter": 25324,
    "▁Absolutely": 20510,
    "▁all": 66,
    "▁happy": 1095,
    "▁curb": 16110,
    "▁Indonesia": 9995,
    "▁bodi": 23322,
    "▁retro": 9337,
    "▁rabbit": 18383,
    "▁stay": 1049,
    "growth": 24690,
    "isk": 13690,
    "▁Auction": 23040,
    "▁Jordan": 8480,
    "ență": 14271,
    "licit": 11192,
    "▁accountant": 21053,
    "bundled": 31601,
    "▁starting": 1684,
    "est": 222,
    "more": 3706,
    "▁Betriebs": 14524,
    "▁1920": 13978,
    "▁Average": 23836,
    "▁My": 499,
    "▁despre": 1578,
    ",": 6,
    "▁spirit": 3564,
    "ense": 5167,
    "▁plac": 6670,
    "▁Right": 5068,
    "▁pulled": 6756,
    "▁www": 2442,
    "▁Principal": 15449,
    "▁po": 1977,
    "▁pregatit": 23480,
    "▁monitored": 18259,
    "▁individual": 928,
    "api": 13306,
    "▁Jugendliche": 16839,
    "▁Copper": 19756,
    "▁encouraging": 9523,
    "▁Eva": 17627,
    "fach": 8091,
    "Laugh": 26604,
    "quip": 23067,
    "escalier": 29021,
    "rop": 9505,
    "▁optimize": 13436,
    "drilled": 28940,
    "berechtigt": 17960,
    "▁municipal": 10516,
    "▁lovit": 29272,
    "esteem": 19958,
    "▁fréquent": 23415,
    "▁Commission": 3527,
    "▁Emperor": 26423,
    "üft": 23031,
    "▁parce": 9359,
    "▁shipment": 19843,
    "▁repertoire": 26661,
    "▁river": 4033,
    "▁medie": 16971,
    "▁Boom": 23214,
    "▁plays": 4805,
    "▁chute": 22406,
    "▁Personal": 4239,
    "▁Sw": 7320,
    "▁timp": 1529,
    "▁vede": 13043,
    "▁Rechts": 11013,
    "going": 9545,
    "49": 3647,
    "▁Evans": 18305,
    "▁ecology": 29393,
    "се": 22036,
    "allée": 26013,
    "aba": 8699,
    "▁Another": 2351,
    "▁consiste": 14280,
    "▁vi": 5931,
    "mplification": 27717,
    "▁proportion": 7385,
    "menée": 29283,
    "▁certainly": 1852,
    "р": 8452,
    "See": 18648,
    "▁awakening": 30561,
    "▁Frisch": 29732,
    "▁after": 227,
    "▁dishwasher": 18876,
    "NET": 9978,
    "▁rencontre": 5887,
    "▁Thi": 11988,
    "change": 13073,
    "möglichkeiten": 14755,
    "▁nuit": 12266,
    "called": 9341,
    "▁inhabit": 26350,
    "lasting": 15166,
    "▁Sussex": 27214,
    "▁websites": 3395,
    "électora": 31570,
    "▁lower": 1364,
    "▁defeated": 17025,
    "▁Supplier": 16406,
    "saving": 18265,
    "pixel": 14251,
    "▁Ereignis": 25711,
    "aparut": 24800,
    "▁Blätter": 30464,
    "Canada": 28811,
    "▁Gy": 12109,
    "regarded": 12327,
    "▁Oil": 6067,
    "hnen": 15249,
    "▁baseline": 20726,
    "▁legatura": 19970,
    "▁Arbeit": 5512,
    "ATION": 8015,
    "coast": 25500,
    "▁generation": 3381,
    "▁marque": 6971,
    "cover": 9817,
    "▁strat": 10133,
    "▁Link": 7505,
    "▁nettoy": 26844,
    "arguably": 21719,
    "▁move": 888,
    "praised": 24266,
    "▁sublinia": 26922,
    "allez": 23122,
    "▁săptămâna": 29030,
    "WG": 22202,
    "▁wardrobe": 13460,
    "▁explain": 3209,
    "▁youngsters": 26068,
    "▁Eden": 21319,
    "characterization": 28561,
    "▁Report": 3750,
    "gänge": 14257,
    "▁Childhood": 30588,
    "▁Brandon": 20446,
    "▁Intel": 5869,
    "▁Recovery": 16532,
    "▁prost": 17074,
    "▁Po": 1908,
    "▁Griffin": 27451,
    "▁tutor": 11179,
    "▁anime": 21705,
    "5000": 12814,
    "inho": 23738,
    "▁garanteaz": 31982,
    "quaint": 24867,
    "▁fulfilled": 20795,
    "▁internationally": 12012,
    "genommen": 7026,
    "▁Democratic": 10021,
    "▁Airways": 24601,
    "▁intentional": 24768,
    "KU": 18519,
    "▁répondre": 13122,
    "▁mono": 7414,
    "▁erzielen": 28199,
    "▁Castro": 28728,
    "▁verify": 10446,
    "IE": 5091,
    "▁constantly": 4259,
    "▁creativity": 6933,
    "▁layout": 5315,
    "▁rank": 11003,
    "ju": 2047,
    "▁congress": 27197,
    "▁forces": 3859,
    "▁marvel": 23092,
    "▁system": 358,
    "Life": 16427,
    "feld": 5003,
    "appuy": 25949,
    "▁Terrasse": 22400,
    "▁build": 918,
    "▁Kaz": 26094,
    "prinde": 17667,
    "▁particulière": 23650,
    "▁Inhalt": 15388,
    "École": 31721,
    "▁flock": 23228,
    "klasse": 16424,
    "▁$1": 1970,
    "▁secure": 2451,
    "▁Dig": 18759,
    "▁Musik": 6507,
    "▁Herz": 9372,
    "▁besten": 5613,
    "MONT": 29084,
    "▁zice": 16784,
    "▁data": 331,
    "▁Resume": 9410,
    "▁comanda": 10741,
    "occupied": 12519,
    "▁deadline": 7183,
    "470": 27760,
    "findest": 21799,
    "▁trip": 1469,
    "certified": 27576,
    "lenk": 19070,
    "▁trat": 16104,
    "▁greater": 2123,
    "▁spectrum": 10113,
    "▁comun": 6252,
    "▁statului": 18910,
    "zing": 8128,
    "▁centuries": 11653,
    "html": 10500,
    "▁invention": 8936,
    "UAL": 24596,
    "▁disciplines": 15015,
    "▁staatlich": 28895,
    "▁rebuilt": 26935,
    "▁Cave": 21722,
    "PO": 6618,
    "▁pun": 4930,
    "AD": 6762,
    "70": 2518,
    "▁values": 2620,
    "▁russe": 27887,
    "▁Flame": 25489,
    "▁rester": 16286,
    "ături": 22043,
    "▁Geburtstag": 20986,
    "vergleich": 18023,
    "esse": 6119,
    "▁război": 24077,
    "▁Di": 2043,
    "edel": 21591,
    "▁walks": 10681,
    "▁Arsenal": 22358,
    "▁arms": 6026,
    "на": 8194,
    "nimmt": 12849,
    "▁Explorer": 15762,
    "nourishing": 30787,
    "▁surgery": 3730,
    "▁raw": 5902,
    "conce": 11620,
    "auch": 11532,
    "ки": 23110,
    "▁foarte": 1354,
    "▁primary": 2329,
    "▁mobility": 12337,
    "▁durata": 17920,
    "▁Veranstaltungen": 21216,
    "▁Eis": 16988,
    "life": 4597,
    "▁Anlagen": 26104,
    "▁Bubble": 30153,
    "▁blended": 19731,
    "▁existed": 16415,
    "▁einzelne": 9451,
    "▁reporting": 5099,
    "▁Living": 5753,
    "▁Injury": 28905,
    "▁slides": 16044,
    "▁band": 1928,
    "ousse": 17486,
    "avy": 19649,
    "▁Bildschirm": 30509,
    "▁neuer": 18601,
    "▁moyens": 16207,
    "BAN": 25534,
    "Bestimmungen": 30251,
    "▁semble": 10799,
    "▁Hindi": 25763,
    "▁biological": 11432,
    "şte": 8550,
    "chon": 17128,
    "▁ambience": 30539,
    "▁trauma": 11105,
    "volume": 23439,
    "commercial": 27260,
    "▁blog": 875,
    "van": 2132,
    "▁Sorge": 25362,
    "▁charges": 3991,
    "▁festive": 15723,
    "▁founder": 7174,
    "▁Global": 3699,
    "▁archaeological": 28949,
    "▁efectu": 12752,
    "lent": 6987,
    "▁Principle": 22826,
    "▁Muhammad": 24726,
    "icism": 20231,
    "▁Président": 22971,
    "West": 19069,
    "▁ani": 1667,
    "▁velvet": 21327,
    "rebounds": 23768,
    "▁safeguard": 18034,
    "▁Dave": 8545,
    "▁begonnen": 28971,
    "▁infinite": 21045,
    "▁efforts": 2231,
    "urmatoarele": 29294,
    "ential": 7220,
    "▁wollte": 10329,
    "▁impacts": 11737,
    "▁Greater": 15993,
    "▁Jahr": 2522,
    "▁ambition": 12517,
    "▁trimite": 19242,
    "▁rezid": 25485,
    "▁Problem": 5289,
    "pal": 6459,
    "▁villa": 12159,
    "isieren": 14008,
    "▁description": 4210,
    "wan": 3877,
    "▁adept": 26721,
    "anța": 16401,
    "▁artistique": 23662,
    "AMS": 25346,
    "ţi": 832,
    "träglich": 25878,
    "mel": 2341,
    "▁International": 1331,
    "antes": 8386,
    "у": 3700,
    "▁Communi": 27163,
    "▁Liga": 18515,
    "▁domni": 23920,
    "▁infectious": 24261,
    "▁spots": 6883,
    "▁opened": 2946,
    "▁Ladies": 23479,
    "▁reprezintă": 12789,
    "▁defendant": 11819,
    "▁Virtual": 11143,
    "symmetry": 29089,
    "▁Admir": 26519,
    "▁antibiotic": 14458,
    "▁Georgia": 5664,
    "heightened": 30714,
    "▁hran": 21971,
    "▁mold": 6797,
    "▁Assembly": 11993,
    "▁Prop": 13543,
    "▁Pascal": 25402,
    "▁fixed": 3599,
    "▁destroy": 10123,
    "invites": 28339,
    "oasa": 9154,
    "▁sensible": 11743,
    "IAL": 15397,
    "▁lumină": 28606,
    "▁pony": 26190,
    "▁Opfer": 25209,
    "▁artistes": 22013,
    "▁Patio": 21708,
    "▁death": 1687,
    "MAC": 16605,
    "From": 22674,
    "piece": 8424,
    "▁Birthday": 13753,
    "▁Abbey": 24632,
    "▁automatically": 3269,
    "▁concedi": 24554,
    "1.2": 10917,
    "▁DNS": 19380,
    "▁domaine": 8245,
    "▁explor": 26903,
    "▁hauteur": 18307,
    "▁here": 270,
    "▁donne": 8551,
    "talement": 21911,
    "▁lost": 1513,
    "▁said": 243,
    "itorul": 21570,
    "▁Sarah": 8077,
    "▁Zeitung": 23542,
    "Table": 20354,
    "▁pasta": 13732,
    "▁sicher": 4238,
    "02": 4305,
    "▁firme": 15486,
    "aggravate": 31540,
    "▁headache": 12085,
    "▁breit": 20972,
    "▁nationale": 11232,
    "note": 7977,
    "▁carton": 17676,
    "▁lakes": 17721,
    "▁féminin": 28054,
    "▁Holy": 6679,
    "▁Combin": 20578,
    "tendons": 31667,
    "▁bland": 28034,
    "▁Shadow": 18136,
    "▁full": 423,
    "▁zufrieden": 18254,
    "▁fata": 4812,
    "▁rare": 3400,
    "Benz": 15349,
    "3-2": 21160,
    "▁Valid": 23545,
    "▁prisoners": 22040,
    "▁comedy": 12373,
    "▁crispy": 24237,
    "▁discharge": 12445,
    "▁code": 1081,
    "▁proficiency": 27657,
    "▁Richmond": 17247,
    "cur": 3663,
    "▁Stoke": 28089,
    "▁Virgin": 16823,
    "▁metro": 12810,
    "▁Englisch": 26733,
    "ops": 9280,
    "blätter": 29040,
    "ză": 7129,
    "▁URL": 8889,
    "▁Similar": 18347,
    "▁Sign": 6365,
    "▁lose": 2615,
    "bro": 5702,
    "▁correlate": 30575,
    "▁diet": 3178,
    "▁horrific": 30120,
    "▁Sche": 10248,
    "▁Calendar": 18783,
    "▁adhere": 13859,
    "▁entspannen": 31549,
    "▁Brief": 15545,
    "▁hop": 13652,
    "▁Wear": 16883,
    "BG": 19179,
    "▁servers": 8379,
    "lute": 18453,
    "▁Regierung": 19108,
    "▁entwickeln": 18376,
    "▁slider": 23676,
    "▁peer": 11409,
    "▁goals": 1766,
    "intérêt": 10894,
    "équilibre": 22273,
    "état": 7795,
    "▁equality": 18963,
    "▁Promotion": 19369,
    "▁hatten": 8827,
    "aught": 9313,
    "▁réfléchi": 27021,
    "▁seventh": 17353,
    "▁cupcake": 19210,
    "eria": 4476,
    "▁basin": 21510,
    "Not": 10358,
    "▁scrap": 7346,
    "▁Rising": 25813,
    "▁advise": 7786,
    "▁Leisure": 31896,
    "▁Dylan": 24831,
    "960": 27699,
    "▁vieții": 25845,
    "▁Serve": 15672,
    "tritt": 8251,
    "▁delight": 11235,
    "▁Geburt": 24222,
    "modern": 18306,
    "/18": 19133,
    "▁Chuck": 21288,
    "▁cleansing": 21935,
    "▁7": 489,
    "▁Interest": 21230,
    "▁perfekt": 14728,
    "werten": 20707,
    "pers": 4660,
    "hui": 3464,
    "obst": 28626,
    "▁performing": 5505,
    "iga": 12581,
    "ter": 449,
    "▁Ell": 15334,
    "▁accompany": 12235,
    "LIC": 19624,
    "Spezialist": 29755,
    "▁hiding": 17810,
    "Occident": 30583,
    "▁erfüllen": 25447,
    "owner": 13238,
    "▁live": 619,
    "nton": 6992,
    "▁hopes": 7511,
    "▁warten": 22589,
    "▁miere": 24644,
    "▁Franklin": 16079,
    "▁routine": 3860,
    "Maintenant": 31407,
    "vie": 5914,
    "▁100,000": 18829,
    "▁grains": 18351,
    "▁communications": 5030,
    "▁dunkle": 28522,
    "▁merchant": 11947,
    "▁diverse": 2399,
    "▁Manda": 19926,
    "▁assessment": 4193,
    "Add": 20773,
    "▁appetite": 17699,
    "▁caut": 18879,
    "▁Shelby": 27677,
    "ware": 3404,
    "▁Stan": 11469,
    "chemistry": 11366,
    "▁Cre": 5895,
    "2,000": 8630,
    "▁metode": 20308,
    "▁jpl": 31719,
    "▁had": 141,
    "▁either": 893,
    "fung": 9940,
    "stria": 23387,
    "▁acrylic": 16683,
    "▁ingrediente": 21576,
    "▁Star": 2042,
    "▁continut": 18066,
    "▁aboard": 21392,
    "▁ulcer": 24575,
    "▁suprafata": 19325,
    "▁Dim": 18150,
    "0.9": 23758,
    "bel": 2370,
    "▁national": 1157,
    "▁camps": 15926,
    "▁exhaustive": 29124,
    "▁apropiat": 20851,
    "▁entity": 10409,
    "pursuing": 14651,
    "development": 19677,
    "▁util": 10818,
    "unui": 1787,
    "stuhl": 25775,
    "ody": 9666,
    "▁York": 1060,
    "▁setup": 5818,
    "▁(2010)": 26118,
    "▁Gemüse": 23638,
    "03.": 13267,
    "▁officers": 5803,
    "point": 2700,
    "▁talented": 7799,
    "List": 21310,
    "▁impart": 15950,
    "▁Couch": 28082,
    "hearted": 21992,
    "▁Vereinbarung": 30423,
    "shaped": 6489,
    "▁alter": 8310,
    "▁producător": 22741,
    "▁întâmpin": 31658,
    "▁echipă": 24451,
    "anilor": 25501,
    "7-9": 29568,
    "holz": 13085,
    "▁Ard": 22635,
    "▁Expect": 19539,
    "▁directors": 10392,
    "▁Glauben": 27612,
    "▁logiciel": 12785,
    "▁joueurs": 18181,
    "▁viele": 2584,
    "▁mounting": 15187,
    "attente": 27491,
    "▁exclusive": 3839,
    "wunder": 17044,
    "premise": 17398,
    "double": 25761,
    "▁footprint": 16630,
    "▁Magazine": 8336,
    "▁apartament": 17626,
    "▁Quali": 25388,
    "Je": 7851,
    "▁Fin": 7430,
    "▁arena": 15134,
    "▁split": 5679,
    "▁Conference": 4379,
    "ca": 658,
    "▁Veranstaltung": 13975,
    "▁erlaubt": 23437,
    "intervention": 22604,
    "▁vergleichen": 25132,
    "sectorul": 27731,
    "▁Bas": 6653,
    "AW": 9851,
    "▁Natur": 5823,
    "Trustees": 29972,
    "▁favourite": 3960,
    "▁cont": 3622,
    "▁psychology": 14153,
    "▁handelt": 11141,
    "▁lourd": 21833,
    "▁tema": 17922,
    "▁propus": 16918,
    "▁object": 3735,
    "oyons": 31964,
    "▁concrète": 31293,
    "▁bibliothèque": 25978,
    "▁partir": 5687,
    "led": 1361,
    "latéral": 31187,
    "help": 15061,
    "▁attended": 5526,
    "▁yarn": 14313,
    "▁off": 326,
    "▁rectif": 27748,
    "▁Câ": 15456,
    "▁gewünschte": 24054,
    "assessing": 20861,
    "▁Wendy": 24571,
    "▁fabrication": 14459,
    "▁damit": 2889,
    "BE": 10059,
    "▁Ethiopia": 22138,
    "schließen": 13344,
    "▁Tunnel": 27990,
    "intervalul": 31319,
    "actifs": 26444,
    "▁spice": 15412,
    "cor": 5715,
    "rival": 25295,
    "sorb": 23651,
    "agi": 6623,
    "▁Grenz": 22191,
    "▁Pepper": 21374,
    "▁waves": 9866,
    "▁Gemeinschaft": 23961,
    "teen": 6808,
    "▁significant": 1516,
    "launching": 14138,
    "▁Adventure": 12316,
    "Flüchtling": 25283,
    "ifizierung": 29858,
    "deutsche": 11751,
    "BIT": 26417,
    "International": 27490,
    "▁appreciation": 11746,
    "▁clădiri": 27532,
    "▁mineral": 7590,
    "oanele": 22598,
    "2.9": 27297,
    "▁Om": 13285,
    "▁List": 6792,
    "▁betting": 10385,
    "▁restaurants": 3661,
    "▁eindeutig": 27593,
    "▁virgin": 24556,
    "▁MasterCard": 29791,
    "server": 14322,
    "▁360": 9181,
    "adevar": 22681,
    "▁Pru": 21522,
    "▁mode": 2175,
    "▁sure": 417,
    "▁rotating": 22107,
    "▁trebui": 3932,
    "▁1)": 8925,
    "▁HIV": 13678,
    "Antoine": 25742,
    "pri": 2246,
    "unused": 23273,
    "calculating": 25956,
    "▁delivery": 1929,
    "▁Are": 1521,
    "LU": 9138,
    "▁Massage": 18162,
    "▁thru": 20380,
    "▁#2": 15493,
    "speaking": 26611,
    "▁siguranță": 23771,
    "▁Schönheit": 29476,
    "▁Serial": 29549,
    "Jubiläum": 30836,
    "▁prelua": 18903,
    "freiheit": 28995,
    "▁Tower": 10677,
    "▁serious": 2261,
    "chief": 20053,
    "▁emergency": 3583,
    "Phy": 16977,
    "978": 21441,
    "▁Konzert": 20631,
    "▁And": 275,
    "▁celles": 15193,
    "▁moved": 2301,
    "▁lend": 16173,
    "▁entstanden": 21569,
    "▁facilit": 8847,
    "▁kurze": 15012,
    "▁thus": 2932,
    "IPO": 25470,
    "yana": 21247,
    "▁Lunch": 20516,
    "▁bleibt": 9852,
    "▁$100": 10417,
    "▁tent": 5748,
    "▁Dictionary": 28767,
    "▁racing": 8191,
    "▁typically": 3115,
    "▁reality": 2669,
    "▁morning": 1379,
    "▁Sea": 3319,
    "▁penal": 12299,
    "▁Verarbeitung": 13937,
    "▁hide": 7387,
    "▁create": 482,
    "ondo": 17381,
    "tati": 7810,
    "traiter": 26687,
    "acc": 6004,
    "tent": 4669,
    "▁PA": 4935,
    "▁$30": 19106,
    "-14": 11590,
    "pp": 1572,
    "▁Police": 5076,
    "▁Construction": 8663,
    "ndro": 22357,
    "frame": 11415,
    "▁jersey": 13426,
    "astronom": 12466,
    "▁podcast": 8661,
    "referencing": 31573,
    "▁Cy": 6400,
    "▁themed": 18594,
    "flug": 18411,
    "▁home": 234,
    "▁Tudor": 21802,
    "print": 7260,
    "▁Applications": 15148,
    "▁clearing": 19390,
    "releasing": 16306,
    "▁holy": 15273,
    "▁Massachusetts": 9777,
    "▁secteur": 10383,
    "▁Integr": 15923,
    "▁wellbeing": 19016,
    "▁habits": 8966,
    "Totodat": 24871,
    "▁reconnu": 19950,
    "▁baptism": 27843,
    "▁exceptionally": 19226,
    "kli": 20529,
    "conceived": 21602,
    "comparatively": 31685,
    "▁Ward": 15811,
    "▁latter": 7722,
    "▁element": 3282,
    "Pacific": 25480,
    "▁accomplishment": 14508,
    "make": 19509,
    "$": 3229,
    "code": 4978,
    "Including": 25558,
    "weiligen": 15455,
    "▁striking": 11214,
    "▁officielle": 22940,
    "Allerdings": 17072,
    "gator": 19306,
    "categorized": 28295,
    "▁inspection": 6082,
    "wak": 18603,
[...]
